-- begin_signature
-- Weight_Memory(numWeight
-- 30
-- neuronNo
-- 9
-- layerNo
-- 3
-- addressWidth
-- 5
-- dataWidth
-- 16
-- weightFile
-- "w_3_9.hex")
-- end_signature
WIDTH=16;
DEPTH=30;

ADDRESS_RADIX=UNS;
DATA_RADIX=BIN;

CONTENT BEGIN
	29 :	0000000001001001;
	28 :	1111111011101001;
	27 :	0000000001110100;
	26 :	1111111101010100;
	25 :	1111111110011111;
	24 :	0000000110111010;
	23 :	1111111100111110;
	22 :	1111111101101100;
	21 :	0000000000111001;
	20 :	0000000001011011;
	19 :	1111111110110000;
	18 :	1111111111001110;
	17 :	0000000001110000;
	16 :	1111111000011110;
	15 :	0000000001000011;
	14 :	0000000011001000;
	13 :	1111111110000000;
	12 :	0000000110100111;
	11 :	1111111111101000;
	10 :	0000000000011101;
	9 :	1111111101110100;
	8 :	1111111111010111;
	7 :	1111111111011110;
	6 :	1111111011010011;
	5 :	0000000010011010;
	4 :	0000000010111101;
	3 :	0000000001011101;
	2 :	0000000100110001;
	1 :	0000000000010001;
	0 :	1111111110000111;
END;
