-- begin_signature
-- Weight_Memory(numWeight
-- 784
-- neuronNo
-- 8
-- layerNo
-- 1
-- addressWidth
-- 10
-- dataWidth
-- 16
-- weightFile
-- "w_1_8.mif")
-- end_signature
WIDTH=16;
DEPTH=784;

ADDRESS_RADIX=UNS;
DATA_RADIX=BIN;

CONTENT BEGIN
	783 :	0000000000011000;
	782 :	1111111111100010;
	781 :	0000000000000101;
	780 :	1111111111001100;
	779 :	0000000000000000;
	778 :	0000000000010101;
	777 :	0000000010001001;
	776 :	1111111111110001;
	775 :	0000000000000111;
	774 :	1111111110000101;
	773 :	1111111111111000;
	772 :	1111111111100101;
	771 :	1111111111010110;
	770 :	0000000000101110;
	769 :	0000000000010011;
	768 :	0000000000011010;
	767 :	0000000000111110;
	766 :	0000000101000110;
	765 :	1111111111101011;
	764 :	0000000001010111;
	763 :	0000000010001110;
	762 :	0000000001010110;
	761 :	1111111111110101;
	760 :	0000000000000001;
	759 :	0000000000110001;
	758 :	0000000000001000;
	757 :	0000000000111000;
	756 :	1111111111000110;
	755 :	0000000000100000;
	754 :	1111111111010110;
	753 :	0000000000001011;
	752 :	0000000000000000;
	751 :	1111111111100101;
	750 :	1111111110010110;
	749 :	0000000001110111;
	748 :	1111111111101101;
	747 :	0000000100110100;
	746 :	0000000010101100;
	745 :	1111111110111011;
	744 :	0000000001111110;
	743 :	0000000001110111;
	742 :	0000000101001101;
	741 :	0000000010111010;
	740 :	1111111011000100;
	739 :	1111111111001001;
	738 :	0000000110000110;
	737 :	0000001000011110;
	736 :	0000000101001110;
	735 :	0000000001101101;
	734 :	0000000001001101;
	733 :	1111111111000101;
	732 :	1111111101110000;
	731 :	0000000000001100;
	730 :	0000000000001100;
	729 :	0000000000010100;
	728 :	0000000000001100;
	727 :	0000000000001010;
	726 :	0000000000011001;
	725 :	0000000000011001;
	724 :	0000000000011101;
	723 :	1111111111111101;
	722 :	0000000000010001;
	721 :	0000000100010110;
	720 :	0000000011110100;
	719 :	0000000101000111;
	718 :	0000000111001100;
	717 :	0000000000100111;
	716 :	0000000111011010;
	715 :	0000001001100010;
	714 :	1111111110100001;
	713 :	1111111001110101;
	712 :	0000001000100101;
	711 :	0000000000110011;
	710 :	1111110110101100;
	709 :	0000000110101011;
	708 :	0000000000101100;
	707 :	0000000001100110;
	706 :	0000000100101111;
	705 :	0000001001000000;
	704 :	0000000111100111;
	703 :	0000000000101101;
	702 :	0000000000110111;
	701 :	1111111111011000;
	700 :	1111111111101101;
	699 :	0000000000011010;
	698 :	0000000000000110;
	697 :	0000000000111000;
	696 :	1111111111000011;
	695 :	1111111010101011;
	694 :	1111111000111001;
	693 :	1111111010001100;
	692 :	1111111010010011;
	691 :	1111111100110011;
	690 :	1111110110101011;
	689 :	1111111110011011;
	688 :	1111101110011100;
	687 :	1111111101100110;
	686 :	1111111010111000;
	685 :	0000000000001011;
	684 :	1111110000001001;
	683 :	0000000000010011;
	682 :	1111111001110100;
	681 :	1111111001111101;
	680 :	1111111110001010;
	679 :	0000000100100011;
	678 :	0000010000101111;
	677 :	0000001110011101;
	676 :	0000000100111111;
	675 :	0000000001000111;
	674 :	0000000001001101;
	673 :	0000000000011111;
	672 :	1111111111011101;
	671 :	0000000000001111;
	670 :	1111111111101011;
	669 :	1111111111000001;
	668 :	1111111110011111;
	667 :	1111110101111011;
	666 :	1111110110100111;
	665 :	1111110010101001;
	664 :	1111110000011111;
	663 :	1111110010100100;
	662 :	1111101110110011;
	661 :	1111110101111001;
	660 :	1111110100100010;
	659 :	1111110101011000;
	658 :	1111110010101111;
	657 :	0000000010010001;
	656 :	1111110101111111;
	655 :	1111111010010101;
	654 :	0000000100010001;
	653 :	1111111101111000;
	652 :	1111111010011111;
	651 :	0000000111111100;
	650 :	0000000110100111;
	649 :	0000000011001100;
	648 :	1111111110100111;
	647 :	1111111100010001;
	646 :	1111111110000010;
	645 :	1111111111100001;
	644 :	0000000000000101;
	643 :	1111111111111100;
	642 :	1111111111111011;
	641 :	0000000000000001;
	640 :	1111111101110001;
	639 :	1111110100001001;
	638 :	1111110100001100;
	637 :	1111110001101001;
	636 :	1111110001011100;
	635 :	1111111000011100;
	634 :	1111110100110100;
	633 :	1111111010101100;
	632 :	1111111101011000;
	631 :	0000000010100101;
	630 :	1111110111111010;
	629 :	1111110111011111;
	628 :	1111111010101101;
	627 :	1111110000001010;
	626 :	1111111100111000;
	625 :	1111111111010101;
	624 :	1111111111000010;
	623 :	1111111110011010;
	622 :	1111110111000101;
	621 :	1111111001110010;
	620 :	1111111011110010;
	619 :	1111111011100101;
	618 :	1111111111001010;
	617 :	0000000000001011;
	616 :	0000000000011011;
	615 :	1111111111111010;
	614 :	0000000001100110;
	613 :	0000000001001110;
	612 :	1111111100100001;
	611 :	1111110100011100;
	610 :	1111110011011110;
	609 :	1111110011111101;
	608 :	1111110110010111;
	607 :	1111110100111001;
	606 :	1111101111101110;
	605 :	1111110111011111;
	604 :	1111111111000010;
	603 :	1111111001001010;
	602 :	1111111010101100;
	601 :	1111110101101001;
	600 :	1111111001010100;
	599 :	1111110010011110;
	598 :	1111110101100100;
	597 :	1111111001001110;
	596 :	1111101110001000;
	595 :	1111101101100010;
	594 :	1111101011111101;
	593 :	1111110011101110;
	592 :	1111111001011101;
	591 :	1111111010100100;
	590 :	1111111111010000;
	589 :	1111111111110100;
	588 :	0000000000001000;
	587 :	1111111111101110;
	586 :	1111111111100010;
	585 :	0000000000100111;
	584 :	0000000000001001;
	583 :	1111110101101111;
	582 :	1111101101101001;
	581 :	1111101011111001;
	580 :	1111110011100011;
	579 :	1111101111000001;
	578 :	1111011011111100;
	577 :	1111101000011101;
	576 :	1111110011010001;
	575 :	1111110001011101;
	574 :	1111111111011000;
	573 :	1111111010101010;
	572 :	1111110101000010;
	571 :	1111111000001100;
	570 :	1111101101100101;
	569 :	1111111000110100;
	568 :	1111110011001100;
	567 :	1111110000110010;
	566 :	1111101110100011;
	565 :	1111111000110101;
	564 :	1111111110111101;
	563 :	1111111100100111;
	562 :	1111111111010001;
	561 :	0000000000100100;
	560 :	0000000000110100;
	559 :	0000000001001100;
	558 :	0000000000111100;
	557 :	0000000000011000;
	556 :	1111111000101111;
	555 :	1111101111010100;
	554 :	1111110000010111;
	553 :	1111110100111000;
	552 :	0000000000000011;
	551 :	1111111110001110;
	550 :	1111110101110110;
	549 :	1111111110000001;
	548 :	1111111101100000;
	547 :	1111111100111001;
	546 :	0000001010100101;
	545 :	1111111110100010;
	544 :	1111111011111101;
	543 :	1111110011100010;
	542 :	1111111010100011;
	541 :	1111111011011110;
	540 :	0000000010101111;
	539 :	1111111000101101;
	538 :	1111110100001010;
	537 :	1111111100001010;
	536 :	0000000001010101;
	535 :	1111111101110100;
	534 :	0000000000111011;
	533 :	0000000000110001;
	532 :	1111111111110110;
	531 :	1111111111111111;
	530 :	1111111111110101;
	529 :	1111111111111010;
	528 :	1111110101110111;
	527 :	1111101111110000;
	526 :	1111111010011001;
	525 :	1111110110100000;
	524 :	1111111110000000;
	523 :	1111110101001001;
	522 :	1111111011101010;
	521 :	0000000100010110;
	520 :	1111110010101111;
	519 :	1111111101111000;
	518 :	0000000011111010;
	517 :	1111111110110010;
	516 :	1111110101010010;
	515 :	1111111000101100;
	514 :	1111111010000101;
	513 :	1111110111111000;
	512 :	0000000000010000;
	511 :	1111111011111001;
	510 :	1111110001011111;
	509 :	1111110110111100;
	508 :	1111111010000010;
	507 :	1111111011010110;
	506 :	0000000000011110;
	505 :	0000000000100100;
	504 :	1111111111011111;
	503 :	0000000000011111;
	502 :	0000000000100010;
	501 :	1111111101100110;
	500 :	1111111001111100;
	499 :	1111111100000111;
	498 :	1111111110011110;
	497 :	1111111000011100;
	496 :	0000000010011110;
	495 :	1111111110101111;
	494 :	0000000011010110;
	493 :	1111111111001100;
	492 :	0000000011101100;
	491 :	0000001001111110;
	490 :	0000000010110011;
	489 :	1111111110010001;
	488 :	1111111100001010;
	487 :	1111111101010001;
	486 :	1111111011100101;
	485 :	0000000010100110;
	484 :	1111110000001001;
	483 :	1111111011110000;
	482 :	1111110010011100;
	481 :	1111111000011100;
	480 :	1111111011001000;
	479 :	1111111100110010;
	478 :	1111111111101000;
	477 :	0000000000010111;
	476 :	1111111111011100;
	475 :	0000000000011000;
	474 :	1111111110011100;
	473 :	1111110111001010;
	472 :	1111111101000011;
	471 :	0000000001010010;
	470 :	0000000110100000;
	469 :	0000001100010111;
	468 :	0000000001110110;
	467 :	1111111111011101;
	466 :	0000000001001010;
	465 :	0000000111011111;
	464 :	0000000111001100;
	463 :	0000001001111011;
	462 :	1111111101100010;
	461 :	1111111011010010;
	460 :	1111111111010100;
	459 :	1111111001100101;
	458 :	0000000010011010;
	457 :	1111111101110111;
	456 :	0000000001000110;
	455 :	0000000100000001;
	454 :	1111110011000111;
	453 :	1111110101010101;
	452 :	0000000000000000;
	451 :	1111111101101001;
	450 :	1111111111100100;
	449 :	0000000001000011;
	448 :	0000000000111111;
	447 :	1111111111100000;
	446 :	1111111100110011;
	445 :	1111111011110011;
	444 :	1111111001110100;
	443 :	0000000000000101;
	442 :	0000001101100100;
	441 :	0000001010111110;
	440 :	0000001010000101;
	439 :	0000000010000001;
	438 :	0000001100010100;
	437 :	0000001100101101;
	436 :	0000000000111101;
	435 :	0000001010111001;
	434 :	0000000110010000;
	433 :	1111111110000111;
	432 :	1111111011111001;
	431 :	1111110011001110;
	430 :	1111111010110001;
	429 :	1111110110000111;
	428 :	1111110110010101;
	427 :	1111111100001111;
	426 :	1111111001000100;
	425 :	1111110011011000;
	424 :	1111111110011101;
	423 :	0000000010111001;
	422 :	0000000000100111;
	421 :	1111111111000000;
	420 :	1111111111101110;
	419 :	0000000000100010;
	418 :	0000000000011100;
	417 :	0000000001111110;
	416 :	1111111100100000;
	415 :	0000000011011011;
	414 :	0000001010101100;
	413 :	1111111101000001;
	412 :	0000001111100010;
	411 :	0000010011110111;
	410 :	0000010010001011;
	409 :	0000001100101110;
	408 :	0000001111000110;
	407 :	0000000010101100;
	406 :	0000000000001010;
	405 :	1111111011110111;
	404 :	1111111010011110;
	403 :	1111111011001111;
	402 :	1111111111101110;
	401 :	1111111010110100;
	400 :	1111111010010000;
	399 :	1111110110111010;
	398 :	1111111010000010;
	397 :	1111111001101010;
	396 :	1111111110101001;
	395 :	1111111111111001;
	394 :	0000000001101001;
	393 :	1111111111101011;
	392 :	0000000000010011;
	391 :	0000000001001001;
	390 :	1111111111000110;
	389 :	1111111011101011;
	388 :	1111111001111111;
	387 :	1111111001111000;
	386 :	0000000100000111;
	385 :	1111111110001010;
	384 :	0000000001010100;
	383 :	1111111110111101;
	382 :	0000001001001010;
	381 :	0000001001010001;
	380 :	0000001011101010;
	379 :	1111110111001101;
	378 :	0000000011100011;
	377 :	1111101111010101;
	376 :	1111100111010010;
	375 :	1111111010101110;
	374 :	1111111001000111;
	373 :	1111110111101011;
	372 :	1111111100000110;
	371 :	1111111001000001;
	370 :	1111111000001101;
	369 :	1111111000111100;
	368 :	1111111111100001;
	367 :	0000000000010011;
	366 :	0000000010011011;
	365 :	0000000000010101;
	364 :	1111111111110010;
	363 :	0000000000000000;
	362 :	1111111111010010;
	361 :	1111111111001011;
	360 :	1111110100101101;
	359 :	1111110100110101;
	358 :	0000000010101001;
	357 :	1111111110010111;
	356 :	0000000001010111;
	355 :	0000000011010010;
	354 :	0000010001101111;
	353 :	0000001111110000;
	352 :	0000010000111100;
	351 :	0000001001011001;
	350 :	1111110101110101;
	349 :	1111101111010011;
	348 :	1111110111000110;
	347 :	0000000111111000;
	346 :	1111110001110100;
	345 :	1111111100101110;
	344 :	1111111111001010;
	343 :	1111111111010111;
	342 :	1111111011100101;
	341 :	1111111000000001;
	340 :	0000000100000001;
	339 :	0000000010011010;
	338 :	0000000000111011;
	337 :	0000000000010001;
	336 :	1111111111101100;
	335 :	1111111111011111;
	334 :	1111111101110111;
	333 :	1111111101101111;
	332 :	1111111000111111;
	331 :	1111111100110001;
	330 :	1111111110111100;
	329 :	0000000101101001;
	328 :	0000000100100010;
	327 :	1111111110111001;
	326 :	0000000100001110;
	325 :	0000000101101010;
	324 :	0000000100110101;
	323 :	0000001101011011;
	322 :	0000000000001000;
	321 :	0000000000001101;
	320 :	1111111010101100;
	319 :	0000001100110010;
	318 :	1111111101110001;
	317 :	1111110101110111;
	316 :	1111111101001100;
	315 :	0000000001100111;
	314 :	0000000101000010;
	313 :	1111111111000100;
	312 :	0000000100010101;
	311 :	0000000101010001;
	310 :	0000000001010011;
	309 :	1111111111101001;
	308 :	0000000000010110;
	307 :	0000000000001100;
	306 :	1111111101011110;
	305 :	1111111100010010;
	304 :	1111111001011010;
	303 :	1111111001100110;
	302 :	1111110110010110;
	301 :	1111111111100110;
	300 :	1111111010000000;
	299 :	0000000001001111;
	298 :	1111111101110101;
	297 :	0000000001100101;
	296 :	0000000110000011;
	295 :	0000000100101110;
	294 :	0000010000100100;
	293 :	0000010100101111;
	292 :	0000000010101111;
	291 :	0000000111101101;
	290 :	0000000010000001;
	289 :	0000000101100101;
	288 :	0000000110010001;
	287 :	1111111110010111;
	286 :	0000001000100011;
	285 :	0000000110010111;
	284 :	0000000100110110;
	283 :	0000000101001011;
	282 :	0000000100010011;
	281 :	0000000000001001;
	280 :	0000000000001001;
	279 :	0000000000101111;
	278 :	1111111100010000;
	277 :	1111111011010101;
	276 :	1111111100101000;
	275 :	1111110101000101;
	274 :	0000000001011110;
	273 :	0000000101000001;
	272 :	0000000011101000;
	271 :	0000000111001101;
	270 :	0000000000010010;
	269 :	0000000111110111;
	268 :	0000000010001001;
	267 :	0000000001000001;
	266 :	0000001001101101;
	265 :	0000001000110101;
	264 :	0000001010111100;
	263 :	0000000111100001;
	262 :	0000000001001100;
	261 :	0000001000010011;
	260 :	0000001001100000;
	259 :	1111111111110101;
	258 :	0000000110110001;
	257 :	0000001011100001;
	256 :	0000000101000101;
	255 :	0000000110010100;
	254 :	0000000010000101;
	253 :	0000000001000100;
	252 :	1111111111011010;
	251 :	1111111111101001;
	250 :	1111111100010100;
	249 :	1111111001010100;
	248 :	1111111011001111;
	247 :	0000000000101010;
	246 :	0000000010110010;
	245 :	1111111100100000;
	244 :	1111111011100100;
	243 :	1111111001100100;
	242 :	0000001111011001;
	241 :	1111111011101111;
	240 :	1111111100010000;
	239 :	0000000001111111;
	238 :	0000001000000101;
	237 :	1111111010011001;
	236 :	0000001100111111;
	235 :	0000001011111011;
	234 :	0000001000000011;
	233 :	0000001000101110;
	232 :	0000010010100000;
	231 :	0000001110101010;
	230 :	0000001001010110;
	229 :	0000000111011000;
	228 :	0000000100010010;
	227 :	0000000011011010;
	226 :	0000000010110010;
	225 :	1111111111100011;
	224 :	0000000000000010;
	223 :	1111111111110000;
	222 :	1111111100010111;
	221 :	1111111010000010;
	220 :	1111111100000110;
	219 :	1111111100001010;
	218 :	0000000000001010;
	217 :	0000000011001111;
	216 :	0000001001100111;
	215 :	0000000101010010;
	214 :	0000000001010110;
	213 :	0000010001001100;
	212 :	0000000101110010;
	211 :	1111111000101010;
	210 :	1111111110100111;
	209 :	0000000111010111;
	208 :	0000000010100000;
	207 :	1111111111010110;
	206 :	0000000011100111;
	205 :	0000001001101110;
	204 :	0000001001000011;
	203 :	0000001001011110;
	202 :	0000001010011011;
	201 :	0000000101010110;
	200 :	0000000000111111;
	199 :	0000000101010100;
	198 :	0000000001101000;
	197 :	0000000000011110;
	196 :	0000000000001000;
	195 :	0000000000101000;
	194 :	1111111111001110;
	193 :	1111111100000101;
	192 :	1111111010011100;
	191 :	1111110100101101;
	190 :	1111111101011010;
	189 :	0000001100011001;
	188 :	1111110111110001;
	187 :	1111110110000111;
	186 :	0000000110011011;
	185 :	0000000101001110;
	184 :	0000000010000001;
	183 :	1111111001110000;
	182 :	1111110101010110;
	181 :	1111111100001000;
	180 :	1111111111000000;
	179 :	0000000100011110;
	178 :	0000000001000111;
	177 :	0000000110010011;
	176 :	0000000010101101;
	175 :	0000000111011111;
	174 :	0000001100011101;
	173 :	0000000010111111;
	172 :	1111111101101101;
	171 :	1111111110000010;
	170 :	1111111111101001;
	169 :	0000000000001001;
	168 :	1111111111011111;
	167 :	1111111111110100;
	166 :	1111111110010001;
	165 :	1111111101101011;
	164 :	1111111110001001;
	163 :	1111111010101110;
	162 :	1111111000110000;
	161 :	1111111000000111;
	160 :	1111110100111001;
	159 :	1111110100001111;
	158 :	1111110001111011;
	157 :	1111110000010110;
	156 :	1111110000010011;
	155 :	1111110010011010;
	154 :	1111101001110011;
	153 :	1111101110101010;
	152 :	1111101110100111;
	151 :	1111110110011010;
	150 :	1111110011111001;
	149 :	1111111001001001;
	148 :	1111111101011010;
	147 :	1111111101100101;
	146 :	0000000001000111;
	145 :	0000000011000010;
	144 :	1111111111110011;
	143 :	0000000000000011;
	142 :	1111111111110000;
	141 :	1111111111011001;
	140 :	1111111111100101;
	139 :	0000000000011001;
	138 :	0000000000011011;
	137 :	1111111111010011;
	136 :	0000000000001010;
	135 :	1111111111101100;
	134 :	1111111111101001;
	133 :	0000000011010000;
	132 :	1111111111100010;
	131 :	1111111100111111;
	130 :	1111111000010001;
	129 :	1111110100101000;
	128 :	1111110111010101;
	127 :	1111110100010001;
	126 :	1111110100001000;
	125 :	1111110111100110;
	124 :	1111110101001011;
	123 :	1111111000001100;
	122 :	1111110110101111;
	121 :	1111110111000011;
	120 :	1111111010010101;
	119 :	1111111100101101;
	118 :	1111111110000001;
	117 :	1111111110101101;
	116 :	1111111111011010;
	115 :	1111111110111101;
	114 :	0000000000011110;
	113 :	1111111111100100;
	112 :	0000000000011001;
	111 :	1111111111110000;
	110 :	0000000000100110;
	109 :	0000000000110110;
	108 :	0000000000001101;
	107 :	1111111111000111;
	106 :	0000000000011110;
	105 :	0000000000100101;
	104 :	1111111110101111;
	103 :	0000000000000111;
	102 :	1111111101111100;
	101 :	1111111101100110;
	100 :	1111111011010110;
	99 :	1111111000110110;
	98 :	1111111010111001;
	97 :	1111110111010001;
	96 :	1111111000110110;
	95 :	1111111010110100;
	94 :	1111111011010000;
	93 :	1111111101000101;
	92 :	1111111101100111;
	91 :	1111111111100001;
	90 :	0000000000000000;
	89 :	1111111110110000;
	88 :	1111111111110010;
	87 :	0000000000101010;
	86 :	0000000000000100;
	85 :	1111111111011111;
	84 :	1111111111111001;
	83 :	1111111111010110;
	82 :	1111111111000000;
	81 :	1111111111011110;
	80 :	0000000000010001;
	79 :	0000000000000111;
	78 :	0000000000101000;
	77 :	0000000000010011;
	76 :	1111111111011101;
	75 :	1111111110111101;
	74 :	0000000000000110;
	73 :	1111111111010111;
	72 :	1111111111001100;
	71 :	1111111111000110;
	70 :	1111111110001110;
	69 :	1111111100011100;
	68 :	1111111101011101;
	67 :	1111111110110001;
	66 :	1111111111001111;
	65 :	1111111111011110;
	64 :	1111111110100011;
	63 :	1111111111001010;
	62 :	1111111111110011;
	61 :	1111111111010100;
	60 :	0000000000000011;
	59 :	0000000000011100;
	58 :	0000000000001001;
	57 :	1111111111110101;
	56 :	1111111111101110;
	55 :	0000000000110110;
	54 :	1111111111100101;
	53 :	0000000000010111;
	52 :	0000000000011011;
	51 :	1111111111111100;
	50 :	1111111111000000;
	49 :	1111111111100100;
	48 :	1111111111111010;
	47 :	1111111111101001;
	46 :	1111111111111110;
	45 :	0000000000000011;
	44 :	0000000000011010;
	43 :	1111111111101111;
	42 :	1111111111110111;
	41 :	1111111110101110;
	40 :	1111111111001100;
	39 :	1111111111101001;
	38 :	0000000000000001;
	37 :	0000000000101001;
	36 :	1111111110101110;
	35 :	1111111110000011;
	34 :	1111111111101111;
	33 :	0000000000010100;
	32 :	1111111111101111;
	31 :	1111111111000010;
	30 :	1111111111100011;
	29 :	0000000000111001;
	28 :	0000000000001111;
	27 :	0000000000000111;
	26 :	1111111111100100;
	25 :	0000000000011001;
	24 :	1111111111110111;
	23 :	1111111110111101;
	22 :	0000000000001110;
	21 :	0000000000000010;
	20 :	0000000000110001;
	19 :	0000000000000111;
	18 :	1111111111001111;
	17 :	1111111111111010;
	16 :	0000000000011011;
	15 :	1111111111110010;
	14 :	0000000000000000;
	13 :	0000000000001111;
	12 :	1111111111110110;
	11 :	1111111111001010;
	10 :	0000000000000101;
	9 :	1111111111011101;
	8 :	0000000000110010;
	7 :	1111111111010101;
	6 :	0000000000000101;
	5 :	1111111111101110;
	4 :	1111111111101000;
	3 :	1111111111100110;
	2 :	0000000000000111;
	1 :	0000000001000001;
	0 :	0000000000011001;
END;
