-- begin_signature
-- Weight_Memory(numWeight
-- 784
-- neuronNo
-- 21
-- layerNo
-- 1
-- addressWidth
-- 10
-- dataWidth
-- 16
-- weightFile
-- "w_1_21.mif")
-- end_signature
WIDTH=16;
DEPTH=784;

ADDRESS_RADIX=UNS;
DATA_RADIX=BIN;

CONTENT BEGIN
	783 :	0000000000101001;
	782 :	1111111111111001;
	781 :	0000000000100000;
	780 :	0000000000001100;
	779 :	1111111111001001;
	778 :	0000000000000010;
	777 :	0000000000011000;
	776 :	0000000000010111;
	775 :	1111111111111111;
	774 :	1111111111100000;
	773 :	1111111111001010;
	772 :	1111111111101101;
	771 :	1111111111011110;
	770 :	1111111110111010;
	769 :	1111111111000100;
	768 :	0000000000010110;
	767 :	1111111111010011;
	766 :	1111111111010110;
	765 :	1111111111010010;
	764 :	1111111110111011;
	763 :	1111111100010001;
	762 :	1111111110111001;
	761 :	1111111111110000;
	760 :	1111111111111001;
	759 :	1111111111100110;
	758 :	1111111111001101;
	757 :	0000000000010001;
	756 :	0000000000101110;
	755 :	0000000000011010;
	754 :	1111111111011011;
	753 :	0000000000011011;
	752 :	1111111111010010;
	751 :	0000000000111000;
	750 :	1111111110101000;
	749 :	1111111101111101;
	748 :	0000000000000000;
	747 :	1111111111000100;
	746 :	1111111100001101;
	745 :	1111111100001101;
	744 :	1111111100011000;
	743 :	1111111101010101;
	742 :	1111111001000011;
	741 :	1111111011000010;
	740 :	1111111001100000;
	739 :	1111111000110101;
	738 :	1111111001111011;
	737 :	1111111010011001;
	736 :	1111111010101011;
	735 :	1111111011111011;
	734 :	1111111100101000;
	733 :	1111111101011101;
	732 :	1111111111110010;
	731 :	0000000000000100;
	730 :	0000000000001111;
	729 :	1111111111100001;
	728 :	0000000000010000;
	727 :	1111111111001010;
	726 :	1111111111110001;
	725 :	0000000000000110;
	724 :	0000000000011100;
	723 :	0000000011000000;
	722 :	0000000011010110;
	721 :	0000000010001110;
	720 :	0000000000100011;
	719 :	1111111011100000;
	718 :	1111111100000001;
	717 :	1111110100010100;
	716 :	1111111000111011;
	715 :	0000000001001100;
	714 :	1111111111100000;
	713 :	1111111001011110;
	712 :	1111111110111001;
	711 :	1111111110100010;
	710 :	1111111011011001;
	709 :	1111111110111111;
	708 :	1111111101000001;
	707 :	1111111110110111;
	706 :	0000000000001011;
	705 :	1111111101011101;
	704 :	1111111111111011;
	703 :	1111111111111000;
	702 :	1111111111000001;
	701 :	0000000000101100;
	700 :	1111111111111001;
	699 :	1111111111100001;
	698 :	1111111111011001;
	697 :	0000000000100011;
	696 :	1111111110111110;
	695 :	0000000010001100;
	694 :	0000000110001111;
	693 :	1111111111100001;
	692 :	1111111011000010;
	691 :	1111111011110111;
	690 :	1111110111100100;
	689 :	1111111101100010;
	688 :	1111111100101000;
	687 :	0000001000111011;
	686 :	0000001011110000;
	685 :	1111111110111000;
	684 :	0000000011101110;
	683 :	0000001011111001;
	682 :	0000000011111111;
	681 :	1111111111100010;
	680 :	1111111111010010;
	679 :	1111111111011010;
	678 :	0000000001100011;
	677 :	0000000000011100;
	676 :	0000000000001000;
	675 :	1111111111100001;
	674 :	0000000000000000;
	673 :	1111111111110001;
	672 :	1111111111101000;
	671 :	1111111110111000;
	670 :	0000000000110011;
	669 :	0000000000110011;
	668 :	1111111110001000;
	667 :	1111111100110001;
	666 :	1111111100001111;
	665 :	1111111010010001;
	664 :	1111111110110100;
	663 :	0000000011010011;
	662 :	1111111100101010;
	661 :	0000000011101000;
	660 :	1111111001111101;
	659 :	0000000000000010;
	658 :	0000000001100010;
	657 :	1111111001111100;
	656 :	1111111111011111;
	655 :	1111111110100011;
	654 :	0000000100110001;
	653 :	1111111111010111;
	652 :	1111111001111110;
	651 :	0000000000000000;
	650 :	1111111111111100;
	649 :	1111111111110101;
	648 :	0000000000000011;
	647 :	1111111111101001;
	646 :	0000000001010101;
	645 :	1111111111010101;
	644 :	1111111111111100;
	643 :	1111111111101111;
	642 :	0000000000010001;
	641 :	1111111111001000;
	640 :	1111111101001110;
	639 :	1111111100010100;
	638 :	1111111101101101;
	637 :	1111111110011101;
	636 :	1111111111101110;
	635 :	1111111110011111;
	634 :	0000000100101010;
	633 :	1111111110100010;
	632 :	1111111100110110;
	631 :	1111111100000011;
	630 :	1111111110010101;
	629 :	1111111011001110;
	628 :	1111111110000000;
	627 :	1111111011111001;
	626 :	1111111111100000;
	625 :	1111111111101011;
	624 :	0000000010100001;
	623 :	1111111101000011;
	622 :	1111111100011000;
	621 :	1111111110110010;
	620 :	1111111111011111;
	619 :	0000000000000000;
	618 :	1111111111001001;
	617 :	0000000000110111;
	616 :	0000000000011010;
	615 :	1111111111110000;
	614 :	0000000000111100;
	613 :	1111111101010010;
	612 :	1111111010000110;
	611 :	1111111011010000;
	610 :	1111111011100010;
	609 :	1111111101101110;
	608 :	1111110111100101;
	607 :	1111111000111001;
	606 :	1111111100100101;
	605 :	1111110011100000;
	604 :	1111111111001010;
	603 :	0000000001010101;
	602 :	1111111011010001;
	601 :	1111111100101111;
	600 :	1111111011110101;
	599 :	1111111100011100;
	598 :	1111111011101100;
	597 :	0000000011011101;
	596 :	1111111111100100;
	595 :	1111110111001011;
	594 :	1111111001010111;
	593 :	1111111110100011;
	592 :	1111111110001101;
	591 :	0000000000011010;
	590 :	1111111111011110;
	589 :	0000000000011011;
	588 :	0000000000011010;
	587 :	0000000000101100;
	586 :	0000000000010010;
	585 :	1111111100100010;
	584 :	1111111100101111;
	583 :	1111111101101111;
	582 :	1111111100000101;
	581 :	1111111110110000;
	580 :	1111111011000001;
	579 :	1111111100011110;
	578 :	0000000001010100;
	577 :	1111111011001000;
	576 :	0000000100110000;
	575 :	1111110100100101;
	574 :	1111111101111011;
	573 :	1111111100010011;
	572 :	1111111001010010;
	571 :	1111111010100111;
	570 :	1111111101000001;
	569 :	1111111011101111;
	568 :	1111111101100100;
	567 :	1111111011101010;
	566 :	1111111100111100;
	565 :	0000000000010000;
	564 :	1111111111001010;
	563 :	1111111110101100;
	562 :	0000000000100010;
	561 :	1111111111100001;
	560 :	1111111111110000;
	559 :	1111111111010001;
	558 :	0000000000011101;
	557 :	1111111110001111;
	556 :	1111111100101111;
	555 :	0000000001001011;
	554 :	0000000000010110;
	553 :	1111111011100110;
	552 :	0000000010101000;
	551 :	0000000100010100;
	550 :	0000000000101011;
	549 :	1111111110000111;
	548 :	1111111101000010;
	547 :	1111111001001000;
	546 :	1111111010110010;
	545 :	1111110100100100;
	544 :	1111111011101111;
	543 :	0000000001111111;
	542 :	1111110101000000;
	541 :	1111110110101101;
	540 :	0000001001000000;
	539 :	1111111100010011;
	538 :	1111111101010111;
	537 :	0000000010000111;
	536 :	0000000010001111;
	535 :	0000000001000001;
	534 :	1111111111100101;
	533 :	0000000000110101;
	532 :	1111111111100001;
	531 :	1111111110111001;
	530 :	0000000000000100;
	529 :	1111111101010000;
	528 :	1111111100111111;
	527 :	0000000011001010;
	526 :	0000000110101101;
	525 :	0000000111110001;
	524 :	0000001011000011;
	523 :	0000001110001011;
	522 :	1111111101011001;
	521 :	0000000011001110;
	520 :	0000000110011001;
	519 :	1111111101110101;
	518 :	0000000100110001;
	517 :	0000000111110101;
	516 :	0000000100101000;
	515 :	0000000001101100;
	514 :	1111101111101000;
	513 :	1111111011010101;
	512 :	0000000011010000;
	511 :	1111111101011101;
	510 :	1111111010110010;
	509 :	0000000001000110;
	508 :	0000000111010100;
	507 :	0000000011010001;
	506 :	0000000000110001;
	505 :	0000000000100111;
	504 :	0000000000010000;
	503 :	1111111111111101;
	502 :	0000000000100110;
	501 :	1111111111101010;
	500 :	0000000010010000;
	499 :	0000000011101110;
	498 :	0000000101001000;
	497 :	0000000101100001;
	496 :	0000000110011001;
	495 :	0000000101110111;
	494 :	1111111010100110;
	493 :	0000000010000111;
	492 :	0000000000000000;
	491 :	0000000000100100;
	490 :	0000000110001101;
	489 :	0000000101100001;
	488 :	1111111101100000;
	487 :	1111110101110110;
	486 :	1111110011110100;
	485 :	1111111101111000;
	484 :	1111111110100001;
	483 :	0000000000110010;
	482 :	0000000000000000;
	481 :	1111111101110010;
	480 :	0000000011100101;
	479 :	0000000001001001;
	478 :	0000000000001010;
	477 :	0000000000100100;
	476 :	0000000000011101;
	475 :	0000000000011001;
	474 :	1111111111100011;
	473 :	1111111100011011;
	472 :	0000000001010111;
	471 :	0000000011101010;
	470 :	0000000101111010;
	469 :	1111111111111101;
	468 :	1111111111100001;
	467 :	1111111000101000;
	466 :	1111111111110111;
	465 :	1111111011000110;
	464 :	1111111101011001;
	463 :	1111111101011101;
	462 :	0000000000000111;
	461 :	0000000000101000;
	460 :	1111111101111000;
	459 :	1111111010011111;
	458 :	1111111010010011;
	457 :	0000000010010110;
	456 :	0000000011111110;
	455 :	0000000001001000;
	454 :	1111111110111100;
	453 :	1111111110011101;
	452 :	1111111111110111;
	451 :	0000000010111000;
	450 :	0000000000000100;
	449 :	0000000000011110;
	448 :	1111111111101110;
	447 :	1111111111101000;
	446 :	1111111110111110;
	445 :	1111111111001101;
	444 :	1111111111011100;
	443 :	0000000101000000;
	442 :	0000000111010010;
	441 :	1111111100111000;
	440 :	1111111100111001;
	439 :	0000000101010110;
	438 :	0000000001110001;
	437 :	0000001011101101;
	436 :	0000000100001001;
	435 :	0000000000000101;
	434 :	0000000010010111;
	433 :	1111111101111111;
	432 :	1111111001010011;
	431 :	1111111000010001;
	430 :	1111111111010000;
	429 :	0000001010111011;
	428 :	0000000011011001;
	427 :	1111111110110100;
	426 :	0000000000110010;
	425 :	1111111111111001;
	424 :	1111111110100100;
	423 :	0000000011000010;
	422 :	0000000000110101;
	421 :	0000000000001011;
	420 :	1111111111101011;
	419 :	1111111111110110;
	418 :	1111111111111011;
	417 :	1111111111111101;
	416 :	1111111110001100;
	415 :	0000000011001001;
	414 :	1111111110110110;
	413 :	1111111100000100;
	412 :	0000000100111000;
	411 :	0000001111010010;
	410 :	1111111011010001;
	409 :	0000001010101110;
	408 :	0000000011111110;
	407 :	0000000000101100;
	406 :	1111111101111100;
	405 :	1111111101001001;
	404 :	1111111110011101;
	403 :	1111111001011000;
	402 :	0000001000110100;
	401 :	1111111111000100;
	400 :	0000000001100001;
	399 :	1111111110011100;
	398 :	0000000000000000;
	397 :	1111111111101111;
	396 :	0000000000011111;
	395 :	1111111111101111;
	394 :	1111111111101111;
	393 :	0000000000011011;
	392 :	1111111111001000;
	391 :	0000000000000111;
	390 :	1111111111001010;
	389 :	1111111110100000;
	388 :	1111111100000010;
	387 :	1111111101011110;
	386 :	1111111011100100;
	385 :	1111111110000011;
	384 :	0000001001101100;
	383 :	0000000111011001;
	382 :	0000000011100101;
	381 :	0000000110110010;
	380 :	1111110110101010;
	379 :	1111111101101110;
	378 :	1111110101001100;
	377 :	0000000011101111;
	376 :	0000000011001110;
	375 :	0000000101001111;
	374 :	0000001000100001;
	373 :	0000000001001101;
	372 :	0000000111100000;
	371 :	1111111110101011;
	370 :	0000000010111110;
	369 :	1111111010101001;
	368 :	1111111110001000;
	367 :	1111111111000001;
	366 :	1111111111001111;
	365 :	0000000000101101;
	364 :	1111111111111011;
	363 :	1111111111110001;
	362 :	0000000000100100;
	361 :	1111111110001101;
	360 :	1111111010101010;
	359 :	1111111001011010;
	358 :	1111111111101111;
	357 :	0000000011001010;
	356 :	0000000101110111;
	355 :	0000000000101111;
	354 :	0000000000110011;
	353 :	1111111100001010;
	352 :	0000000010011111;
	351 :	0000000000011101;
	350 :	1111111111011111;
	349 :	0000000111111010;
	348 :	0000001111011000;
	347 :	1111111011010110;
	346 :	1111111100111000;
	345 :	1111111110100001;
	344 :	0000000101111011;
	343 :	1111111110010101;
	342 :	0000000000111010;
	341 :	1111111011101101;
	340 :	1111111100010011;
	339 :	1111111110011010;
	338 :	0000000000011010;
	337 :	1111111111111111;
	336 :	0000000000001000;
	335 :	0000000000000110;
	334 :	1111111111110111;
	333 :	1111111101011001;
	332 :	1111111000101111;
	331 :	1111111011010000;
	330 :	1111111111010001;
	329 :	1111111111001111;
	328 :	1111111000011001;
	327 :	0000000000111000;
	326 :	0000000100100001;
	325 :	0000000010001001;
	324 :	1111111110001100;
	323 :	1111110111001001;
	322 :	1111110011101001;
	321 :	0000001000000100;
	320 :	0000010000010000;
	319 :	0000000110111010;
	318 :	0000000100100010;
	317 :	0000000101100010;
	316 :	1111111101010101;
	315 :	1111111111100001;
	314 :	1111111101001111;
	313 :	1111111010010000;
	312 :	1111111101100010;
	311 :	1111111110001000;
	310 :	1111111111011110;
	309 :	0000000000010001;
	308 :	1111111111110010;
	307 :	0000000000011110;
	306 :	1111111111101100;
	305 :	1111111110000011;
	304 :	0000000001001110;
	303 :	0000000000001110;
	302 :	0000001000010000;
	301 :	0000000101001110;
	300 :	0000000010000010;
	299 :	0000000111101111;
	298 :	0000000001011100;
	297 :	1111111101010111;
	296 :	1111100101100110;
	295 :	1111101000101101;
	294 :	0000001001001110;
	293 :	0000010001100000;
	292 :	0000000110101010;
	291 :	0000000110101001;
	290 :	0000000100010111;
	289 :	1111111001010100;
	288 :	0000000001000011;
	287 :	1111111111011001;
	286 :	1111111100011000;
	285 :	1111111110011100;
	284 :	1111111100011111;
	283 :	1111111101111100;
	282 :	1111111110000011;
	281 :	1111111111111110;
	280 :	1111111110101111;
	279 :	0000000000000100;
	278 :	1111111110100001;
	277 :	1111111110101110;
	276 :	0000000011001010;
	275 :	0000000110011110;
	274 :	0000000001100001;
	273 :	0000000001101111;
	272 :	0000000100110011;
	271 :	0000000101110100;
	270 :	0000000110001111;
	269 :	1111110111011101;
	268 :	1111011010100111;
	267 :	1111110011001100;
	266 :	0000001111000000;
	265 :	0000010000110101;
	264 :	0000000001011010;
	263 :	1111111111001011;
	262 :	1111111011110110;
	261 :	1111111101100000;
	260 :	1111110110110111;
	259 :	1111111011110100;
	258 :	1111111111001110;
	257 :	0000000000011111;
	256 :	1111111111100101;
	255 :	0000000000001101;
	254 :	0000000000101100;
	253 :	0000000001000101;
	252 :	1111111111111000;
	251 :	0000000000100100;
	250 :	1111111110101110;
	249 :	0000000100110100;
	248 :	0000001010111110;
	247 :	0000001000101101;
	246 :	1111111101101101;
	245 :	0000000001001011;
	244 :	0000000101011010;
	243 :	0000000011110111;
	242 :	1111111011101101;
	241 :	1111011011110111;
	240 :	1111100000000010;
	239 :	0000000101101111;
	238 :	0000001110100101;
	237 :	0000001101111101;
	236 :	0000001000011010;
	235 :	1111111111101101;
	234 :	1111111110001100;
	233 :	1111111010000011;
	232 :	1111110111100001;
	231 :	1111111110010100;
	230 :	1111111011110110;
	229 :	1111111111011000;
	228 :	0000000001101001;
	227 :	0000000001011000;
	226 :	1111111111011111;
	225 :	1111111111101001;
	224 :	1111111111101110;
	223 :	0000000000010110;
	222 :	0000000001001011;
	221 :	1111111111110111;
	220 :	0000000101011001;
	219 :	0000001010111110;
	218 :	0000000001111000;
	217 :	1111111100010101;
	216 :	0000000010000000;
	215 :	1111111101011010;
	214 :	1111101010000110;
	213 :	1111011001100010;
	212 :	1111110011110111;
	211 :	1111111100110101;
	210 :	0000000110000011;
	209 :	0000001011110011;
	208 :	0000000010110110;
	207 :	0000000001011001;
	206 :	1111110011101011;
	205 :	1111111110110000;
	204 :	1111111010101000;
	203 :	1111111011110000;
	202 :	0000000001100111;
	201 :	0000000010111100;
	200 :	0000000010100000;
	199 :	0000000011010011;
	198 :	1111111111110111;
	197 :	0000000000001111;
	196 :	1111111111010101;
	195 :	1111111111111000;
	194 :	1111111111110110;
	193 :	1111111100010110;
	192 :	0000000011010111;
	191 :	0000001011110011;
	190 :	0000000111101000;
	189 :	0000000010101000;
	188 :	0000000001010001;
	187 :	1111110111010111;
	186 :	1111100010001011;
	185 :	1111011111100101;
	184 :	1111110111010111;
	183 :	1111111101110111;
	182 :	0000000000101100;
	181 :	0000000110111011;
	180 :	0000000011111011;
	179 :	1111111101000011;
	178 :	0000000000100000;
	177 :	0000000100011010;
	176 :	0000000100010110;
	175 :	0000000011100011;
	174 :	0000000111101111;
	173 :	0000000100111110;
	172 :	0000000100001111;
	171 :	0000000010000100;
	170 :	1111111111111111;
	169 :	0000000000000100;
	168 :	0000000000000111;
	167 :	1111111111101000;
	166 :	1111111110110100;
	165 :	0000000000010011;
	164 :	0000000110010111;
	163 :	0000001001010110;
	162 :	0000000101100111;
	161 :	0000000000111011;
	160 :	0000000000000010;
	159 :	1111111000101111;
	158 :	1111101100110010;
	157 :	1111100011111101;
	156 :	1111111010000100;
	155 :	0000000000111001;
	154 :	0000001000101011;
	153 :	0000000011100010;
	152 :	0000001011101100;
	151 :	0000000001011100;
	150 :	0000000101100010;
	149 :	0000000011100001;
	148 :	0000000110010001;
	147 :	0000001010101100;
	146 :	0000000110010000;
	145 :	0000000100011110;
	144 :	0000000011011100;
	143 :	0000000001001001;
	142 :	0000000000100001;
	141 :	1111111111110111;
	140 :	1111111111011101;
	139 :	0000000000010000;
	138 :	1111111111010111;
	137 :	0000000001100011;
	136 :	0000000011011110;
	135 :	0000000010110111;
	134 :	0000000010010010;
	133 :	1111111111010000;
	132 :	1111111111011001;
	131 :	1111111110100100;
	130 :	1111110100011001;
	129 :	1111101011101101;
	128 :	1111110000010111;
	127 :	1111110101111000;
	126 :	0000001000101000;
	125 :	0000001100000100;
	124 :	0000000110101001;
	123 :	0000001010001111;
	122 :	0000000100010100;
	121 :	1111111100010000;
	120 :	0000000101010101;
	119 :	0000000001110010;
	118 :	0000000100010011;
	117 :	0000000011000000;
	116 :	0000000000110100;
	115 :	0000000000010001;
	114 :	0000000000101101;
	113 :	0000000000010001;
	112 :	1111111111100100;
	111 :	1111111111111000;
	110 :	0000000000000000;
	109 :	0000000000010011;
	108 :	1111111111110101;
	107 :	0000000000011000;
	106 :	0000000010010010;
	105 :	0000000001001011;
	104 :	0000000000000010;
	103 :	1111111110100111;
	102 :	1111111100111000;
	101 :	1111111010001100;
	100 :	1111110110110101;
	99 :	1111110111010000;
	98 :	1111111100010011;
	97 :	0000000001000010;
	96 :	0000000100010101;
	95 :	0000000101010001;
	94 :	1111111111100011;
	93 :	1111111011001110;
	92 :	0000000000000010;
	91 :	0000000001000010;
	90 :	1111111111001001;
	89 :	1111111111111111;
	88 :	0000000000001111;
	87 :	1111111111101010;
	86 :	0000000000100010;
	85 :	1111111111101101;
	84 :	0000000000010011;
	83 :	0000000000010010;
	82 :	1111111111010010;
	81 :	1111111111111100;
	80 :	1111111110110100;
	79 :	0000000000110010;
	78 :	0000000000000000;
	77 :	0000000000010110;
	76 :	1111111111110001;
	75 :	1111111111101101;
	74 :	1111111111110001;
	73 :	1111111101010000;
	72 :	1111111011101010;
	71 :	1111111111011010;
	70 :	0000000000100010;
	69 :	1111111110100100;
	68 :	1111111101100010;
	67 :	1111111110111001;
	66 :	1111111111100011;
	65 :	1111111110111100;
	64 :	1111111110010000;
	63 :	1111111110001111;
	62 :	0000000000011100;
	61 :	0000000000000000;
	60 :	0000000000001001;
	59 :	1111111110111101;
	58 :	0000000000010011;
	57 :	1111111111111110;
	56 :	1111111111110100;
	55 :	0000000000010011;
	54 :	0000000000000000;
	53 :	0000000001000101;
	52 :	1111111111110000;
	51 :	0000000000010101;
	50 :	0000000000011110;
	49 :	0000000000011100;
	48 :	1111111111001011;
	47 :	1111111111011110;
	46 :	0000000000011000;
	45 :	0000000000010100;
	44 :	1111111111001110;
	43 :	0000000000101100;
	42 :	1111111110111110;
	41 :	1111111111011010;
	40 :	1111111111001010;
	39 :	0000000000000000;
	38 :	1111111111111110;
	37 :	1111111110100100;
	36 :	0000000000000100;
	35 :	1111111110111001;
	34 :	1111111111111000;
	33 :	1111111111001101;
	32 :	0000000000101010;
	31 :	0000000000101110;
	30 :	0000000000100110;
	29 :	0000000000110110;
	28 :	1111111110101000;
	27 :	0000000000011000;
	26 :	0000000000000010;
	25 :	0000000000100010;
	24 :	0000000000100101;
	23 :	0000000000011001;
	22 :	1111111111101111;
	21 :	0000000000000110;
	20 :	0000000000100111;
	19 :	1111111111110001;
	18 :	1111111111011100;
	17 :	1111111111110110;
	16 :	1111111111111110;
	15 :	0000000000000101;
	14 :	0000000000100001;
	13 :	1111111110111101;
	12 :	1111111111101001;
	11 :	1111111111000100;
	10 :	1111111111110101;
	9 :	1111111111010110;
	8 :	0000000001000010;
	7 :	1111111111001110;
	6 :	0000000000101110;
	5 :	1111111111110101;
	4 :	1111111111111010;
	3 :	0000000000010001;
	2 :	1111111111000100;
	1 :	1111111111111100;
	0 :	0000000000010000;
END;
