-- begin_signature
-- Weight_Memory(numWeight
-- 30
-- neuronNo
-- 8
-- layerNo
-- 2
-- addressWidth
-- 5
-- dataWidth
-- 16
-- weightFile
-- "w_2_8.hex")
-- end_signature
WIDTH=16;
DEPTH=30;

ADDRESS_RADIX=UNS;
DATA_RADIX=BIN;

CONTENT BEGIN
	29 :	1111111110101100;
	28 :	0000000110111001;
	27 :	0000000000011001;
	26 :	1111101011110101;
	25 :	1111110011001000;
	24 :	1111110111001000;
	23 :	1111111000001010;
	22 :	0000010110011011;
	21 :	0000000011100100;
	20 :	1111110100000101;
	19 :	1111111000001000;
	18 :	1111111000111110;
	17 :	0000100001111000;
	16 :	0000100110101101;
	15 :	0000011100010111;
	14 :	1111110011011101;
	13 :	0000000000000001;
	12 :	0000000110011010;
	11 :	0000100001001000;
	10 :	1111111111111001;
	9 :	0000011010001100;
	8 :	0000010101010001;
	7 :	0000010010001001;
	6 :	0000010101110110;
	5 :	0000000111111011;
	4 :	1111111110111011;
	3 :	0000000010110101;
	2 :	0000010010100111;
	1 :	1111101110001010;
	0 :	1111111111001111;
END;
