-- begin_signature
-- Weight_Memory(numWeight
-- 30
-- neuronNo
-- 1
-- layerNo
-- 2
-- addressWidth
-- 5
-- dataWidth
-- 16
-- weightFile
-- "w_2_1.hex")
-- end_signature
WIDTH=16;
DEPTH=30;

ADDRESS_RADIX=UNS;
DATA_RADIX=BIN;

CONTENT BEGIN
	29 :	0000000000011111;
	28 :	0000111000001001;
	27 :	1111111101111000;
	26 :	1111101100110101;
	25 :	1111101001001011;
	24 :	1111101001111100;
	23 :	0000100001100101;
	22 :	1111101110001011;
	21 :	0000000010001101;
	20 :	1111100111101001;
	19 :	1111101001110100;
	18 :	1111111011011100;
	17 :	0000011101110001;
	16 :	1111111100011000;
	15 :	1111111110010000;
	14 :	0000000010110100;
	13 :	1111111101100010;
	12 :	1111111101110111;
	11 :	1111111111101110;
	10 :	1111111111011000;
	9 :	1111111011111011;
	8 :	1111111001110110;
	7 :	1111111001110001;
	6 :	1111101101000010;
	5 :	1111101011011100;
	4 :	0000000011000001;
	3 :	0000000101100011;
	2 :	0000000111001000;
	1 :	0000000001110010;
	0 :	0000000100111000;
END;
