-- begin_signature
-- Weight_Memory(numWeight
-- 784
-- neuronNo
-- 16
-- layerNo
-- 1
-- addressWidth
-- 10
-- dataWidth
-- 16
-- weightFile
-- "w_1_16.mif")
-- end_signature
WIDTH=16;
DEPTH=784;

ADDRESS_RADIX=UNS;
DATA_RADIX=BIN;

CONTENT BEGIN
	783 :	0000000000000100;
	782 :	0000000000001111;
	781 :	0000000000001000;
	780 :	1111111111001000;
	779 :	0000000000101101;
	778 :	1111111111100111;
	777 :	1111111111110110;
	776 :	1111111111011000;
	775 :	0000000000000010;
	774 :	0000000000001101;
	773 :	1111111111001110;
	772 :	0000000000000101;
	771 :	1111111110101010;
	770 :	1111111111100000;
	769 :	0000000000011010;
	768 :	1111111111101110;
	767 :	1111111111111111;
	766 :	0000000001011001;
	765 :	0000000000010010;
	764 :	0000000000101011;
	763 :	1111111111001000;
	762 :	0000000000001111;
	761 :	0000000000010110;
	760 :	1111111111110100;
	759 :	1111111111000011;
	758 :	1111111111110000;
	757 :	0000000000011101;
	756 :	1111111110011001;
	755 :	1111111111110110;
	754 :	1111111111010010;
	753 :	1111111111111001;
	752 :	1111111111110010;
	751 :	1111111111010110;
	750 :	1111111111011100;
	749 :	0000000000111010;
	748 :	1111111111110010;
	747 :	0000000100101000;
	746 :	0000000110001101;
	745 :	0000000011101101;
	744 :	0000000001100000;
	743 :	1111111101111010;
	742 :	0000000001011001;
	741 :	1111111011011000;
	740 :	1111111011111000;
	739 :	1111111101111010;
	738 :	0000000000111010;
	737 :	0000000100101000;
	736 :	0000000010011011;
	735 :	1111111111011111;
	734 :	0000000000110101;
	733 :	0000000000101111;
	732 :	1111111111110101;
	731 :	1111111111010100;
	730 :	1111111111001001;
	729 :	0000000000010110;
	728 :	0000000000001000;
	727 :	1111111111111000;
	726 :	0000000000100111;
	725 :	0000000000000011;
	724 :	0000000000100011;
	723 :	1111111111110000;
	722 :	0000000000100110;
	721 :	1111111111011100;
	720 :	1111111111000000;
	719 :	0000000001010001;
	718 :	0000000100010110;
	717 :	1111111110100001;
	716 :	1111111011000011;
	715 :	0000000000100011;
	714 :	1111111111010011;
	713 :	1111111101010000;
	712 :	0000000001100001;
	711 :	0000000001111000;
	710 :	1111111110110101;
	709 :	0000000100111001;
	708 :	0000000011011011;
	707 :	0000000001011111;
	706 :	1111111110011000;
	705 :	1111111110101111;
	704 :	0000000000101111;
	703 :	0000000000110111;
	702 :	1111111111101010;
	701 :	0000000000001111;
	700 :	1111111111101100;
	699 :	0000000000110001;
	698 :	0000000000010100;
	697 :	0000000000011000;
	696 :	1111111110111110;
	695 :	1111111111011111;
	694 :	1111111110010010;
	693 :	1111111110000101;
	692 :	1111111100101110;
	691 :	1111111100101100;
	690 :	0000000000100010;
	689 :	0000000011100101;
	688 :	1111111100000100;
	687 :	0000000010110011;
	686 :	1111111110100000;
	685 :	1111111110011000;
	684 :	1111111111100111;
	683 :	0000000010111000;
	682 :	1111111110000011;
	681 :	0000000000000010;
	680 :	0000000000100101;
	679 :	1111111101010011;
	678 :	1111111111111100;
	677 :	1111111110100110;
	676 :	0000000000011000;
	675 :	0000000000010001;
	674 :	1111111111001101;
	673 :	1111111110101011;
	672 :	0000000000100011;
	671 :	0000000000000101;
	670 :	1111111111101110;
	669 :	0000000000000111;
	668 :	1111111111000011;
	667 :	1111111111011001;
	666 :	0000000000011111;
	665 :	1111111100010010;
	664 :	1111111000110111;
	663 :	1111111011001010;
	662 :	1111111110111000;
	661 :	0000000000001001;
	660 :	1111111001010011;
	659 :	1111111111010001;
	658 :	1111111111110110;
	657 :	1111111101011111;
	656 :	1111111011100111;
	655 :	1111111110011010;
	654 :	0000000000001110;
	653 :	0000000010001010;
	652 :	1111111010100011;
	651 :	1111111110110110;
	650 :	1111111111101110;
	649 :	0000000000010100;
	648 :	0000000000011101;
	647 :	1111111111111101;
	646 :	0000000000000000;
	645 :	1111111111110001;
	644 :	0000000000000000;
	643 :	1111111111001001;
	642 :	1111111111111111;
	641 :	1111111111111110;
	640 :	0000000000100101;
	639 :	0000000001011001;
	638 :	0000000000010101;
	637 :	1111111111111100;
	636 :	1111111100011010;
	635 :	1111111100110001;
	634 :	1111111111101110;
	633 :	1111111111100111;
	632 :	1111111100111111;
	631 :	0000000100111011;
	630 :	0000000011001111;
	629 :	0000000011100110;
	628 :	1111111111001111;
	627 :	0000000001111100;
	626 :	0000000100011011;
	625 :	0000001010001000;
	624 :	0000000110000010;
	623 :	0000000000010100;
	622 :	0000000001110010;
	621 :	0000000010001010;
	620 :	0000000010101100;
	619 :	0000000000100100;
	618 :	0000000000111000;
	617 :	1111111111000100;
	616 :	1111111111101111;
	615 :	0000000000001001;
	614 :	0000000000101010;
	613 :	1111111111110000;
	612 :	0000000000110100;
	611 :	1111111111111101;
	610 :	0000000000110000;
	609 :	0000001001010100;
	608 :	0000000011000010;
	607 :	0000000000110111;
	606 :	1111111101111111;
	605 :	0000000000011000;
	604 :	0000000011100110;
	603 :	0000000100111100;
	602 :	0000000011001100;
	601 :	0000000100000110;
	600 :	1111111101011000;
	599 :	0000001000100101;
	598 :	0000000111110010;
	597 :	0000000001111000;
	596 :	0000000000000111;
	595 :	1111111111101000;
	594 :	1111111011001100;
	593 :	1111111110010001;
	592 :	1111111100110110;
	591 :	1111111111000110;
	590 :	1111111111111100;
	589 :	0000000000000001;
	588 :	0000000000000101;
	587 :	1111111111011101;
	586 :	1111111111111111;
	585 :	0000000001011001;
	584 :	0000000001000111;
	583 :	0000000001010010;
	582 :	1111111111110100;
	581 :	0000000011111110;
	580 :	0000000110000010;
	579 :	0000000101101011;
	578 :	1111111101001100;
	577 :	0000000001010100;
	576 :	1111111111001001;
	575 :	0000000001010010;
	574 :	0000000110000101;
	573 :	0000000000111111;
	572 :	0000000010101100;
	571 :	0000000111100100;
	570 :	0000000001000110;
	569 :	1111111101011010;
	568 :	1111111010011110;
	567 :	1111111001111000;
	566 :	1111111000010001;
	565 :	1111111000000000;
	564 :	1111111000000001;
	563 :	1111111111000010;
	562 :	0000000000001001;
	561 :	0000000000010010;
	560 :	1111111111111110;
	559 :	0000000000101010;
	558 :	1111111111111010;
	557 :	0000000001100111;
	556 :	0000000010100001;
	555 :	0000000001100111;
	554 :	0000000010001011;
	553 :	0000000011101000;
	552 :	0000000110100011;
	551 :	0000000100100100;
	550 :	1111111101001011;
	549 :	0000000001011011;
	548 :	0000000001111001;
	547 :	0000000010010011;
	546 :	0000001010001000;
	545 :	1111111011001011;
	544 :	1111111001000100;
	543 :	1111111011010100;
	542 :	1111111100111111;
	541 :	1111111111011111;
	540 :	1111111001100100;
	539 :	1111111010000000;
	538 :	1111111010000100;
	537 :	1111110101111111;
	536 :	1111111001101110;
	535 :	1111111101101110;
	534 :	1111111111101111;
	533 :	0000000000000011;
	532 :	1111111111100111;
	531 :	0000000000011000;
	530 :	0000000000111101;
	529 :	0000000011001111;
	528 :	0000000000111100;
	527 :	1111111111010001;
	526 :	0000000001001011;
	525 :	0000000101010110;
	524 :	0000000100110110;
	523 :	0000000001100011;
	522 :	0000000011000001;
	521 :	1111111110101010;
	520 :	0000000000100001;
	519 :	0000000010110100;
	518 :	0000000011010110;
	517 :	1111111110110011;
	516 :	1111111111110100;
	515 :	1111111111001001;
	514 :	1111111110010101;
	513 :	1111111101111111;
	512 :	1111111100010010;
	511 :	1111110100000001;
	510 :	1111110101100111;
	509 :	1111111001110001;
	508 :	1111111100010110;
	507 :	1111111110010011;
	506 :	0000000000001110;
	505 :	1111111111110101;
	504 :	0000000000001100;
	503 :	0000000000110000;
	502 :	0000000000011010;
	501 :	0000000000110011;
	500 :	1111111111110101;
	499 :	1111111100110011;
	498 :	1111111100101000;
	497 :	1111111010110110;
	496 :	1111111101000001;
	495 :	0000000011111110;
	494 :	0000001000011101;
	493 :	0000000011111000;
	492 :	0000000111011010;
	491 :	0000000110110001;
	490 :	0000000011001010;
	489 :	1111111101001110;
	488 :	1111111000000000;
	487 :	1111111010111110;
	486 :	1111111010101100;
	485 :	1111110100111100;
	484 :	1111101111101010;
	483 :	1111101100000100;
	482 :	1111110000011000;
	481 :	1111110101111011;
	480 :	1111111101110110;
	479 :	1111111110100000;
	478 :	1111111111110100;
	477 :	0000000000001111;
	476 :	1111111111111001;
	475 :	1111111111011101;
	474 :	0000000000101001;
	473 :	0000000000100001;
	472 :	1111111101010100;
	471 :	1111111001101101;
	470 :	1111111000101101;
	469 :	1111111001101110;
	468 :	1111111011000111;
	467 :	1111111110110011;
	466 :	0000000001010000;
	465 :	0000000001010111;
	464 :	1111111110001111;
	463 :	0000000101000000;
	462 :	1111111110100100;
	461 :	1111110101110010;
	460 :	1111110011001101;
	459 :	1111110100011110;
	458 :	1111110010001011;
	457 :	1111110000001011;
	456 :	1111110011000101;
	455 :	1111110011010001;
	454 :	1111110111001100;
	453 :	1111110110011010;
	452 :	1111111011100000;
	451 :	0000000011001001;
	450 :	0000000000010000;
	449 :	1111111111110111;
	448 :	0000000000101011;
	447 :	1111111111110101;
	446 :	0000000000101111;
	445 :	1111111111101001;
	444 :	1111111100111000;
	443 :	1111111000111111;
	442 :	1111111000011000;
	441 :	1111111001111000;
	440 :	1111111011111011;
	439 :	1111110111001101;
	438 :	1111111011100010;
	437 :	1111111011000110;
	436 :	1111111101111110;
	435 :	0000000110011000;
	434 :	1111111101011100;
	433 :	1111110000011011;
	432 :	1111101000101110;
	431 :	1111101100101011;
	430 :	1111110010010010;
	429 :	1111110100011110;
	428 :	1111110000110110;
	427 :	1111111011101101;
	426 :	1111111011000101;
	425 :	1111111001101101;
	424 :	0000000000010000;
	423 :	0000000101000010;
	422 :	0000000001111110;
	421 :	1111111111010110;
	420 :	1111111111010111;
	419 :	1111111111111001;
	418 :	0000000001000011;
	417 :	1111111111000110;
	416 :	1111111100111100;
	415 :	1111111000111100;
	414 :	1111111010001000;
	413 :	1111110111111010;
	412 :	1111110111101000;
	411 :	1111111100011011;
	410 :	1111111101010000;
	409 :	1111111101000101;
	408 :	0000000000011000;
	407 :	0000000100011101;
	406 :	1111111011011111;
	405 :	1111100111010011;
	404 :	1111100100000110;
	403 :	1111101100010001;
	402 :	1111110110010011;
	401 :	1111111011001111;
	400 :	1111111011010101;
	399 :	0000000011100101;
	398 :	1111111111100111;
	397 :	0000000000111110;
	396 :	0000000011101011;
	395 :	0000000100011011;
	394 :	0000000001110000;
	393 :	1111111111100010;
	392 :	1111111111011101;
	391 :	0000000000101010;
	390 :	1111111111111110;
	389 :	1111111110110101;
	388 :	1111111101010110;
	387 :	1111111000100111;
	386 :	1111110111101101;
	385 :	1111111010111000;
	384 :	1111111000100110;
	383 :	1111111011001101;
	382 :	1111111011011011;
	381 :	0000000000100111;
	380 :	0000000001110011;
	379 :	1111111110100000;
	378 :	1111111011111011;
	377 :	1111101001101101;
	376 :	1111100100000010;
	375 :	1111110101111110;
	374 :	1111111100001110;
	373 :	0000000001100011;
	372 :	0000000011110000;
	371 :	0000000101000011;
	370 :	0000000101110011;
	369 :	0000000011011101;
	368 :	0000000011010010;
	367 :	0000000000010011;
	366 :	0000000001000101;
	365 :	1111111111110100;
	364 :	0000000000101001;
	363 :	1111111111001101;
	362 :	0000000000111000;
	361 :	1111111111110011;
	360 :	1111111110001000;
	359 :	1111111000011010;
	358 :	1111110111100010;
	357 :	1111111011000010;
	356 :	1111111011110011;
	355 :	1111111110100011;
	354 :	0000000001101011;
	353 :	1111111110011010;
	352 :	0000000000000001;
	351 :	1111111110010011;
	350 :	1111101111011111;
	349 :	1111100100110010;
	348 :	1111110010000011;
	347 :	0000000100101001;
	346 :	0000000101010011;
	345 :	0000001101100100;
	344 :	0000001010111000;
	343 :	0000001001111000;
	342 :	0000000111101110;
	341 :	0000000010101100;
	340 :	0000000001100101;
	339 :	0000000000010101;
	338 :	1111111111110010;
	337 :	0000000000010110;
	336 :	1111111111011110;
	335 :	1111111111000011;
	334 :	0000000000000010;
	333 :	1111111111010100;
	332 :	1111111110000011;
	331 :	1111111010000110;
	330 :	1111111001011110;
	329 :	1111111111000000;
	328 :	0000000000100000;
	327 :	0000000010101001;
	326 :	0000000011010111;
	325 :	0000000011111110;
	324 :	1111111101010000;
	323 :	1111111001010100;
	322 :	1111101010100111;
	321 :	1111100111100011;
	320 :	1111111101101100;
	319 :	0000001101111001;
	318 :	0000000011010110;
	317 :	0000001001000010;
	316 :	1111111011110100;
	315 :	0000000010111011;
	314 :	0000001000110100;
	313 :	0000000011000001;
	312 :	0000000000100011;
	311 :	0000000000011101;
	310 :	0000000000100110;
	309 :	0000000000011100;
	308 :	1111111111010011;
	307 :	0000000000001110;
	306 :	1111111111001011;
	305 :	0000000000110111;
	304 :	1111111110110011;
	303 :	1111111101110011;
	302 :	1111111101001000;
	301 :	0000000001001010;
	300 :	1111111110001001;
	299 :	0000000001010111;
	298 :	1111111101010000;
	297 :	0000000011100110;
	296 :	1111111110001110;
	295 :	1111111011101111;
	294 :	1111110101111000;
	293 :	1111111110010110;
	292 :	0000000110000010;
	291 :	0000000010110100;
	290 :	0000000001100011;
	289 :	0000000000100010;
	288 :	1111111110011101;
	287 :	1111111110101010;
	286 :	0000000011111001;
	285 :	0000000000011110;
	284 :	0000000000100001;
	283 :	1111111111111011;
	282 :	1111111111011100;
	281 :	1111111111111101;
	280 :	1111111111011010;
	279 :	1111111111011110;
	278 :	0000000000001101;
	277 :	1111111111111110;
	276 :	1111111111011101;
	275 :	1111111110100101;
	274 :	1111111111101001;
	273 :	0000000001100101;
	272 :	1111111111001010;
	271 :	0000000001010110;
	270 :	1111111111100000;
	269 :	0000000101110110;
	268 :	1111111110100010;
	267 :	0000000111010100;
	266 :	0000000101111010;
	265 :	1111111101101001;
	264 :	1111111111100111;
	263 :	1111111101000100;
	262 :	0000000011110001;
	261 :	1111111110111101;
	260 :	0000000000000101;
	259 :	0000000001000001;
	258 :	1111111101110000;
	257 :	1111111101110010;
	256 :	1111111111101101;
	255 :	1111111111000001;
	254 :	1111111111001010;
	253 :	0000000000101000;
	252 :	1111111111111000;
	251 :	1111111111111110;
	250 :	0000000000000100;
	249 :	1111111110100011;
	248 :	0000000000001010;
	247 :	0000000010011010;
	246 :	0000000001101011;
	245 :	0000000100000101;
	244 :	0000000111111001;
	243 :	0000000001100010;
	242 :	0000000010001001;
	241 :	0000000101000110;
	240 :	1111111111011100;
	239 :	0000001101110010;
	238 :	0000000110000011;
	237 :	1111111111010001;
	236 :	0000000010110111;
	235 :	0000000100000101;
	234 :	0000000101000101;
	233 :	0000000011000011;
	232 :	0000000101110011;
	231 :	1111111110001111;
	230 :	1111111001001110;
	229 :	1111111010011010;
	228 :	1111111100001110;
	227 :	1111111111101101;
	226 :	0000000000100111;
	225 :	0000000000111100;
	224 :	0000000000001011;
	223 :	0000000000000101;
	222 :	1111111111100110;
	221 :	1111111101100110;
	220 :	1111111110011101;
	219 :	0000000001011001;
	218 :	0000000000001100;
	217 :	0000000001111111;
	216 :	0000000101010110;
	215 :	1111111111100001;
	214 :	0000000000011000;
	213 :	0000000101110100;
	212 :	0000000001100110;
	211 :	1111111110010101;
	210 :	1111111011001000;
	209 :	0000000001000111;
	208 :	0000000010000011;
	207 :	0000000000100011;
	206 :	0000000011001110;
	205 :	0000000100011101;
	204 :	0000000001111000;
	203 :	1111111101101100;
	202 :	1111111010100100;
	201 :	1111111100110100;
	200 :	1111111110110100;
	199 :	0000000001010110;
	198 :	1111111111111011;
	197 :	1111111111111010;
	196 :	0000000000001110;
	195 :	0000000000000010;
	194 :	0000000000000001;
	193 :	0000000000000010;
	192 :	1111111111011100;
	191 :	0000000000010110;
	190 :	0000000010000000;
	189 :	1111111101101010;
	188 :	1111111000111100;
	187 :	1111111010110111;
	186 :	0000000000010100;
	185 :	0000000100110101;
	184 :	0000000000101011;
	183 :	1111111110001011;
	182 :	1111111110011111;
	181 :	1111111110001010;
	180 :	0000000001010111;
	179 :	1111111101110100;
	178 :	1111111111110101;
	177 :	0000000110101000;
	176 :	0000001001011011;
	175 :	1111111111111010;
	174 :	1111111110101001;
	173 :	0000000000000001;
	172 :	1111111110110100;
	171 :	0000000000101000;
	170 :	0000000000011100;
	169 :	1111111111110110;
	168 :	0000000000011010;
	167 :	0000000000001011;
	166 :	0000000000001010;
	165 :	1111111110111111;
	164 :	0000000000000000;
	163 :	1111111111101000;
	162 :	1111111111101011;
	161 :	0000000000011111;
	160 :	1111111101101100;
	159 :	0000000001011110;
	158 :	1111111111011000;
	157 :	1111111101111011;
	156 :	0000000011000111;
	155 :	1111111110011010;
	154 :	0000001000001001;
	153 :	0000000111011100;
	152 :	1111111101111001;
	151 :	1111111011001001;
	150 :	1111111110110111;
	149 :	0000000100111100;
	148 :	0000000110100101;
	147 :	0000000000100100;
	146 :	0000000000110111;
	145 :	0000000001100011;
	144 :	0000000000111011;
	143 :	0000000000000001;
	142 :	0000000000001101;
	141 :	1111111111101101;
	140 :	1111111111001000;
	139 :	0000000000000000;
	138 :	1111111110111101;
	137 :	1111111111100111;
	136 :	1111111111011110;
	135 :	0000000000100001;
	134 :	0000000000110111;
	133 :	0000000000110010;
	132 :	0000000001101000;
	131 :	0000000101010000;
	130 :	0000000011101010;
	129 :	1111111110001000;
	128 :	0000000000110001;
	127 :	0000000001001110;
	126 :	0000000011111010;
	125 :	1111111101101011;
	124 :	1111111010110011;
	123 :	1111111011110110;
	122 :	1111111110010100;
	121 :	1111111111101100;
	120 :	0000000000110011;
	119 :	1111111110110000;
	118 :	1111111111111110;
	117 :	0000000000001111;
	116 :	0000000000101001;
	115 :	1111111111100000;
	114 :	1111111111000100;
	113 :	0000000000001000;
	112 :	0000000000010110;
	111 :	1111111111011101;
	110 :	0000000000001011;
	109 :	1111111111111001;
	108 :	0000000000001010;
	107 :	0000000001001000;
	106 :	1111111111001011;
	105 :	0000000000001010;
	104 :	0000000000011010;
	103 :	0000000100101011;
	102 :	0000000010101110;
	101 :	0000000001011110;
	100 :	0000000010000111;
	99 :	0000000000010000;
	98 :	1111111101010101;
	97 :	1111111101011010;
	96 :	1111111100001101;
	95 :	1111111101110100;
	94 :	1111111110101111;
	93 :	1111111110011010;
	92 :	1111111111100101;
	91 :	0000000000001001;
	90 :	0000000000001000;
	89 :	1111111111001111;
	88 :	0000000000001001;
	87 :	0000000000011111;
	86 :	1111111111001011;
	85 :	0000000000110110;
	84 :	0000000000000000;
	83 :	0000000000100001;
	82 :	1111111111100110;
	81 :	1111111111100000;
	80 :	0000000000001010;
	79 :	1111111111101001;
	78 :	0000000000000111;
	77 :	0000000000011110;
	76 :	1111111111111100;
	75 :	1111111111111100;
	74 :	1111111111111001;
	73 :	0000000000110101;
	72 :	0000000000100100;
	71 :	0000000010000101;
	70 :	0000000001101001;
	69 :	0000000001101111;
	68 :	0000000001010110;
	67 :	0000000000011000;
	66 :	1111111111110111;
	65 :	0000000000100001;
	64 :	1111111111010011;
	63 :	1111111111100101;
	62 :	0000000000001110;
	61 :	1111111111110000;
	60 :	1111111111111101;
	59 :	1111111111011100;
	58 :	1111111111011100;
	57 :	0000000000001111;
	56 :	1111111111001011;
	55 :	1111111111111001;
	54 :	0000000000111100;
	53 :	1111111111001101;
	52 :	0000000000011011;
	51 :	1111111111111110;
	50 :	1111111111111001;
	49 :	0000000000011101;
	48 :	0000000000010010;
	47 :	0000000000011110;
	46 :	1111111111011001;
	45 :	1111111111011110;
	44 :	1111111111111011;
	43 :	1111111111110101;
	42 :	0000000000001001;
	41 :	0000000000111101;
	40 :	0000000000011010;
	39 :	0000000000011100;
	38 :	1111111111111100;
	37 :	1111111111110011;
	36 :	1111111111100111;
	35 :	1111111111110110;
	34 :	0000000000001001;
	33 :	1111111111110100;
	32 :	1111111111101101;
	31 :	1111111111111111;
	30 :	1111111110101111;
	29 :	1111111111010010;
	28 :	0000000000010111;
	27 :	0000000000000110;
	26 :	1111111111001110;
	25 :	0000000000001010;
	24 :	1111111111101110;
	23 :	1111111111010101;
	22 :	0000000000001110;
	21 :	0000000000000000;
	20 :	0000000001001110;
	19 :	1111111111100111;
	18 :	0000000000101110;
	17 :	1111111111101010;
	16 :	0000000000001110;
	15 :	0000000000100101;
	14 :	1111111111101100;
	13 :	1111111111101101;
	12 :	0000000001000111;
	11 :	0000000000100000;
	10 :	0000000000011010;
	9 :	1111111111001010;
	8 :	0000000000011100;
	7 :	1111111111100001;
	6 :	0000000000010010;
	5 :	1111111111111011;
	4 :	0000000000001001;
	3 :	1111111111100001;
	2 :	1111111111111110;
	1 :	1111111111011110;
	0 :	0000000000010010;
END;
