-- begin_signature
-- Weight_Memory(numWeight
-- 30
-- neuronNo
-- 21
-- layerNo
-- 2
-- addressWidth
-- 5
-- dataWidth
-- 16
-- weightFile
-- "w_2_21.mif")
-- end_signature
WIDTH=16;
DEPTH=30;

ADDRESS_RADIX=UNS;
DATA_RADIX=BIN;

CONTENT BEGIN
	29 :	1111111110011101;
	28 :	1111111000001010;
	27 :	0000000010100110;
	26 :	1111111011101000;
	25 :	0000001000001111;
	24 :	1111110101101001;
	23 :	1111110010001111;
	22 :	0000000000100111;
	21 :	0000000010001001;
	20 :	0000000110101101;
	19 :	0000000011010001;
	18 :	1111111111011101;
	17 :	0000001100111100;
	16 :	0000010010001100;
	15 :	0000000101101010;
	14 :	0000000110100010;
	13 :	0000000000100011;
	12 :	0000001000101110;
	11 :	0000000100000100;
	10 :	0000000001010100;
	9 :	0000001110001000;
	8 :	0000001010111101;
	7 :	0000001011111101;
	6 :	1111111101001011;
	5 :	1111111110101110;
	4 :	0000000010011111;
	3 :	1111111100000100;
	2 :	0000000100001000;
	1 :	1111111101000111;
	0 :	1111111100011110;
END;
