-- begin_signature
-- Weight_Memory(numWeight
-- 30
-- neuronNo
-- 28
-- layerNo
-- 2
-- addressWidth
-- 5
-- dataWidth
-- 16
-- weightFile
-- "w_2_28.hex")
-- end_signature
WIDTH=16;
DEPTH=30;

ADDRESS_RADIX=UNS;
DATA_RADIX=BIN;

CONTENT BEGIN
	29 :	1111111100100111;
	28 :	0000100001011100;
	27 :	1111111110001001;
	26 :	0000001011111001;
	25 :	0000010101000111;
	24 :	1111100100011010;
	23 :	1111101000110011;
	22 :	1111101001011101;
	21 :	1111010000001001;
	20 :	0000011000110111;
	19 :	0000001001111000;
	18 :	1111000011011101;
	17 :	1111110101100101;
	16 :	1111101001100100;
	15 :	0000001011011010;
	14 :	0000010011010101;
	13 :	1111111111001100;
	12 :	0000011011001011;
	11 :	0000010001101110;
	10 :	0000000000100100;
	9 :	1111101000111010;
	8 :	0000001101111111;
	7 :	1111110110110011;
	6 :	1111101101011000;
	5 :	1111100100111011;
	4 :	1111111001100110;
	3 :	1111111100010001;
	2 :	1111001111110010;
	1 :	0000000100100011;
	0 :	0000000001101111;
END;
