-- begin_signature
-- neuron(layerNo
-- 1
-- neuronNo
-- 18
-- numWeight
-- 784
-- dataWidth
-- 16
-- sigmoidSize
-- 5
-- weightIntWidth
-- 4
-- actType
-- "relu"
-- biasFile
-- "b_1_18.hex"
-- weightFile
-- "w_1_18.hex")
-- end_signature
WIDTH=32;
DEPTH=1;

ADDRESS_RADIX=UNS;
DATA_RADIX=BIN;

CONTENT BEGIN
	0 :	00000000000000000000000001110110;
END;
