-- begin_signature
-- Weight_Memory(numWeight
-- 784
-- neuronNo
-- 6
-- layerNo
-- 1
-- addressWidth
-- 10
-- dataWidth
-- 16
-- weightFile
-- "w_1_6.mif")
-- end_signature
WIDTH=16;
DEPTH=784;

ADDRESS_RADIX=UNS;
DATA_RADIX=BIN;

CONTENT BEGIN
	783 :	1111111110111011;
	782 :	0000000000010110;
	781 :	0000000000101011;
	780 :	1111111111100100;
	779 :	1111111111100010;
	778 :	1111111111111011;
	777 :	1111111111001000;
	776 :	1111111111010111;
	775 :	0000000000010100;
	774 :	1111111110110110;
	773 :	0000000000011110;
	772 :	0000000000010111;
	771 :	1111111111110111;
	770 :	1111111111100101;
	769 :	0000000000110000;
	768 :	0000000000001101;
	767 :	0000000000000011;
	766 :	1111111111111111;
	765 :	0000000000111100;
	764 :	0000000000000010;
	763 :	0000000000011110;
	762 :	1111111111100011;
	761 :	0000000000000110;
	760 :	1111111111101001;
	759 :	0000000001000101;
	758 :	1111111110111100;
	757 :	0000000001010000;
	756 :	1111111111100111;
	755 :	0000000000111000;
	754 :	1111111111101110;
	753 :	1111111111100111;
	752 :	0000000000100101;
	751 :	1111111111110000;
	750 :	0000000000010000;
	749 :	0000000000001111;
	748 :	1111111111111001;
	747 :	0000000001101111;
	746 :	0000000010010000;
	745 :	0000000001100001;
	744 :	1111111110101011;
	743 :	1111111111010101;
	742 :	0000000000101111;
	741 :	1111111111100000;
	740 :	1111111111101111;
	739 :	1111111110011100;
	738 :	1111111110101011;
	737 :	1111111101110000;
	736 :	1111111111010110;
	735 :	0000000000000100;
	734 :	0000000000100000;
	733 :	0000000000001011;
	732 :	0000000000110010;
	731 :	0000000000010011;
	730 :	0000000000001010;
	729 :	0000000000000010;
	728 :	0000000000000111;
	727 :	1111111111001110;
	726 :	1111111111110010;
	725 :	0000000000011000;
	724 :	1111111111011100;
	723 :	1111111111001101;
	722 :	1111111111110101;
	721 :	1111111111001000;
	720 :	1111111101101001;
	719 :	1111111110100011;
	718 :	1111111110100000;
	717 :	1111111110110110;
	716 :	1111111101101011;
	715 :	1111111001010001;
	714 :	1111111000000111;
	713 :	1111111011101000;
	712 :	1111111011101111;
	711 :	1111111010101000;
	710 :	1111111101111001;
	709 :	1111111111101011;
	708 :	1111111110101100;
	707 :	0000000010000111;
	706 :	1111111111011010;
	705 :	0000000000101110;
	704 :	1111111111010001;
	703 :	0000000000011011;
	702 :	0000000000011100;
	701 :	0000000000011010;
	700 :	0000000000011101;
	699 :	0000000000010001;
	698 :	0000000000000101;
	697 :	1111111111101000;
	696 :	1111111111101111;
	695 :	1111111101101110;
	694 :	1111111101000111;
	693 :	1111111111100001;
	692 :	1111111100010010;
	691 :	0000000000000100;
	690 :	1111111111010110;
	689 :	1111111111010101;
	688 :	1111111111111000;
	687 :	0000000010000101;
	686 :	1111111110100110;
	685 :	1111111110000010;
	684 :	1111111101000000;
	683 :	1111111001110110;
	682 :	1111111111111101;
	681 :	1111111111110010;
	680 :	0000000010001000;
	679 :	0000000010000100;
	678 :	1111111110000101;
	677 :	0000000000100111;
	676 :	0000000000100110;
	675 :	1111111111101000;
	674 :	0000000000000001;
	673 :	0000000000001001;
	672 :	0000000000000001;
	671 :	0000000000000100;
	670 :	0000000000000010;
	669 :	0000000000000101;
	668 :	1111111110110110;
	667 :	1111111101001111;
	666 :	1111111110100100;
	665 :	0000000000111110;
	664 :	1111111111111010;
	663 :	1111111011101111;
	662 :	1111111010010010;
	661 :	0000000111011100;
	660 :	0000000001111110;
	659 :	1111111101010101;
	658 :	0000000011001001;
	657 :	0000000100000100;
	656 :	0000000010111000;
	655 :	0000000101100101;
	654 :	0000000101101111;
	653 :	0000000000001000;
	652 :	1111111010101101;
	651 :	1111111110100101;
	650 :	0000000011111010;
	649 :	1111111110010010;
	648 :	1111111101100000;
	647 :	0000000000101111;
	646 :	1111111111111111;
	645 :	0000000000000100;
	644 :	1111111111100110;
	643 :	0000000000101001;
	642 :	1111111111000111;
	641 :	0000000000001011;
	640 :	1111111111000011;
	639 :	0000000000101101;
	638 :	0000000010000011;
	637 :	0000000001111100;
	636 :	1111111011110001;
	635 :	1111111010001000;
	634 :	0000000011011111;
	633 :	0000001010010100;
	632 :	0000000010101111;
	631 :	1111111011000110;
	630 :	1111111011101010;
	629 :	0000000011101101;
	628 :	1111111111000100;
	627 :	1111111101110100;
	626 :	0000000000100000;
	625 :	0000000001000100;
	624 :	0000001000001000;
	623 :	0000000010100100;
	622 :	0000000001011101;
	621 :	0000000011010000;
	620 :	1111111101100000;
	619 :	1111111111011101;
	618 :	1111111111100001;
	617 :	1111111111101010;
	616 :	0000000000111000;
	615 :	1111111111001100;
	614 :	1111111111100101;
	613 :	0000000000000101;
	612 :	0000000000100100;
	611 :	1111111101110101;
	610 :	1111111100000010;
	609 :	1111111100001000;
	608 :	1111111000001001;
	607 :	1111111001110000;
	606 :	0000000000000000;
	605 :	0000000001011100;
	604 :	1111111111000001;
	603 :	0000000111001101;
	602 :	0000000011100111;
	601 :	1111111000011010;
	600 :	1111111000000011;
	599 :	0000000010110010;
	598 :	0000001000111100;
	597 :	1111111111100000;
	596 :	1111111011110000;
	595 :	0000000100111000;
	594 :	1111111011111101;
	593 :	1111111011001011;
	592 :	1111111110001100;
	591 :	0000000000011100;
	590 :	1111111110101011;
	589 :	0000000000100010;
	588 :	0000000000001001;
	587 :	0000000000000010;
	586 :	1111111111111111;
	585 :	1111111110111010;
	584 :	0000000010101011;
	583 :	1111111010111101;
	582 :	1111111101000010;
	581 :	0000000001111000;
	580 :	1111111111000000;
	579 :	0000000010101011;
	578 :	0000000001001010;
	577 :	0000000110010000;
	576 :	0000000011011110;
	575 :	0000000000111100;
	574 :	1111111110110101;
	573 :	1111111110111101;
	572 :	0000000110111010;
	571 :	0000000100001000;
	570 :	0000001001001110;
	569 :	0000001001111001;
	568 :	0000000011100010;
	567 :	1111111101010111;
	566 :	1111111100010011;
	565 :	0000000000100011;
	564 :	1111111100011011;
	563 :	1111111110011001;
	562 :	0000000000001010;
	561 :	0000000000000000;
	560 :	1111111111100101;
	559 :	0000000000011110;
	558 :	1111111111010111;
	557 :	1111111110010001;
	556 :	0000000011011100;
	555 :	1111111110111110;
	554 :	0000000111111001;
	553 :	1111111110001111;
	552 :	1111111110100111;
	551 :	1111111000110000;
	550 :	0000000010111111;
	549 :	0000000101110111;
	548 :	1111111101001110;
	547 :	1111110011100100;
	546 :	1111110101001110;
	545 :	1111111000011111;
	544 :	1111111111000001;
	543 :	1111111010100110;
	542 :	1111111111011000;
	541 :	0000000011100010;
	540 :	0000000010110101;
	539 :	0000000001100101;
	538 :	0000000011000011;
	537 :	0000000011011101;
	536 :	1111111101001000;
	535 :	0000000000011000;
	534 :	0000000000001000;
	533 :	0000000000001100;
	532 :	1111111111100010;
	531 :	1111111111101110;
	530 :	1111111110110010;
	529 :	1111111101111110;
	528 :	1111111101011000;
	527 :	0000000000100011;
	526 :	0000000100010110;
	525 :	1111111111001001;
	524 :	1111111110100101;
	523 :	1111111101001011;
	522 :	0000000101111011;
	521 :	1111111101110111;
	520 :	1111110011000111;
	519 :	1111101100110100;
	518 :	1111101111100001;
	517 :	1111110111101001;
	516 :	1111111101110010;
	515 :	1111111000100001;
	514 :	0000000110110110;
	513 :	0000001101010110;
	512 :	0000001010001100;
	511 :	0000000000011101;
	510 :	0000000111000110;
	509 :	0000000100100010;
	508 :	0000000010000010;
	507 :	0000000000001110;
	506 :	1111111111001011;
	505 :	0000000000010000;
	504 :	1111111111101100;
	503 :	1111111110101110;
	502 :	1111111110100000;
	501 :	1111111100101010;
	500 :	0000000000011001;
	499 :	0000000011101110;
	498 :	0000000111010010;
	497 :	1111111100111100;
	496 :	0000000010000011;
	495 :	1111111110101110;
	494 :	0000000100100010;
	493 :	1111111101110100;
	492 :	1111110001000000;
	491 :	1111101110001000;
	490 :	1111110000111001;
	489 :	1111110100110111;
	488 :	1111111100100000;
	487 :	1111111100011001;
	486 :	1111111110000001;
	485 :	0000000101011001;
	484 :	0000000011111001;
	483 :	0000000111001111;
	482 :	0000000010111001;
	481 :	0000001110110100;
	480 :	0000000110010010;
	479 :	0000000001000111;
	478 :	0000000000000011;
	477 :	1111111111110001;
	476 :	1111111111100101;
	475 :	0000000000001001;
	474 :	1111111111100011;
	473 :	1111111010011101;
	472 :	1111111110101011;
	471 :	0000000001010101;
	470 :	0000000110000000;
	469 :	1111111110001110;
	468 :	0000000110000010;
	467 :	0000000000111000;
	466 :	0000000011001101;
	465 :	1111110101010100;
	464 :	1111101100000100;
	463 :	1111110110101011;
	462 :	1111110101100000;
	461 :	1111110101011111;
	460 :	1111110001011000;
	459 :	1111110101001111;
	458 :	1111111110100100;
	457 :	0000000110011000;
	456 :	0000001100111010;
	455 :	0000000111001000;
	454 :	0000000101110110;
	453 :	0000001110000011;
	452 :	0000000110001011;
	451 :	1111111111010101;
	450 :	0000000000101010;
	449 :	0000000000001101;
	448 :	0000000000100100;
	447 :	0000000001010111;
	446 :	0000000000101000;
	445 :	1111111101000011;
	444 :	1111111011001001;
	443 :	0000000100110101;
	442 :	0000000001101101;
	441 :	0000000100110100;
	440 :	0000000010100111;
	439 :	0000000001101101;
	438 :	1111111110001100;
	437 :	1111110101011101;
	436 :	1111111000000101;
	435 :	1111111011110001;
	434 :	1111111010000000;
	433 :	1111110010101011;
	432 :	1111101010111001;
	431 :	1111100101110101;
	430 :	1111111110110000;
	429 :	0000001110011000;
	428 :	0000001001100001;
	427 :	0000001000100101;
	426 :	0000001100111101;
	425 :	0000001111100100;
	424 :	0000000010110010;
	423 :	1111111111101100;
	422 :	1111111111011101;
	421 :	0000000001000100;
	420 :	0000000001100111;
	419 :	1111111111100010;
	418 :	0000000000110111;
	417 :	0000000000011111;
	416 :	1111111110001100;
	415 :	0000000110001011;
	414 :	0000000010100111;
	413 :	0000000011000101;
	412 :	1111111110101010;
	411 :	1111110100101101;
	410 :	1111111000010100;
	409 :	1111111010011001;
	408 :	1111110100100011;
	407 :	1111111010101100;
	406 :	0000000001110000;
	405 :	1111111001010111;
	404 :	1111101101110100;
	403 :	1111100111000100;
	402 :	0000000010111000;
	401 :	0000001110011101;
	400 :	0000000101000110;
	399 :	0000001001000010;
	398 :	0000001011110111;
	397 :	0000001100111000;
	396 :	1111111111011010;
	395 :	1111111111111001;
	394 :	1111111111101011;
	393 :	1111111111110010;
	392 :	0000000000010110;
	391 :	1111111111111110;
	390 :	0000000000110110;
	389 :	0000000101101110;
	388 :	0000000000001100;
	387 :	0000000011101101;
	386 :	1111111011111111;
	385 :	1111111001110010;
	384 :	1111110110001110;
	383 :	1111110010111011;
	382 :	1111110110111111;
	381 :	1111111001001000;
	380 :	1111110011100010;
	379 :	1111110101000000;
	378 :	1111111000011010;
	377 :	1111111000111110;
	376 :	1111101010010011;
	375 :	1111101001011101;
	374 :	1111111001001101;
	373 :	0000001111100100;
	372 :	0000000111100010;
	371 :	0000000100011111;
	370 :	0000001000110111;
	369 :	1111111111001111;
	368 :	0000000000000111;
	367 :	1111111111101110;
	366 :	0000000000101110;
	365 :	1111111111111101;
	364 :	0000000000011011;
	363 :	1111111111111011;
	362 :	0000000000100000;
	361 :	0000000010111101;
	360 :	0000000111000100;
	359 :	0000000011101110;
	358 :	1111111011110010;
	357 :	1111111110010100;
	356 :	0000000011101110;
	355 :	1111110101110101;
	354 :	1111111110101001;
	353 :	1111111011011001;
	352 :	1111111010000010;
	351 :	1111111010100001;
	350 :	1111111001000000;
	349 :	1111110011010001;
	348 :	1111110011101101;
	347 :	1111110011111000;
	346 :	0000000000000001;
	345 :	0000001100011000;
	344 :	0000000011100001;
	343 :	1111111100000000;
	342 :	0000000110010000;
	341 :	1111111110101001;
	340 :	1111111101110110;
	339 :	1111111111010111;
	338 :	1111111111010100;
	337 :	1111111111110110;
	336 :	1111111111111011;
	335 :	0000000000000000;
	334 :	1111111111010010;
	333 :	0000000000100000;
	332 :	0000001010101111;
	331 :	0000000011110100;
	330 :	1111111111111001;
	329 :	1111111111010000;
	328 :	1111111110100110;
	327 :	1111110111011001;
	326 :	0000000011010101;
	325 :	0000000110001111;
	324 :	1111111101101111;
	323 :	0000000000001110;
	322 :	1111111100101010;
	321 :	1111110011000001;
	320 :	1111101110001011;
	319 :	1111111000111000;
	318 :	0000000100000011;
	317 :	0000001010001101;
	316 :	0000000011001001;
	315 :	0000000000100111;
	314 :	0000000000000100;
	313 :	1111111100000011;
	312 :	1111111101101101;
	311 :	0000000000100100;
	310 :	1111111111011100;
	309 :	1111111111111111;
	308 :	1111111111110111;
	307 :	0000000000100101;
	306 :	1111111111001101;
	305 :	1111111110100011;
	304 :	0000001000111110;
	303 :	0000000010000110;
	302 :	0000000001101100;
	301 :	0000000011010101;
	300 :	1111111011110110;
	299 :	0000000001110001;
	298 :	0000000101110101;
	297 :	0000000010010110;
	296 :	1111111101110101;
	295 :	0000000001011101;
	294 :	0000000011111001;
	293 :	0000000011100011;
	292 :	1111111101001110;
	291 :	1111111101011111;
	290 :	0000000010110010;
	289 :	0000000011100010;
	288 :	1111111110111011;
	287 :	1111111011111110;
	286 :	1111111110010111;
	285 :	1111111111101110;
	284 :	1111111110101001;
	283 :	0000000000010100;
	282 :	1111111111111010;
	281 :	0000000000010100;
	280 :	1111111111111000;
	279 :	0000000000000011;
	278 :	1111111100110100;
	277 :	1111111101100110;
	276 :	0000000110000110;
	275 :	0000000000000000;
	274 :	1111111000110110;
	273 :	1111111110110111;
	272 :	0000000101111111;
	271 :	0000001000000110;
	270 :	0000000100010100;
	269 :	1111111110100000;
	268 :	0000000001011011;
	267 :	1111111111001001;
	266 :	1111111110100010;
	265 :	0000000100110000;
	264 :	1111111001010001;
	263 :	1111111001100100;
	262 :	0000000001011110;
	261 :	0000000111010000;
	260 :	1111111100000100;
	259 :	1111111100110011;
	258 :	0000000001000011;
	257 :	0000000000000010;
	256 :	0000000000101001;
	255 :	1111111110110001;
	254 :	0000000000001111;
	253 :	0000000000010100;
	252 :	0000000000011101;
	251 :	1111111111100101;
	250 :	1111111100001001;
	249 :	1111111010111100;
	248 :	0000000010010010;
	247 :	1111111101100010;
	246 :	1111111011110111;
	245 :	0000000000101100;
	244 :	1111111011111110;
	243 :	0000000001001110;
	242 :	0000000110010010;
	241 :	1111111110111100;
	240 :	0000001111011100;
	239 :	0000001011110111;
	238 :	0000001011111010;
	237 :	0000000011011101;
	236 :	0000000111010011;
	235 :	0000000001100001;
	234 :	1111111111000001;
	233 :	1111111111011100;
	232 :	0000000011011100;
	231 :	0000000001010101;
	230 :	0000000100101111;
	229 :	0000000010000110;
	228 :	1111111110001011;
	227 :	1111111111000110;
	226 :	1111111111100110;
	225 :	0000000000111000;
	224 :	0000000000110101;
	223 :	0000000000000011;
	222 :	1111111011001011;
	221 :	1111111011000001;
	220 :	0000000001011000;
	219 :	1111111110110010;
	218 :	1111111011010011;
	217 :	1111111100101000;
	216 :	1111111101010010;
	215 :	0000001000110100;
	214 :	0000000011111010;
	213 :	0000000010000110;
	212 :	0000000001000111;
	211 :	1111111111111100;
	210 :	0000000010010011;
	209 :	0000000010010111;
	208 :	0000000011011101;
	207 :	0000000001101000;
	206 :	0000000000000110;
	205 :	1111111110000010;
	204 :	1111111010010010;
	203 :	0000000001111011;
	202 :	0000000011000001;
	201 :	0000000010110110;
	200 :	1111111110010010;
	199 :	1111111111101011;
	198 :	1111111111110111;
	197 :	1111111111111111;
	196 :	0000000000000010;
	195 :	0000000000010110;
	194 :	1111111110110000;
	193 :	1111111110111011;
	192 :	0000000011110101;
	191 :	0000000101101110;
	190 :	0000000010101011;
	189 :	0000000010100110;
	188 :	1111111011111000;
	187 :	0000000011111000;
	186 :	0000000100111010;
	185 :	0000000010011010;
	184 :	0000001001001101;
	183 :	0000000111010000;
	182 :	1111111111100110;
	181 :	1111111101100101;
	180 :	0000000011111011;
	179 :	1111111110100101;
	178 :	1111111110110100;
	177 :	1111110100011100;
	176 :	1111111101001010;
	175 :	1111111110010010;
	174 :	1111111111110110;
	173 :	1111111110010101;
	172 :	1111111110111100;
	171 :	1111111111010001;
	170 :	1111111111110000;
	169 :	1111111111101100;
	168 :	1111111111110010;
	167 :	1111111111011110;
	166 :	1111111111110011;
	165 :	1111111110111001;
	164 :	0000000010111100;
	163 :	0000000100000011;
	162 :	0000000011000110;
	161 :	0000000001001100;
	160 :	1111111111101011;
	159 :	0000000000010010;
	158 :	0000000000000110;
	157 :	1111111111011111;
	156 :	0000001100001110;
	155 :	0000000010001000;
	154 :	0000000101010001;
	153 :	0000000010110000;
	152 :	0000000100111000;
	151 :	0000000101011000;
	150 :	0000000100100100;
	149 :	1111111100000011;
	148 :	0000000001110101;
	147 :	0000000000010011;
	146 :	0000000011100111;
	145 :	0000000001111111;
	144 :	0000000001101000;
	143 :	0000000000011110;
	142 :	1111111111110011;
	141 :	0000000000010100;
	140 :	0000000000000011;
	139 :	0000000000010100;
	138 :	1111111111101111;
	137 :	1111111111111010;
	136 :	1111111111101001;
	135 :	0000000011010010;
	134 :	0000000011011010;
	133 :	0000000100010000;
	132 :	0000000001111011;
	131 :	0000000001000000;
	130 :	1111111111110011;
	129 :	1111111100100111;
	128 :	1111111111111001;
	127 :	0000000001011001;
	126 :	1111111100011000;
	125 :	0000000001110001;
	124 :	1111111111000110;
	123 :	0000000010110000;
	122 :	0000000000010001;
	121 :	1111111110010110;
	120 :	1111111110101000;
	119 :	1111111111111001;
	118 :	1111111111100011;
	117 :	0000000000010110;
	116 :	0000000000101000;
	115 :	1111111111101101;
	114 :	0000000000101000;
	113 :	1111111111011101;
	112 :	0000000000100001;
	111 :	0000000001000011;
	110 :	1111111111011111;
	109 :	1111111111101000;
	108 :	1111111110110000;
	107 :	1111111111010101;
	106 :	1111111111110001;
	105 :	1111111111000011;
	104 :	1111111110101111;
	103 :	1111111010101100;
	102 :	1111111100001101;
	101 :	0000000000001100;
	100 :	0000000001010111;
	99 :	0000000010011100;
	98 :	0000000010001110;
	97 :	1111111111100011;
	96 :	1111111101010110;
	95 :	1111111011000000;
	94 :	1111111011011010;
	93 :	1111111001001011;
	92 :	1111111010111001;
	91 :	1111111110010111;
	90 :	0000000000101011;
	89 :	0000000000101011;
	88 :	1111111111011000;
	87 :	0000000000101100;
	86 :	1111111111010011;
	85 :	1111111111001100;
	84 :	1111111111100111;
	83 :	0000000000000000;
	82 :	1111111111010111;
	81 :	1111111111101000;
	80 :	1111111111100101;
	79 :	0000000000001011;
	78 :	0000000000011000;
	77 :	1111111111111001;
	76 :	0000000000001001;
	75 :	1111111110111010;
	74 :	1111111111100101;
	73 :	0000000000011001;
	72 :	1111111111100011;
	71 :	1111111101101010;
	70 :	1111111101101100;
	69 :	1111111100101100;
	68 :	1111111011110000;
	67 :	1111111101111000;
	66 :	1111111101011101;
	65 :	1111111101101101;
	64 :	1111111110110110;
	63 :	1111111111000100;
	62 :	1111111111110001;
	61 :	0000000000101010;
	60 :	1111111111101000;
	59 :	1111111111011101;
	58 :	1111111111001111;
	57 :	1111111111101111;
	56 :	1111111111110110;
	55 :	1111111111111011;
	54 :	1111111110111011;
	53 :	1111111111101110;
	52 :	0000000000100000;
	51 :	1111111111001001;
	50 :	0000000000011011;
	49 :	1111111111101111;
	48 :	0000000000010101;
	47 :	0000000000000100;
	46 :	0000000000011101;
	45 :	0000000000100010;
	44 :	0000000000000111;
	43 :	1111111111100011;
	42 :	0000000000000011;
	41 :	0000000000011111;
	40 :	1111111111111011;
	39 :	1111111111000110;
	38 :	1111111111110010;
	37 :	0000000000110011;
	36 :	0000000000000100;
	35 :	0000000000000101;
	34 :	0000000000001010;
	33 :	1111111111111010;
	32 :	0000000000000010;
	31 :	1111111111111100;
	30 :	0000000000100110;
	29 :	0000000000110010;
	28 :	0000000000110100;
	27 :	0000000000000101;
	26 :	0000000000100000;
	25 :	1111111111110000;
	24 :	0000000000001011;
	23 :	0000000000100011;
	22 :	1111111111111010;
	21 :	1111111111011010;
	20 :	0000000000011100;
	19 :	0000000000010101;
	18 :	1111111111010101;
	17 :	0000000000010000;
	16 :	0000000000101111;
	15 :	0000000000100011;
	14 :	0000000000101011;
	13 :	0000000000100110;
	12 :	1111111111111111;
	11 :	0000000000100111;
	10 :	1111111111100000;
	9 :	0000000000000001;
	8 :	1111111111100100;
	7 :	1111111111110111;
	6 :	1111111111100011;
	5 :	0000000000101101;
	4 :	1111111111100000;
	3 :	1111111111111010;
	2 :	0000000000000101;
	1 :	1111111111100101;
	0 :	0000000000100110;
END;
