-- begin_signature
-- Weight_Memory(numWeight
-- 30
-- neuronNo
-- 18
-- layerNo
-- 2
-- addressWidth
-- 5
-- dataWidth
-- 16
-- weightFile
-- "w_2_18.hex")
-- end_signature
WIDTH=16;
DEPTH=30;

ADDRESS_RADIX=UNS;
DATA_RADIX=BIN;

CONTENT BEGIN
	29 :	1111111100011110;
	28 :	0000000010000111;
	27 :	1111111111100101;
	26 :	0000000001001111;
	25 :	0000000000011111;
	24 :	0000000001100010;
	23 :	1111111101000101;
	22 :	0000000001000111;
	21 :	0000000000000101;
	20 :	1111111111000100;
	19 :	0000000000110110;
	18 :	0000000000010000;
	17 :	1111111111110111;
	16 :	0000000000011010;
	15 :	1111111111010010;
	14 :	0000000001011111;
	13 :	1111111100010000;
	12 :	1111111110101100;
	11 :	1111111100100000;
	10 :	0000000010101011;
	9 :	1111111110010101;
	8 :	0000000000011011;
	7 :	0000000000101101;
	6 :	1111111101101000;
	5 :	0000000000000011;
	4 :	1111111110010011;
	3 :	1111111101101011;
	2 :	1111111110011110;
	1 :	1111111111011111;
	0 :	0000000000000101;
END;
