-- begin_signature
-- Weight_Memory(numWeight
-- 30
-- neuronNo
-- 25
-- layerNo
-- 2
-- addressWidth
-- 5
-- dataWidth
-- 16
-- weightFile
-- "w_2_25.hex")
-- end_signature
WIDTH=16;
DEPTH=30;

ADDRESS_RADIX=UNS;
DATA_RADIX=BIN;

CONTENT BEGIN
	29 :	1111111111111101;
	28 :	0000000110101000;
	27 :	0000000110001111;
	26 :	1111110110000010;
	25 :	1111110111110011;
	24 :	1111110101000001;
	23 :	1111101001010110;
	22 :	1111100001011110;
	21 :	0000000111101111;
	20 :	1111110100010110;
	19 :	1111111001010101;
	18 :	1111110101101111;
	17 :	1111111100011111;
	16 :	0000001111000110;
	15 :	0000001011000101;
	14 :	1111110000010101;
	13 :	1111111111111010;
	12 :	1111110110111111;
	11 :	0000001101101111;
	10 :	0000000000111011;
	9 :	0000010000001101;
	8 :	1111101100010000;
	7 :	0000001100010001;
	6 :	1111101111111111;
	5 :	1111110111100110;
	4 :	1111111110011111;
	3 :	1111111111101010;
	2 :	0000000111011001;
	1 :	1111101111010110;
	0 :	0000000001001100;
END;
