-- begin_signature
-- Weight_Memory(numWeight
-- 784
-- neuronNo
-- 5
-- layerNo
-- 1
-- addressWidth
-- 10
-- dataWidth
-- 16
-- weightFile
-- "w_1_5.hex")
-- end_signature
WIDTH=16;
DEPTH=784;

ADDRESS_RADIX=UNS;
DATA_RADIX=BIN;

CONTENT BEGIN
	783 :	1111111111011100;
	782 :	0000000000000000;
	781 :	1111111111111000;
	780 :	1111111111111010;
	779 :	0000000000100100;
	778 :	0000000000000111;
	777 :	1111111111011010;
	776 :	1111111111111111;
	775 :	0000000000000010;
	774 :	0000000000000000;
	773 :	0000000000101001;
	772 :	1111111110101011;
	771 :	1111111110111011;
	770 :	1111111110100110;
	769 :	0000000000100001;
	768 :	1111111111000111;
	767 :	1111111111110010;
	766 :	0000000000011011;
	765 :	1111111111111010;
	764 :	1111111111100110;
	763 :	1111111111100100;
	762 :	1111111111010110;
	761 :	0000000000101111;
	760 :	1111111110110110;
	759 :	0000000000010011;
	758 :	1111111111110010;
	757 :	1111111111110001;
	756 :	1111111111100011;
	755 :	1111111111110010;
	754 :	1111111110111010;
	753 :	1111111111010111;
	752 :	0000000000001010;
	751 :	0000000000110010;
	750 :	0000000000110000;
	749 :	1111111111111101;
	748 :	0000000000100110;
	747 :	0000000000111111;
	746 :	0000000100001110;
	745 :	0000000101100001;
	744 :	0000000111111010;
	743 :	0000000110110011;
	742 :	0000000010100111;
	741 :	0000000000001110;
	740 :	0000000000000100;
	739 :	1111111101100000;
	738 :	1111111111000010;
	737 :	1111111101000000;
	736 :	1111111100010110;
	735 :	1111111111000111;
	734 :	0000000000100110;
	733 :	0000000000011010;
	732 :	0000000000100100;
	731 :	1111111111110001;
	730 :	1111111111011101;
	729 :	1111111111111101;
	728 :	1111111111100110;
	727 :	0000000000000110;
	726 :	1111111111010011;
	725 :	0000000000111111;
	724 :	0000000000001101;
	723 :	1111111111100000;
	722 :	0000000000100110;
	721 :	1111111111000010;
	720 :	0000000001010110;
	719 :	0000000101001001;
	718 :	1111111011001100;
	717 :	1111111001100010;
	716 :	0000000000000110;
	715 :	1111110111111101;
	714 :	0000000010100100;
	713 :	0000001001011010;
	712 :	0000001010100111;
	711 :	0000000001111011;
	710 :	0000001101000100;
	709 :	0000010010110011;
	708 :	0000010010010010;
	707 :	0000001011100000;
	706 :	0000000111100011;
	705 :	0000000101100100;
	704 :	0000000011100011;
	703 :	1111111111011111;
	702 :	0000000000101001;
	701 :	1111111111000001;
	700 :	1111111111101011;
	699 :	0000000000110110;
	698 :	1111111111110010;
	697 :	0000000000010001;
	696 :	1111111111001010;
	695 :	1111111111111000;
	694 :	1111111110111011;
	693 :	1111111100010011;
	692 :	1111111111110011;
	691 :	1111111100000001;
	690 :	1111110110000010;
	689 :	0000000100010100;
	688 :	0000000001101011;
	687 :	1111111011000011;
	686 :	1111111101011011;
	685 :	1111111110100001;
	684 :	0000000011010010;
	683 :	0000000001001001;
	682 :	0000001010001000;
	681 :	0000001110011100;
	680 :	0000000100100100;
	679 :	0000000011110111;
	678 :	0000001010111100;
	677 :	0000001110100110;
	676 :	0000001011010100;
	675 :	0000000100010110;
	674 :	1111111111101000;
	673 :	1111111111011111;
	672 :	1111111111101101;
	671 :	1111111111111100;
	670 :	0000000000101001;
	669 :	0000000000011111;
	668 :	0000000000011101;
	667 :	1111111001001000;
	666 :	1111110011111010;
	665 :	1111110100011010;
	664 :	1111111001010000;
	663 :	1111111011100011;
	662 :	1111111011011000;
	661 :	1111111001001110;
	660 :	1111101111000101;
	659 :	0000000010100111;
	658 :	0000000010001101;
	657 :	0000001010101011;
	656 :	1111111001000011;
	655 :	1111111101010010;
	654 :	1111111101111110;
	653 :	1111111110010101;
	652 :	0000000111011010;
	651 :	0000000011101001;
	650 :	0000000111011111;
	649 :	0000001101011000;
	648 :	0000001001111001;
	647 :	0000000100011010;
	646 :	0000000000110011;
	645 :	0000000000010101;
	644 :	1111111111100111;
	643 :	0000000000101111;
	642 :	0000000000001101;
	641 :	1111111111100111;
	640 :	1111111111000010;
	639 :	1111110100111100;
	638 :	1111110101011011;
	637 :	1111111001010001;
	636 :	1111111011110001;
	635 :	0000000000110001;
	634 :	0000000001110011;
	633 :	0000000001001101;
	632 :	1111111100011110;
	631 :	0000000001101011;
	630 :	1111110111101101;
	629 :	0000000000101101;
	628 :	1111111100010101;
	627 :	0000000011001011;
	626 :	0000000100100010;
	625 :	0000000101101111;
	624 :	0000001011011000;
	623 :	0000000101000111;
	622 :	0000000011011111;
	621 :	0000001011011011;
	620 :	0000001110110011;
	619 :	0000000011010110;
	618 :	1111111101101100;
	617 :	1111111111011100;
	616 :	1111111111111001;
	615 :	0000000000101010;
	614 :	1111111111110001;
	613 :	1111111110011100;
	612 :	1111111111011000;
	611 :	1111110011100001;
	610 :	1111110110011110;
	609 :	0000000001110000;
	608 :	0000001010101111;
	607 :	0000001000001001;
	606 :	0000000110001111;
	605 :	0000000001000100;
	604 :	0000000110110011;
	603 :	1111111101111110;
	602 :	1111110101000110;
	601 :	0000001010001110;
	600 :	0000000010101111;
	599 :	0000001011001111;
	598 :	0000010011001011;
	597 :	0000000010010101;
	596 :	0000001000110000;
	595 :	0000001001000000;
	594 :	0000001001101000;
	593 :	0000001100000010;
	592 :	0000001101111110;
	591 :	0000000100100000;
	590 :	1111111111010110;
	589 :	0000000000010101;
	588 :	1111111111111101;
	587 :	0000000000100000;
	586 :	1111111111001100;
	585 :	1111111111110010;
	584 :	0000000000111010;
	583 :	1111111100001111;
	582 :	1111111101011001;
	581 :	0000000111111010;
	580 :	0000000010111000;
	579 :	0000001010101000;
	578 :	0000001100001110;
	577 :	0000001000000010;
	576 :	0000000001011000;
	575 :	1111111111001010;
	574 :	1111111010110000;
	573 :	1111110011110111;
	572 :	1111110111000111;
	571 :	1111111101110101;
	570 :	0000000101010101;
	569 :	0000000111101100;
	568 :	1111111001010000;
	567 :	1111111111001110;
	566 :	0000000001100101;
	565 :	0000000000001110;
	564 :	0000000110000010;
	563 :	1111111101100110;
	562 :	1111111110010110;
	561 :	1111111111110000;
	560 :	0000000000001101;
	559 :	1111111111010101;
	558 :	0000000000011011;
	557 :	0000000010001011;
	556 :	1111111101011000;
	555 :	1111110111101011;
	554 :	1111110111101101;
	553 :	0000000011011000;
	552 :	0000001010011110;
	551 :	0000000100110111;
	550 :	1111111110011000;
	549 :	0000000111100110;
	548 :	0000000111011000;
	547 :	1111111100100011;
	546 :	1111110111000110;
	545 :	1111101101011100;
	544 :	1111010100100000;
	543 :	1111000110000110;
	542 :	1111000111101101;
	541 :	1111100001010111;
	540 :	1111101110000110;
	539 :	1111111001001101;
	538 :	1111111000000000;
	537 :	1111110111111101;
	536 :	0000000001000011;
	535 :	1111111111101100;
	534 :	1111111111110000;
	533 :	0000000000000000;
	532 :	0000000000011010;
	531 :	1111111111101111;
	530 :	0000000000101010;
	529 :	1111111111010110;
	528 :	1111110110110101;
	527 :	1111110010110010;
	526 :	1111111111101100;
	525 :	0000001000101011;
	524 :	0000001001100010;
	523 :	0000000000000111;
	522 :	0000000010011010;
	521 :	0000000101100011;
	520 :	0000000101110101;
	519 :	0000001101101111;
	518 :	1111111001100110;
	517 :	1111110010111011;
	516 :	1111110001011100;
	515 :	1111101110101000;
	514 :	1111101011011111;
	513 :	1111100111111011;
	512 :	1111101011101010;
	511 :	1111110000010111;
	510 :	1111110000110010;
	509 :	1111110101110100;
	508 :	0000000000111011;
	507 :	0000000100000100;
	506 :	0000000001101001;
	505 :	0000000000101111;
	504 :	1111111111100111;
	503 :	1111111111010110;
	502 :	0000000000000110;
	501 :	1111111101110111;
	500 :	1111111000101111;
	499 :	1111111010101100;
	498 :	1111111110000010;
	497 :	0000000110101010;
	496 :	0000000010100001;
	495 :	1111111111101110;
	494 :	0000001100111011;
	493 :	0000000101001110;
	492 :	1111111010001111;
	491 :	1111111100101101;
	490 :	0000001111111001;
	489 :	0000000010011011;
	488 :	0000001010100101;
	487 :	0000000011101110;
	486 :	1111110111111111;
	485 :	1111110000011001;
	484 :	1111110001001000;
	483 :	1111110000001101;
	482 :	1111110100000010;
	481 :	1111111101110101;
	480 :	0000000010011100;
	479 :	0000000001110101;
	478 :	0000000001101110;
	477 :	0000000000010110;
	476 :	0000000000111110;
	475 :	1111111111101010;
	474 :	1111111111000110;
	473 :	1111111101011101;
	472 :	1111111111100110;
	471 :	1111111101010111;
	470 :	1111111010101000;
	469 :	0000000001100110;
	468 :	1111111101000001;
	467 :	0000000100011001;
	466 :	1111111100101010;
	465 :	1111111111110010;
	464 :	1111111111101101;
	463 :	1111111111111101;
	462 :	0000000110111111;
	461 :	0000001101101010;
	460 :	0000001110100000;
	459 :	0000001000111011;
	458 :	1111111100010000;
	457 :	1111111100010111;
	456 :	1111110100000011;
	455 :	1111111101111010;
	454 :	0000000000010001;
	453 :	0000000010000110;
	452 :	0000000001011111;
	451 :	1111111111100110;
	450 :	0000000001111010;
	449 :	0000000000100111;
	448 :	1111111111010100;
	447 :	1111111111101111;
	446 :	0000000000000001;
	445 :	1111111101100011;
	444 :	0000000000010111;
	443 :	1111111110011001;
	442 :	1111111110111100;
	441 :	1111111110011000;
	440 :	1111111100111111;
	439 :	0000000011000010;
	438 :	1111111000001011;
	437 :	1111110111101101;
	436 :	0000000010101110;
	435 :	0000000001000011;
	434 :	0000001100000010;
	433 :	0000001001011101;
	432 :	0000000010101010;
	431 :	1111111100110011;
	430 :	0000000001000000;
	429 :	1111111110100011;
	428 :	1111111100011111;
	427 :	0000000010100100;
	426 :	1111110111101101;
	425 :	1111111011110010;
	424 :	1111111100100110;
	423 :	1111111110100100;
	422 :	0000000000011001;
	421 :	0000000000100110;
	420 :	0000000000110001;
	419 :	1111111111111001;
	418 :	1111111111011101;
	417 :	1111111101101000;
	416 :	1111111110000110;
	415 :	1111111011000010;
	414 :	1111111010001000;
	413 :	1111111001011111;
	412 :	1111111000000100;
	411 :	1111111010000100;
	410 :	0000000001110111;
	409 :	0000000111100000;
	408 :	0000000110101011;
	407 :	0000001000010101;
	406 :	1111111111110101;
	405 :	0000001001010010;
	404 :	0000000111000001;
	403 :	0000000011110101;
	402 :	0000000111111001;
	401 :	0000000011100110;
	400 :	0000000001010010;
	399 :	1111110100111011;
	398 :	1111110000011011;
	397 :	1111110110111001;
	396 :	1111111100000011;
	395 :	1111111110101000;
	394 :	1111111111011110;
	393 :	0000000000000101;
	392 :	0000000000010001;
	391 :	1111111111010001;
	390 :	0000000000001000;
	389 :	1111111111110111;
	388 :	1111111111001011;
	387 :	1111111010110110;
	386 :	1111110101111110;
	385 :	1111111111110101;
	384 :	1111111111010010;
	383 :	1111110111010111;
	382 :	0000000110110100;
	381 :	1111111111111011;
	380 :	0000000100000001;
	379 :	0000000000011100;
	378 :	1111111100110010;
	377 :	0000000101001010;
	376 :	0000001011010010;
	375 :	0000001110110100;
	374 :	1111111001111001;
	373 :	1111101000111000;
	372 :	1111100111001001;
	371 :	1111100100001010;
	370 :	1111101010000010;
	369 :	1111110100001111;
	368 :	1111111010010001;
	367 :	1111111110101111;
	366 :	1111111111011011;
	365 :	1111111110100111;
	364 :	0000000001010111;
	363 :	1111111111110010;
	362 :	0000000000000000;
	361 :	0000000000011100;
	360 :	1111111111010000;
	359 :	1111111001101010;
	358 :	1111111101010010;
	357 :	0000000000001100;
	356 :	0000000010011100;
	355 :	1111110100111001;
	354 :	0000000100000111;
	353 :	1111111000110010;
	352 :	1111111110010101;
	351 :	0000000011101011;
	350 :	0000001101001000;
	349 :	0000001010110001;
	348 :	1111111010111100;
	347 :	1111101101000010;
	346 :	1111011101101000;
	345 :	1111010011001110;
	344 :	1111011111011101;
	343 :	1111101010111011;
	342 :	1111110010100110;
	341 :	1111111000011110;
	340 :	1111111111101101;
	339 :	1111111110110001;
	338 :	1111111110111111;
	337 :	1111111110111001;
	336 :	0000000000110000;
	335 :	0000000000001100;
	334 :	0000000000010110;
	333 :	0000000000011000;
	332 :	1111111101110101;
	331 :	1111111110001110;
	330 :	1111111011001110;
	329 :	1111111111011111;
	328 :	0000001001010011;
	327 :	1111111110011100;
	326 :	1111111001100100;
	325 :	1111111111101111;
	324 :	1111111100100101;
	323 :	1111111111000110;
	322 :	0000001000001100;
	321 :	1111111001011110;
	320 :	1111011100000111;
	319 :	1111011100100110;
	318 :	1111100101100000;
	317 :	1111110000000100;
	316 :	1111111110011101;
	315 :	1111110101010010;
	314 :	0000000010000011;
	313 :	0000000001011010;
	312 :	0000000001100001;
	311 :	0000000010011100;
	310 :	1111111111000110;
	309 :	0000000000110100;
	308 :	0000000000001001;
	307 :	1111111111010010;
	306 :	0000000000000000;
	305 :	1111111110100110;
	304 :	1111111011110100;
	303 :	1111111111110111;
	302 :	1111111101110110;
	301 :	0000000010000001;
	300 :	0000000111111010;
	299 :	0000000100101010;
	298 :	1111111101000011;
	297 :	0000001000011000;
	296 :	0000000101011000;
	295 :	1111111110111111;
	294 :	1111110011010001;
	293 :	1111101010001100;
	292 :	1111110110111110;
	291 :	1111111100100000;
	290 :	0000000010000000;
	289 :	0000000001101000;
	288 :	0000001100111100;
	287 :	0000000101011010;
	286 :	0000000010111111;
	285 :	1111111101011111;
	284 :	1111111111010111;
	283 :	0000000101111011;
	282 :	0000000001000111;
	281 :	1111111111100011;
	280 :	0000000000001000;
	279 :	1111111111111101;
	278 :	1111111101011011;
	277 :	1111111100111110;
	276 :	1111111001000000;
	275 :	1111111111111100;
	274 :	0000000111010110;
	273 :	0000000101110000;
	272 :	0000000010110011;
	271 :	0000000001111111;
	270 :	0000000011010011;
	269 :	1111111101110111;
	268 :	0000000110011101;
	267 :	0000000001011010;
	266 :	1111111001001110;
	265 :	1111111001101101;
	264 :	1111111101101111;
	263 :	0000000100100011;
	262 :	0000000001001100;
	261 :	0000000001101100;
	260 :	0000000101000100;
	259 :	0000000000100111;
	258 :	1111111110101110;
	257 :	1111110011101010;
	256 :	0000000001000001;
	255 :	0000000101101011;
	254 :	0000000001110101;
	253 :	1111111111101111;
	252 :	1111111111100101;
	251 :	0000000000010011;
	250 :	0000000000100100;
	249 :	1111111110011100;
	248 :	1111110111100110;
	247 :	1111110011110111;
	246 :	0000000000000110;
	245 :	0000000101101010;
	244 :	1111110111111111;
	243 :	0000000111010000;
	242 :	0000001110100000;
	241 :	0000000110111001;
	240 :	0000000010010001;
	239 :	0000000110100110;
	238 :	0000000101000010;
	237 :	1111111100111100;
	236 :	1111111010000111;
	235 :	0000000000010110;
	234 :	0000000110001011;
	233 :	0000000001111101;
	232 :	1111111010111111;
	231 :	1111111111000110;
	230 :	1111111000101001;
	229 :	1111111100101110;
	228 :	0000000000010001;
	227 :	0000000001100101;
	226 :	0000000010101001;
	225 :	0000000000011011;
	224 :	1111111111010110;
	223 :	0000000000000100;
	222 :	1111111111110110;
	221 :	1111111110001010;
	220 :	1111111010001101;
	219 :	1111111000010010;
	218 :	1111111011010000;
	217 :	1111111111100001;
	216 :	1111111111000001;
	215 :	1111111111011010;
	214 :	0000000000101011;
	213 :	0000000100110101;
	212 :	1111111101101011;
	211 :	1111111110011101;
	210 :	0000000011111101;
	209 :	0000000011011001;
	208 :	0000000011101100;
	207 :	1111111001110101;
	206 :	1111111110011101;
	205 :	0000000011001111;
	204 :	0000000000010110;
	203 :	0000000000101100;
	202 :	0000000101111111;
	201 :	0000000011100001;
	200 :	0000000011011101;
	199 :	1111111110010101;
	198 :	0000000010110000;
	197 :	1111111111011111;
	196 :	0000000000100101;
	195 :	1111111111101110;
	194 :	1111111111111110;
	193 :	1111111110101011;
	192 :	1111111101100111;
	191 :	1111111100101011;
	190 :	1111111001111100;
	189 :	1111111101100010;
	188 :	0000000111110010;
	187 :	0000000011100010;
	186 :	0000001011100111;
	185 :	1111111000010111;
	184 :	0000000011111010;
	183 :	1111111100011011;
	182 :	1111111111010110;
	181 :	0000001110110010;
	180 :	0000000001010000;
	179 :	0000000100100110;
	178 :	0000000110001000;
	177 :	0000001010001110;
	176 :	0000000111000010;
	175 :	1111111010001110;
	174 :	1111111000101011;
	173 :	1111111111110111;
	172 :	0000000001000010;
	171 :	0000000001000101;
	170 :	0000000000100101;
	169 :	0000000000000011;
	168 :	1111111111101001;
	167 :	1111111111100011;
	166 :	0000000000100011;
	165 :	1111111111111011;
	164 :	1111111110010001;
	163 :	1111111101101011;
	162 :	1111111001100000;
	161 :	1111110111001111;
	160 :	0000000001000100;
	159 :	1111111111001011;
	158 :	0000000000101011;
	157 :	1111111110011110;
	156 :	1111111110101100;
	155 :	1111111101001101;
	154 :	1111111101111001;
	153 :	1111111010110010;
	152 :	1111111111010111;
	151 :	1111111010100010;
	150 :	0000000011011000;
	149 :	1111111101001111;
	148 :	1111111101001101;
	147 :	1111111001111101;
	146 :	1111111001111101;
	145 :	0000000010111001;
	144 :	0000000001010111;
	143 :	1111111111011000;
	142 :	1111111111111101;
	141 :	1111111111101011;
	140 :	1111111111011010;
	139 :	1111111111101110;
	138 :	0000000000010001;
	137 :	0000000000110001;
	136 :	0000000000000001;
	135 :	1111111101011111;
	134 :	1111111011100010;
	133 :	0000000001010010;
	132 :	1111111111000010;
	131 :	0000000001100111;
	130 :	0000000001110110;
	129 :	1111111111111100;
	128 :	1111111110001101;
	127 :	1111111010101000;
	126 :	1111111010111111;
	125 :	1111111011001101;
	124 :	0000000000011111;
	123 :	0000001011110101;
	122 :	0000000100010000;
	121 :	1111111010111111;
	120 :	0000000001000110;
	119 :	0000000000000001;
	118 :	0000000000110010;
	117 :	0000000010000101;
	116 :	0000000001000011;
	115 :	0000000000001100;
	114 :	1111111111100100;
	113 :	1111111111101101;
	112 :	1111111111100101;
	111 :	1111111111111011;
	110 :	0000000000000100;
	109 :	0000000000001011;
	108 :	1111111110001000;
	107 :	1111111101110000;
	106 :	1111111101001110;
	105 :	0000000001000100;
	104 :	0000000010010100;
	103 :	0000000001101101;
	102 :	0000000000100000;
	101 :	0000000010111100;
	100 :	0000000000110111;
	99 :	1111111100111001;
	98 :	1111111100110101;
	97 :	0000000000100100;
	96 :	0000000010011001;
	95 :	0000000001111010;
	94 :	1111111111110000;
	93 :	0000000000000100;
	92 :	0000000000010011;
	91 :	1111111111100101;
	90 :	0000000000110001;
	89 :	1111111111101100;
	88 :	1111111111011110;
	87 :	0000000000111000;
	86 :	1111111111110110;
	85 :	0000000000110100;
	84 :	0000000000011000;
	83 :	1111111111111110;
	82 :	0000000000011010;
	81 :	1111111111001111;
	80 :	1111111111010001;
	79 :	0000000000100011;
	78 :	1111111111111111;
	77 :	0000000000110010;
	76 :	0000000000010100;
	75 :	0000000001011101;
	74 :	0000000000000010;
	73 :	1111111110100011;
	72 :	1111111110011000;
	71 :	1111111111000000;
	70 :	1111111110110111;
	69 :	0000000000000110;
	68 :	1111111111111011;
	67 :	0000000000000011;
	66 :	1111111111101000;
	65 :	1111111111011001;
	64 :	0000000000000001;
	63 :	0000000000011000;
	62 :	0000000000001100;
	61 :	0000000000000111;
	60 :	1111111110111101;
	59 :	0000000000110010;
	58 :	0000000001000011;
	57 :	0000000000001100;
	56 :	1111111111110001;
	55 :	0000000000010101;
	54 :	1111111111000101;
	53 :	1111111111111100;
	52 :	1111111111101001;
	51 :	0000000000000111;
	50 :	1111111111001100;
	49 :	1111111111111001;
	48 :	0000000000110010;
	47 :	0000000000100000;
	46 :	1111111111101101;
	45 :	0000000000000001;
	44 :	0000000000100100;
	43 :	0000000000001100;
	42 :	0000000000000000;
	41 :	0000000000001110;
	40 :	1111111111110000;
	39 :	0000000000010001;
	38 :	1111111111111010;
	37 :	1111111111000100;
	36 :	1111111111101101;
	35 :	1111111111110101;
	34 :	0000000000001111;
	33 :	1111111111110110;
	32 :	1111111111111011;
	31 :	1111111110111110;
	30 :	1111111111001010;
	29 :	0000000000000000;
	28 :	1111111111010010;
	27 :	0000000000010111;
	26 :	1111111111111111;
	25 :	1111111111010000;
	24 :	0000000001001000;
	23 :	1111111111101110;
	22 :	1111111111111010;
	21 :	1111111111011011;
	20 :	1111111111110011;
	19 :	1111111111100001;
	18 :	1111111110110111;
	17 :	1111111111110101;
	16 :	0000000000110000;
	15 :	1111111111000011;
	14 :	1111111111111100;
	13 :	0000000000111011;
	12 :	0000000000101011;
	11 :	1111111111110000;
	10 :	0000000000001101;
	9 :	1111111111100110;
	8 :	1111111111101010;
	7 :	1111111111111110;
	6 :	0000000000001111;
	5 :	0000000000010111;
	4 :	1111111111110111;
	3 :	0000000000000010;
	2 :	0000000000011011;
	1 :	1111111111100100;
	0 :	1111111111111100;
END;
