-- begin_signature
-- Weight_Memory(numWeight
-- 784
-- neuronNo
-- 1
-- layerNo
-- 1
-- addressWidth
-- 10
-- dataWidth
-- 16
-- weightFile
-- "w_1_1.hex")
-- end_signature
WIDTH=16;
DEPTH=784;

ADDRESS_RADIX=UNS;
DATA_RADIX=BIN;

CONTENT BEGIN
	783 :	1111111111011101;
	782 :	1111111111100010;
	781 :	1111111111100001;
	780 :	0000000000000000;
	779 :	0000000000000011;
	778 :	0000000000011011;
	777 :	1111111111111110;
	776 :	0000000000001001;
	775 :	0000000001000100;
	774 :	0000000011001010;
	773 :	0000000000011110;
	772 :	1111111111011101;
	771 :	0000000010100101;
	770 :	0000000001101001;
	769 :	1111111111000010;
	768 :	1111111111111001;
	767 :	1111111111001110;
	766 :	1111111110101100;
	765 :	0000000000001111;
	764 :	1111111111010111;
	763 :	0000000000101010;
	762 :	0000000000000100;
	761 :	0000000001000111;
	760 :	0000000000000110;
	759 :	0000000000100110;
	758 :	0000000000001010;
	757 :	1111111111100111;
	756 :	1111111111000101;
	755 :	0000000000001010;
	754 :	1111111111111111;
	753 :	1111111111111010;
	752 :	1111111111001010;
	751 :	0000000000011001;
	750 :	0000000000111111;
	749 :	0000000000011100;
	748 :	1111111101110000;
	747 :	1111111101001111;
	746 :	0000000010010000;
	745 :	1111111111110010;
	744 :	0000000000111100;
	743 :	0000000100100001;
	742 :	0000001000001110;
	741 :	0000000010011001;
	740 :	0000000000010100;
	739 :	1111111110100101;
	738 :	0000000101010110;
	737 :	0000000100111000;
	736 :	0000000011111011;
	735 :	0000000101011101;
	734 :	0000000110011001;
	733 :	0000000100000110;
	732 :	0000000001101101;
	731 :	1111111111000111;
	730 :	0000000000001111;
	729 :	0000000000100011;
	728 :	1111111111110010;
	727 :	1111111111011011;
	726 :	1111111111011010;
	725 :	1111111111100010;
	724 :	1111111110101101;
	723 :	1111111111000011;
	722 :	1111111110111111;
	721 :	1111111101111101;
	720 :	1111111111000010;
	719 :	1111110100000010;
	718 :	1111110101101001;
	717 :	1111111011001000;
	716 :	1111111111011001;
	715 :	1111111001110111;
	714 :	0000000000111110;
	713 :	0000000001111010;
	712 :	1111111011001000;
	711 :	0000000000110100;
	710 :	1111111100011111;
	709 :	0000000001001000;
	708 :	0000000000000000;
	707 :	0000000101110010;
	706 :	0000000111000111;
	705 :	0000000110101001;
	704 :	0000000001110100;
	703 :	1111111111111111;
	702 :	0000000000010111;
	701 :	1111111111111101;
	700 :	0000000000101001;
	699 :	0000000000010100;
	698 :	0000000000011100;
	697 :	1111111111010001;
	696 :	1111111101111100;
	695 :	0000000001110100;
	694 :	0000000010000001;
	693 :	0000000000100000;
	692 :	0000000010111010;
	691 :	1111111100000000;
	690 :	1111111011100110;
	689 :	1111110100110000;
	688 :	1111110000011000;
	687 :	1111101111101001;
	686 :	1111111000110100;
	685 :	1111111010001001;
	684 :	1111110001011011;
	683 :	1111111000010100;
	682 :	1111111011110010;
	681 :	1111111111110010;
	680 :	0000000001101001;
	679 :	0000000101011011;
	678 :	0000000100011010;
	677 :	1111111101111101;
	676 :	1111111110010111;
	675 :	1111111110010110;
	674 :	1111111111111110;
	673 :	0000000000000101;
	672 :	1111111111101001;
	671 :	0000000000111011;
	670 :	1111111111100110;
	669 :	1111111111100010;
	668 :	1111111101101001;
	667 :	1111111110001110;
	666 :	1111111110101010;
	665 :	1111111101110111;
	664 :	0000000001010100;
	663 :	1111111110000011;
	662 :	1111111001011101;
	661 :	1111111000100001;
	660 :	1111101100100010;
	659 :	1111111000100011;
	658 :	1111110101110100;
	657 :	1111111100110001;
	656 :	1111111010110000;
	655 :	1111111100000110;
	654 :	0000000001100000;
	653 :	1111111001111111;
	652 :	0000000100000111;
	651 :	1111111100011011;
	650 :	1111111100010110;
	649 :	1111110111001110;
	648 :	1111111011010011;
	647 :	1111111111001000;
	646 :	0000000000001111;
	645 :	0000000000010100;
	644 :	0000000000100010;
	643 :	0000000000001110;
	642 :	0000000000000101;
	641 :	0000000000000001;
	640 :	0000000000001001;
	639 :	1111111110110001;
	638 :	1111111011100000;
	637 :	1111110110110011;
	636 :	1111111011100000;
	635 :	1111111001001011;
	634 :	1111111011011110;
	633 :	1111111011000000;
	632 :	1111110010101001;
	631 :	1111110001101111;
	630 :	1111110001110100;
	629 :	1111110011011111;
	628 :	1111110101111001;
	627 :	1111111111100100;
	626 :	1111111101000001;
	625 :	1111111110110010;
	624 :	0000000010111111;
	623 :	1111110111011000;
	622 :	1111110111101010;
	621 :	1111111001011000;
	620 :	1111111101000011;
	619 :	1111111111011000;
	618 :	1111111111111100;
	617 :	0000000000001101;
	616 :	1111111111001001;
	615 :	1111111111101010;
	614 :	1111111111000110;
	613 :	1111111111111100;
	612 :	1111111111110001;
	611 :	1111111110100011;
	610 :	1111111100101000;
	609 :	1111110011110011;
	608 :	1111110000101100;
	607 :	1111111000011000;
	606 :	1111111011010000;
	605 :	1111110110010111;
	604 :	1111110111010110;
	603 :	1111110000100000;
	602 :	1111110101110010;
	601 :	1111110100101001;
	600 :	1111111100101100;
	599 :	1111110010101010;
	598 :	1111111001001111;
	597 :	0000000010010000;
	596 :	1111110111101101;
	595 :	1111110011001010;
	594 :	1111110011010110;
	593 :	1111111011010100;
	592 :	1111111100110111;
	591 :	1111111110101001;
	590 :	1111111111111010;
	589 :	0000000000000010;
	588 :	0000000000010110;
	587 :	0000000000000011;
	586 :	0000000000101001;
	585 :	1111111111110010;
	584 :	0000000000010010;
	583 :	1111111101101110;
	582 :	1111111001110000;
	581 :	1111110111000000;
	580 :	1111110010111011;
	579 :	1111110011111011;
	578 :	1111111000100110;
	577 :	1111110101010101;
	576 :	0000000010111110;
	575 :	1111110010101001;
	574 :	1111110110111010;
	573 :	1111110100001110;
	572 :	1111101011001101;
	571 :	1111110001100111;
	570 :	1111110011000111;
	569 :	1111110011101100;
	568 :	1111101110010000;
	567 :	1111110000111101;
	566 :	1111110111000100;
	565 :	1111111000111111;
	564 :	1111111100101110;
	563 :	1111111110100010;
	562 :	1111111110111100;
	561 :	1111111111011100;
	560 :	1111111111100101;
	559 :	0000000000011000;
	558 :	0000000001101110;
	557 :	0000000001011001;
	556 :	0000000000001000;
	555 :	1111111110011000;
	554 :	1111111000100100;
	553 :	1111110110101100;
	552 :	1111101111110001;
	551 :	1111101111011110;
	550 :	1111101111110110;
	549 :	1111101111101000;
	548 :	0000000010011001;
	547 :	1111111101000010;
	546 :	1111111110011100;
	545 :	1111111000001111;
	544 :	1111110011100101;
	543 :	1111110101111001;
	542 :	1111101010110110;
	541 :	1111100110011000;
	540 :	1111101110111101;
	539 :	1111110110111010;
	538 :	1111111101001010;
	537 :	1111111101001010;
	536 :	1111111101100110;
	535 :	0000000000010001;
	534 :	0000000000000000;
	533 :	1111111111101011;
	532 :	0000000000100001;
	531 :	1111111111011101;
	530 :	0000000000111010;
	529 :	1111111110010100;
	528 :	1111111111100111;
	527 :	1111111110001000;
	526 :	1111111011110011;
	525 :	0000000100011010;
	524 :	0000000011000000;
	523 :	1111111000101010;
	522 :	1111110101111100;
	521 :	1111111000110011;
	520 :	1111111010011111;
	519 :	0000000100100110;
	518 :	0000000010011110;
	517 :	0000000101000101;
	516 :	1111111111111000;
	515 :	1111111110010111;
	514 :	1111110110011000;
	513 :	1111110010001110;
	512 :	1111110110101000;
	511 :	1111110110010001;
	510 :	1111111010001001;
	509 :	1111111101010001;
	508 :	1111111101011110;
	507 :	1111111111010111;
	506 :	0000000000011101;
	505 :	1111111111101111;
	504 :	1111111111001011;
	503 :	0000000000010100;
	502 :	0000000000000010;
	501 :	1111111110110001;
	500 :	0000000010101111;
	499 :	0000000001110001;
	498 :	0000000000101010;
	497 :	0000000111111101;
	496 :	0000000001001100;
	495 :	1111111110011000;
	494 :	0000000000010101;
	493 :	1111111010110111;
	492 :	0000000010000010;
	491 :	0000001101010110;
	490 :	1111111101101110;
	489 :	0000000100000111;
	488 :	1111111101110101;
	487 :	0000000001010001;
	486 :	1111111110101010;
	485 :	0000000000111101;
	484 :	0000000000011101;
	483 :	1111111001000011;
	482 :	1111110010111001;
	481 :	1111110101000011;
	480 :	1111111010001111;
	479 :	1111111110110110;
	478 :	1111111111100001;
	477 :	0000000000000101;
	476 :	1111111111100010;
	475 :	1111111110111111;
	474 :	0000000000100110;
	473 :	0000000000110010;
	472 :	0000000010010100;
	471 :	0000000001110011;
	470 :	1111111111110110;
	469 :	0000000101101001;
	468 :	0000000000010101;
	467 :	1111111110101110;
	466 :	0000000110111011;
	465 :	0000001100111011;
	464 :	0000001000100011;
	463 :	0000001001110001;
	462 :	0000001011101011;
	461 :	1111111011111101;
	460 :	1111111110111111;
	459 :	0000000101010000;
	458 :	0000000101000001;
	457 :	1111111111010111;
	456 :	0000001000001110;
	455 :	0000000001110000;
	454 :	1111110100100111;
	453 :	1111111001000111;
	452 :	1111111000100110;
	451 :	1111111110000101;
	450 :	1111111111011110;
	449 :	1111111110110101;
	448 :	0000000000001111;
	447 :	0000000000010000;
	446 :	0000000010101001;
	445 :	0000000100010110;
	444 :	1111111110010101;
	443 :	0000000000000000;
	442 :	0000000101100110;
	441 :	0000000100001111;
	440 :	1111111010111010;
	439 :	0000000001100101;
	438 :	1111111111000010;
	437 :	0000001011011110;
	436 :	0000001011100111;
	435 :	0000010100101101;
	434 :	1111111111010000;
	433 :	1111111010111010;
	432 :	0000001001000111;
	431 :	0000000000011011;
	430 :	0000000110011110;
	429 :	0000000010001100;
	428 :	1111111110110111;
	427 :	1111111001101011;
	426 :	1111111001000001;
	425 :	1111111001110011;
	424 :	1111111110001100;
	423 :	0000000000110000;
	422 :	0000000000001101;
	421 :	0000000000010001;
	420 :	1111111111100111;
	419 :	1111111111100010;
	418 :	1111111110110011;
	417 :	0000000100010110;
	416 :	1111111111101111;
	415 :	0000000000010011;
	414 :	1111111011110001;
	413 :	1111111010111001;
	412 :	0000000001011111;
	411 :	0000000010110000;
	410 :	0000000111110100;
	409 :	0000000100010010;
	408 :	0000001100011110;
	407 :	0000000101001010;
	406 :	0000000001110101;
	405 :	0000000001110010;
	404 :	0000000010100010;
	403 :	0000000100001010;
	402 :	0000001011111110;
	401 :	0000010000001010;
	400 :	0000000111111010;
	399 :	0000000101011000;
	398 :	1111111011001011;
	397 :	1111111000100000;
	396 :	1111111111000001;
	395 :	1111111110100001;
	394 :	1111111110111101;
	393 :	1111111111101111;
	392 :	0000000000011000;
	391 :	1111111111110000;
	390 :	0000000000111111;
	389 :	1111111110111000;
	388 :	1111111100111010;
	387 :	1111111011010011;
	386 :	1111111010011010;
	385 :	0000000000001011;
	384 :	0000000100001001;
	383 :	0000000110000011;
	382 :	0000000101101111;
	381 :	0000000101110110;
	380 :	0000001011010011;
	379 :	0000000111100010;
	378 :	0000000011100100;
	377 :	0000000010111100;
	376 :	0000000111101111;
	375 :	0000000110001111;
	374 :	0000001000011001;
	373 :	0000001000001001;
	372 :	0000000011101000;
	371 :	0000010100001101;
	370 :	0000000011000011;
	369 :	1111111010111110;
	368 :	1111111010011100;
	367 :	1111111100010000;
	366 :	1111111111001000;
	365 :	0000000000011111;
	364 :	0000000000110010;
	363 :	0000000000011111;
	362 :	1111111111100001;
	361 :	1111111011101010;
	360 :	1111111100110010;
	359 :	1111111000101001;
	358 :	1111111001000110;
	357 :	1111111110101111;
	356 :	0000000001101100;
	355 :	0000000110101011;
	354 :	0000000000001100;
	353 :	0000000101001111;
	352 :	0000001111010010;
	351 :	0000000111110000;
	350 :	1111111111001110;
	349 :	0000001000100011;
	348 :	0000001010000000;
	347 :	0000001001110110;
	346 :	0000001001111100;
	345 :	0000000100010001;
	344 :	0000001010110110;
	343 :	0000000110000001;
	342 :	0000000001111111;
	341 :	1111110111101000;
	340 :	1111110111100101;
	339 :	1111111010110111;
	338 :	1111111110101110;
	337 :	1111111111001111;
	336 :	0000000000100101;
	335 :	1111111111010010;
	334 :	1111111101101000;
	333 :	1111111110010000;
	332 :	1111111101110000;
	331 :	1111111011111100;
	330 :	1111111100000001;
	329 :	1111111111001001;
	328 :	1111111101110100;
	327 :	0000000000010110;
	326 :	1111111111010000;
	325 :	0000000100010011;
	324 :	0000001011001101;
	323 :	0000000110100111;
	322 :	1111111011101010;
	321 :	1111111011110100;
	320 :	0000001000100100;
	319 :	0000001110101001;
	318 :	0000001001011101;
	317 :	0000000001110110;
	316 :	0000000110101010;
	315 :	0000000000110110;
	314 :	1111110111100001;
	313 :	1111110111011000;
	312 :	1111110110010111;
	311 :	1111111011110011;
	310 :	1111111110001001;
	309 :	1111111111011001;
	308 :	0000000000000010;
	307 :	0000000000110000;
	306 :	1111111110111101;
	305 :	1111111110011011;
	304 :	1111111101001101;
	303 :	1111111100110011;
	302 :	1111111010101110;
	301 :	1111111001110000;
	300 :	1111111011000111;
	299 :	0000000000010100;
	298 :	1111111001010101;
	297 :	1111110011110010;
	296 :	1111111011001000;
	295 :	0000001001101101;
	294 :	0000000010011101;
	293 :	0000000001100110;
	292 :	0000001010110011;
	291 :	0000000101010110;
	290 :	1111111101000100;
	289 :	0000000000101010;
	288 :	1111111101101011;
	287 :	1111111100011111;
	286 :	1111110110001010;
	285 :	1111110101011001;
	284 :	1111111100111110;
	283 :	1111111110001110;
	282 :	1111111110101010;
	281 :	1111111111100100;
	280 :	0000000000001100;
	279 :	0000000100100111;
	278 :	1111111110011111;
	277 :	1111111010100100;
	276 :	1111111010010101;
	275 :	1111111000001110;
	274 :	1111111010101011;
	273 :	1111110111101110;
	272 :	1111111100001001;
	271 :	1111111010111011;
	270 :	0000000011001110;
	269 :	1111111101100101;
	268 :	1111111001000100;
	267 :	0000000000001001;
	266 :	1111111001011111;
	265 :	0000000000111100;
	264 :	1111111101011000;
	263 :	1111111010111110;
	262 :	0000000110101010;
	261 :	0000000000110001;
	260 :	1111111000011001;
	259 :	1111111101111111;
	258 :	1111111001011110;
	257 :	1111111001100010;
	256 :	1111111110011001;
	255 :	1111111110110000;
	254 :	1111111111101110;
	253 :	1111111111011101;
	252 :	0000000000111000;
	251 :	1111111111100011;
	250 :	1111111101110100;
	249 :	0000000001001000;
	248 :	0000000100111000;
	247 :	0000000000111101;
	246 :	1111111010100100;
	245 :	1111111100001111;
	244 :	1111111100100010;
	243 :	0000000001111111;
	242 :	0000001001111011;
	241 :	1111111011101000;
	240 :	1111111111011000;
	239 :	0000000010101000;
	238 :	1111111010110110;
	237 :	0000000010011111;
	236 :	1111110110100111;
	235 :	0000000000101101;
	234 :	0000000101111010;
	233 :	0000000100011010;
	232 :	1111111111001110;
	231 :	1111111111100101;
	230 :	1111111101100001;
	229 :	1111111111100101;
	228 :	1111111111000001;
	227 :	1111111101011100;
	226 :	1111111111001111;
	225 :	1111111111100110;
	224 :	1111111111111001;
	223 :	1111111111111100;
	222 :	1111111101000110;
	221 :	0000000001000001;
	220 :	0000000011011101;
	219 :	0000000001000010;
	218 :	0000000101000011;
	217 :	1111111100001100;
	216 :	1111111101001101;
	215 :	1111111110010010;
	214 :	1111110110001111;
	213 :	0000000000011111;
	212 :	0000001011110011;
	211 :	1111111010011011;
	210 :	0000001001001111;
	209 :	0000000001000011;
	208 :	1111111001001110;
	207 :	1111111010101110;
	206 :	1111111000010111;
	205 :	1111111101111011;
	204 :	1111111100001100;
	203 :	1111111101010110;
	202 :	1111111101110010;
	201 :	0000000000110010;
	200 :	0000000001011111;
	199 :	1111111111101010;
	198 :	1111111111011010;
	197 :	1111111111111011;
	196 :	1111111111111101;
	195 :	1111111111110111;
	194 :	1111111110110100;
	193 :	1111111010101100;
	192 :	1111111110101100;
	191 :	0000000001000000;
	190 :	0000000101110011;
	189 :	1111111101011111;
	188 :	0000000010001101;
	187 :	1111111001001000;
	186 :	1111111001100101;
	185 :	0000001000000111;
	184 :	0000000100010100;
	183 :	0000000101011001;
	182 :	0000001000000110;
	181 :	1111111001000100;
	180 :	1111111001000000;
	179 :	1111111000111011;
	178 :	1111111011101100;
	177 :	1111110111100010;
	176 :	0000000001101101;
	175 :	0000000000101101;
	174 :	0000000001000011;
	173 :	0000000011011110;
	172 :	0000000001001100;
	171 :	1111111111110111;
	170 :	1111111111111111;
	169 :	0000000000011000;
	168 :	1111111111111011;
	167 :	1111111111111011;
	166 :	1111111101110001;
	165 :	1111111110100111;
	164 :	0000000000010111;
	163 :	0000000100001100;
	162 :	1111111110100011;
	161 :	1111111011000100;
	160 :	1111111101110100;
	159 :	1111111011010111;
	158 :	1111110011011101;
	157 :	1111111101010100;
	156 :	1111111000010011;
	155 :	1111111010111110;
	154 :	1111111110100101;
	153 :	1111111101101011;
	152 :	1111111000111000;
	151 :	1111110111100101;
	150 :	1111111111110010;
	149 :	0000000010110011;
	148 :	0000000101010110;
	147 :	0000000011010101;
	146 :	0000000001100100;
	145 :	0000000001000000;
	144 :	1111111110100001;
	143 :	0000000000001101;
	142 :	1111111111101111;
	141 :	1111111111110000;
	140 :	0000000000000110;
	139 :	1111111111111101;
	138 :	1111111110110001;
	137 :	1111111110111000;
	136 :	0000000000110001;
	135 :	0000000010000000;
	134 :	0000000100101010;
	133 :	1111111111000010;
	132 :	1111111010000011;
	131 :	1111111011101110;
	130 :	1111111101001101;
	129 :	1111110110001100;
	128 :	1111110101110110;
	127 :	1111110011010111;
	126 :	1111110000000100;
	125 :	1111110001011001;
	124 :	1111110000110001;
	123 :	1111110110011110;
	122 :	0000000000000101;
	121 :	0000000010101100;
	120 :	0000000010100011;
	119 :	1111111101011001;
	118 :	1111111110100111;
	117 :	0000000001001000;
	116 :	1111111111011100;
	115 :	0000000001001011;
	114 :	1111111111001110;
	113 :	0000000000110100;
	112 :	0000000000000000;
	111 :	0000000001001101;
	110 :	0000000000111000;
	109 :	1111111111010111;
	108 :	1111111111011110;
	107 :	1111111110011100;
	106 :	1111111111110010;
	105 :	1111111110100010;
	104 :	1111111110010110;
	103 :	1111111110110010;
	102 :	0000000000011111;
	101 :	1111111100111011;
	100 :	1111111001111000;
	99 :	1111110110001000;
	98 :	1111110011100101;
	97 :	1111110010011010;
	96 :	1111110111111000;
	95 :	1111111110000010;
	94 :	1111111110000000;
	93 :	1111111101100111;
	92 :	1111111100111110;
	91 :	1111111100111111;
	90 :	1111111110110110;
	89 :	1111111111101111;
	88 :	0000000000000111;
	87 :	1111111110110010;
	86 :	0000000000010100;
	85 :	1111111110111011;
	84 :	0000000001001101;
	83 :	1111111111101110;
	82 :	0000000001001011;
	81 :	1111111110110101;
	80 :	0000000000001110;
	79 :	1111111111000000;
	78 :	1111111111001100;
	77 :	1111111111000111;
	76 :	1111111111101010;
	75 :	1111111111011001;
	74 :	1111111110111111;
	73 :	0000000000001011;
	72 :	1111111101110000;
	71 :	1111111101111110;
	70 :	1111111010001110;
	69 :	1111111010010001;
	68 :	1111111011010100;
	67 :	1111111101101000;
	66 :	1111111101011100;
	65 :	1111111111000001;
	64 :	1111111110001110;
	63 :	1111111110010000;
	62 :	1111111111001000;
	61 :	0000000000000010;
	60 :	1111111111101101;
	59 :	1111111111100000;
	58 :	0000000000001100;
	57 :	0000000001000001;
	56 :	1111111111001001;
	55 :	1111111111010001;
	54 :	1111111111101101;
	53 :	1111111111101100;
	52 :	0000000000001011;
	51 :	1111111111010101;
	50 :	1111111111101010;
	49 :	0000000000001101;
	48 :	1111111111101100;
	47 :	1111111111011011;
	46 :	1111111111111010;
	45 :	0000000000000110;
	44 :	0000000000101010;
	43 :	0000000000011011;
	42 :	1111111111011000;
	41 :	1111111110101110;
	40 :	1111111110000101;
	39 :	0000000000010011;
	38 :	1111111111110110;
	37 :	1111111111111111;
	36 :	1111111110101100;
	35 :	1111111111001011;
	34 :	1111111111101000;
	33 :	1111111111010110;
	32 :	0000000000100010;
	31 :	1111111111101100;
	30 :	0000000000100101;
	29 :	0000000000100111;
	28 :	1111111111011001;
	27 :	0000000000010011;
	26 :	0000000000000010;
	25 :	0000000000010111;
	24 :	1111111111111100;
	23 :	0000000000011010;
	22 :	0000000000100000;
	21 :	0000000000001011;
	20 :	1111111111111010;
	19 :	1111111111011101;
	18 :	0000000000010110;
	17 :	1111111110111000;
	16 :	1111111111111010;
	15 :	1111111110100100;
	14 :	0000000000001010;
	13 :	1111111111101001;
	12 :	0000000000101100;
	11 :	1111111111011110;
	10 :	0000000000000011;
	9 :	1111111111111001;
	8 :	0000000000010110;
	7 :	0000000000111111;
	6 :	1111111111110100;
	5 :	0000000000010101;
	4 :	0000000000100010;
	3 :	0000000000000100;
	2 :	0000000000001011;
	1 :	0000000000011111;
	0 :	1111111111101101;
END;
