-- begin_signature
-- Weight_Memory(numWeight
-- 784
-- neuronNo
-- 3
-- layerNo
-- 1
-- addressWidth
-- 10
-- dataWidth
-- 16
-- weightFile
-- "w_1_3.hex")
-- end_signature
WIDTH=16;
DEPTH=784;

ADDRESS_RADIX=UNS;
DATA_RADIX=BIN;

CONTENT BEGIN
	783 :	0000000000101111;
	782 :	0000000000000001;
	781 :	1111111111010010;
	780 :	0000000000001111;
	779 :	0000000000001110;
	778 :	0000000000000111;
	777 :	0000000000000001;
	776 :	1111111111010111;
	775 :	1111111110111110;
	774 :	1111111111111100;
	773 :	0000000000000010;
	772 :	1111111111101000;
	771 :	0000000000101110;
	770 :	1111111111100011;
	769 :	1111111110111011;
	768 :	1111111111010011;
	767 :	1111111111011001;
	766 :	1111111111111111;
	765 :	0000000000111010;
	764 :	1111111111101001;
	763 :	1111111111101111;
	762 :	1111111111111011;
	761 :	0000000000000010;
	760 :	1111111111100001;
	759 :	0000000000010111;
	758 :	0000000000000000;
	757 :	0000000000010001;
	756 :	1111111111110010;
	755 :	0000000000000010;
	754 :	1111111111011011;
	753 :	1111111111100111;
	752 :	1111111111100111;
	751 :	1111111111111000;
	750 :	0000000000110000;
	749 :	1111111111100111;
	748 :	1111111110111101;
	747 :	1111111111111010;
	746 :	0000000000000100;
	745 :	0000000000101111;
	744 :	1111111111101011;
	743 :	0000000000010101;
	742 :	1111111111111000;
	741 :	1111111111001011;
	740 :	1111111111101111;
	739 :	1111111111111010;
	738 :	0000000000001011;
	737 :	0000000000010111;
	736 :	0000000000100000;
	735 :	0000000000011100;
	734 :	1111111111111100;
	733 :	0000000000001101;
	732 :	0000000000010100;
	731 :	0000000000000100;
	730 :	0000000000100111;
	729 :	1111111111111010;
	728 :	1111111111111101;
	727 :	0000000000001111;
	726 :	1111111111011011;
	725 :	1111111111011101;
	724 :	0000000000111100;
	723 :	0000000000001101;
	722 :	1111111111111010;
	721 :	0000000000001100;
	720 :	1111111111000101;
	719 :	0000000000000110;
	718 :	1111111111100010;
	717 :	1111111111101100;
	716 :	1111111111110010;
	715 :	0000000000000000;
	714 :	1111111111111100;
	713 :	0000000000010001;
	712 :	0000000000001010;
	711 :	0000000001000111;
	710 :	0000000000011100;
	709 :	0000000000000100;
	708 :	0000000000010010;
	707 :	0000000000011111;
	706 :	1111111111100100;
	705 :	0000000000011100;
	704 :	1111111111100010;
	703 :	0000000000011111;
	702 :	1111111111110001;
	701 :	0000000000001000;
	700 :	1111111111110011;
	699 :	1111111111110101;
	698 :	0000000000010010;
	697 :	0000000000010100;
	696 :	1111111111111101;
	695 :	1111111111101011;
	694 :	0000000000101011;
	693 :	1111111111111111;
	692 :	1111111111010101;
	691 :	1111111111111010;
	690 :	0000000000010001;
	689 :	1111111111001110;
	688 :	1111111111101000;
	687 :	0000000000010011;
	686 :	0000000000001000;
	685 :	1111111111110011;
	684 :	1111111110111011;
	683 :	1111111111011000;
	682 :	1111111111111101;
	681 :	1111111111111110;
	680 :	1111111111110100;
	679 :	0000000000001111;
	678 :	0000000000110111;
	677 :	1111111111011111;
	676 :	0000000000011000;
	675 :	1111111111100111;
	674 :	0000000000000010;
	673 :	0000000000010010;
	672 :	1111111111111110;
	671 :	0000000000000000;
	670 :	0000000000001101;
	669 :	1111111110111111;
	668 :	1111111111101001;
	667 :	0000000000100001;
	666 :	0000000000010100;
	665 :	1111111111110000;
	664 :	1111111111001111;
	663 :	1111111111000111;
	662 :	0000000000101101;
	661 :	1111111111001010;
	660 :	1111111111001001;
	659 :	1111111111110000;
	658 :	1111111111000100;
	657 :	1111111111100101;
	656 :	1111111111010111;
	655 :	1111111111110100;
	654 :	1111111111010110;
	653 :	1111111111001111;
	652 :	1111111111111110;
	651 :	0000000000101001;
	650 :	1111111111111100;
	649 :	1111111111110110;
	648 :	1111111111101101;
	647 :	0000000000010011;
	646 :	1111111111101100;
	645 :	0000000000001100;
	644 :	0000000000011110;
	643 :	1111111111100101;
	642 :	1111111111001100;
	641 :	1111111111111101;
	640 :	1111111110110011;
	639 :	0000000000101010;
	638 :	0000000000000011;
	637 :	0000000000000000;
	636 :	1111111111000101;
	635 :	0000000000010000;
	634 :	1111111110111000;
	633 :	1111111111111010;
	632 :	1111111111010101;
	631 :	0000000000010011;
	630 :	1111111111111110;
	629 :	1111111111011110;
	628 :	0000000000100011;
	627 :	1111111110100010;
	626 :	1111111111010011;
	625 :	1111111111101110;
	624 :	1111111111111111;
	623 :	1111111111010110;
	622 :	1111111111111110;
	621 :	0000000000101011;
	620 :	0000000000100011;
	619 :	0000000000011101;
	618 :	0000000000000001;
	617 :	1111111111110011;
	616 :	0000000000010001;
	615 :	1111111111110000;
	614 :	1111111111101001;
	613 :	0000000000011100;
	612 :	1111111110110110;
	611 :	1111111111110110;
	610 :	1111111111001011;
	609 :	1111111111110111;
	608 :	1111111111110101;
	607 :	1111111111101000;
	606 :	1111111111011111;
	605 :	1111111111010110;
	604 :	1111111111000000;
	603 :	1111111110011111;
	602 :	1111111111100100;
	601 :	0000000000001000;
	600 :	1111111111100010;
	599 :	1111111111100001;
	598 :	0000000000010101;
	597 :	0000000000001011;
	596 :	0000000000010011;
	595 :	0000000000111010;
	594 :	1111111111100000;
	593 :	1111111111101000;
	592 :	1111111111101110;
	591 :	0000000001001000;
	590 :	0000000000000000;
	589 :	0000000000100110;
	588 :	0000000000010010;
	587 :	1111111111111110;
	586 :	0000000000110010;
	585 :	1111111111110101;
	584 :	0000000000111010;
	583 :	0000000000001111;
	582 :	0000000000000010;
	581 :	0000000000011010;
	580 :	1111111111111100;
	579 :	0000000000000000;
	578 :	1111111110110111;
	577 :	1111111111010110;
	576 :	1111111111111011;
	575 :	1111111110111001;
	574 :	1111111111010001;
	573 :	0000000000000000;
	572 :	0000000000000010;
	571 :	1111111111111110;
	570 :	1111111111111011;
	569 :	0000000000000101;
	568 :	0000000000100111;
	567 :	1111111111101101;
	566 :	1111111111001101;
	565 :	1111111111101010;
	564 :	0000000000001001;
	563 :	0000000001000010;
	562 :	1111111111110101;
	561 :	1111111111100010;
	560 :	1111111111001011;
	559 :	1111111111110101;
	558 :	0000000000001010;
	557 :	1111111111110000;
	556 :	0000000000010111;
	555 :	0000000000100001;
	554 :	1111111111101000;
	553 :	0000000000001011;
	552 :	0000000000011110;
	551 :	0000000000100000;
	550 :	1111111111100001;
	549 :	1111111110110111;
	548 :	1111111111101010;
	547 :	1111111111111000;
	546 :	1111111111110100;
	545 :	1111111111101111;
	544 :	0000000000001101;
	543 :	0000000000000100;
	542 :	1111111111011010;
	541 :	1111111111110011;
	540 :	0000000000011011;
	539 :	0000000000000100;
	538 :	0000000000000000;
	537 :	0000000000001110;
	536 :	0000000000000110;
	535 :	0000000000011110;
	534 :	1111111111100101;
	533 :	0000000000101000;
	532 :	0000000000010111;
	531 :	0000000000000010;
	530 :	0000000000001111;
	529 :	1111111111110010;
	528 :	1111111111010001;
	527 :	1111111111111010;
	526 :	1111111111000011;
	525 :	0000000000010110;
	524 :	1111111111010010;
	523 :	1111111110101111;
	522 :	0000000000100010;
	521 :	1111111111111111;
	520 :	1111111111101110;
	519 :	1111111111001010;
	518 :	0000000000000010;
	517 :	0000000000000010;
	516 :	0000000000000011;
	515 :	1111111111101010;
	514 :	0000000000000000;
	513 :	0000000000001101;
	512 :	1111111111000011;
	511 :	0000000000100111;
	510 :	1111111111010110;
	509 :	1111111111000110;
	508 :	1111111111011111;
	507 :	0000000000110110;
	506 :	0000000000111010;
	505 :	0000000000000110;
	504 :	0000000000100010;
	503 :	0000000000000111;
	502 :	1111111111010100;
	501 :	0000000000100001;
	500 :	0000000000100000;
	499 :	0000000000000000;
	498 :	1111111111101100;
	497 :	1111111111000101;
	496 :	1111111110110110;
	495 :	0000000000010110;
	494 :	0000000000100010;
	493 :	1111111111101011;
	492 :	0000000000010000;
	491 :	1111111111011001;
	490 :	0000000000001111;
	489 :	1111111111011000;
	488 :	0000000000101011;
	487 :	1111111111000110;
	486 :	1111111110000100;
	485 :	1111111111100010;
	484 :	0000000000000000;
	483 :	1111111111110000;
	482 :	0000000000011001;
	481 :	1111111110010111;
	480 :	1111111111011101;
	479 :	1111111111110111;
	478 :	0000000000000101;
	477 :	0000000000100000;
	476 :	1111111111101101;
	475 :	1111111111011001;
	474 :	1111111111010111;
	473 :	0000000000000100;
	472 :	0000000000000101;
	471 :	0000000000001111;
	470 :	1111111111011111;
	469 :	1111111111101110;
	468 :	0000000001000110;
	467 :	1111111111110011;
	466 :	1111111111001010;
	465 :	0000000000010110;
	464 :	0000000000001010;
	463 :	1111111110101110;
	462 :	1111111111010110;
	461 :	1111111111111101;
	460 :	1111111111110011;
	459 :	1111111111011000;
	458 :	1111111111100011;
	457 :	1111111111100010;
	456 :	0000000000000000;
	455 :	0000000000010101;
	454 :	0000000000010001;
	453 :	1111111111011111;
	452 :	0000000000011100;
	451 :	0000000000000000;
	450 :	0000000000010011;
	449 :	0000000001001101;
	448 :	1111111111000001;
	447 :	0000000000000111;
	446 :	1111111111110000;
	445 :	0000000000101000;
	444 :	0000000000010111;
	443 :	1111111111011101;
	442 :	0000000000110101;
	441 :	1111111111110001;
	440 :	0000000000001001;
	439 :	1111111111011010;
	438 :	1111111111110001;
	437 :	0000000000000000;
	436 :	1111111111100011;
	435 :	0000000000000000;
	434 :	1111111111010111;
	433 :	0000000000001101;
	432 :	1111111111100001;
	431 :	1111111111110011;
	430 :	1111111111101111;
	429 :	0000000000000110;
	428 :	0000000000010011;
	427 :	1111111111100110;
	426 :	0000000000010000;
	425 :	0000000000011100;
	424 :	0000000000010100;
	423 :	1111111111110110;
	422 :	0000000000011010;
	421 :	1111111111110011;
	420 :	1111111111111100;
	419 :	1111111111111011;
	418 :	1111111111101110;
	417 :	0000000000011101;
	416 :	0000000000110000;
	415 :	1111111111101010;
	414 :	0000000000101001;
	413 :	0000000000001000;
	412 :	1111111111110011;
	411 :	1111111110110000;
	410 :	1111111111010100;
	409 :	1111111111010000;
	408 :	1111111111010000;
	407 :	1111111111100101;
	406 :	1111111111101000;
	405 :	1111111111101111;
	404 :	1111111111011110;
	403 :	1111111110101101;
	402 :	1111111111011011;
	401 :	1111111111100111;
	400 :	1111111111010000;
	399 :	0000000000010100;
	398 :	1111111110111110;
	397 :	0000000000010111;
	396 :	0000000001000000;
	395 :	0000000000000111;
	394 :	0000000000001111;
	393 :	0000000000000000;
	392 :	0000000000011010;
	391 :	1111111111110111;
	390 :	1111111111111011;
	389 :	0000000000110110;
	388 :	0000000000111101;
	387 :	1111111111100110;
	386 :	1111111111101111;
	385 :	1111111111111101;
	384 :	1111111111110001;
	383 :	1111111111100001;
	382 :	1111111110100100;
	381 :	1111111110011011;
	380 :	1111111111011101;
	379 :	1111111111000011;
	378 :	1111111110111101;
	377 :	1111111111010110;
	376 :	1111111111110010;
	375 :	1111111110111001;
	374 :	1111111110111110;
	373 :	0000000000000000;
	372 :	1111111111100011;
	371 :	1111111111011000;
	370 :	0000000000010100;
	369 :	0000000000000011;
	368 :	0000000000100010;
	367 :	1111111111111010;
	366 :	1111111111101111;
	365 :	0000000000110001;
	364 :	1111111111100011;
	363 :	1111111111111101;
	362 :	0000000000000101;
	361 :	0000000000011011;
	360 :	1111111111101001;
	359 :	1111111111110110;
	358 :	1111111111110111;
	357 :	0000000000001001;
	356 :	1111111111101101;
	355 :	1111111111111010;
	354 :	1111111111101000;
	353 :	1111111111110110;
	352 :	1111111111010000;
	351 :	1111111111100010;
	350 :	1111111110111101;
	349 :	1111111111011011;
	348 :	1111111111100000;
	347 :	1111111111010110;
	346 :	0000000000000010;
	345 :	0000000000000001;
	344 :	1111111111111111;
	343 :	1111111111110111;
	342 :	0000000000001010;
	341 :	1111111111111010;
	340 :	1111111111111001;
	339 :	0000000000001011;
	338 :	0000000000001100;
	337 :	1111111111100001;
	336 :	1111111111111110;
	335 :	0000000000010010;
	334 :	1111111111101000;
	333 :	0000000000010001;
	332 :	1111111111101100;
	331 :	0000000000000111;
	330 :	1111111111001110;
	329 :	0000000000010011;
	328 :	1111111111101111;
	327 :	1111111111100111;
	326 :	0000000000000101;
	325 :	1111111111011000;
	324 :	0000000000110111;
	323 :	0000000000001110;
	322 :	1111111110101010;
	321 :	1111111111001101;
	320 :	1111111111101001;
	319 :	0000000000101100;
	318 :	1111111111010010;
	317 :	1111111111010110;
	316 :	1111111110110111;
	315 :	1111111111001101;
	314 :	1111111111100001;
	313 :	1111111111100100;
	312 :	0000000000011101;
	311 :	1111111111111010;
	310 :	0000000000001001;
	309 :	1111111111101011;
	308 :	1111111111111010;
	307 :	1111111111111101;
	306 :	0000000000001001;
	305 :	0000000000010101;
	304 :	0000000000010001;
	303 :	1111111111100111;
	302 :	0000000000100010;
	301 :	0000000000010101;
	300 :	1111111111101000;
	299 :	1111111111101000;
	298 :	1111111110100110;
	297 :	1111111111100001;
	296 :	1111111111010101;
	295 :	1111111111000101;
	294 :	0000000000101010;
	293 :	1111111111011110;
	292 :	0000000000000001;
	291 :	1111111111100110;
	290 :	1111111111111100;
	289 :	1111111111101010;
	288 :	0000000000101101;
	287 :	0000000000001100;
	286 :	0000000000001001;
	285 :	0000000000101100;
	284 :	0000000000100100;
	283 :	0000000001000100;
	282 :	0000000000011001;
	281 :	0000000000001000;
	280 :	0000000001010001;
	279 :	0000000000001111;
	278 :	0000000000001100;
	277 :	0000000000011100;
	276 :	1111111111100011;
	275 :	0000000000000111;
	274 :	1111111111110111;
	273 :	0000000000101010;
	272 :	1111111111010011;
	271 :	0000000000010101;
	270 :	1111111111110001;
	269 :	0000000000001001;
	268 :	1111111111110010;
	267 :	1111111111100000;
	266 :	0000000000001001;
	265 :	0000000000000000;
	264 :	0000000000101101;
	263 :	1111111111001000;
	262 :	1111111111100001;
	261 :	1111111111101001;
	260 :	0000000000010000;
	259 :	1111111111101000;
	258 :	0000000000000100;
	257 :	1111111111111111;
	256 :	0000000000000101;
	255 :	1111111110101111;
	254 :	0000000000010000;
	253 :	0000000000011011;
	252 :	0000000000001110;
	251 :	0000000000001000;
	250 :	1111111111101001;
	249 :	1111111111010010;
	248 :	0000000000001101;
	247 :	1111111111100011;
	246 :	1111111111110000;
	245 :	0000000000001100;
	244 :	1111111111100111;
	243 :	1111111111010111;
	242 :	1111111111100100;
	241 :	1111111110111110;
	240 :	1111111111010110;
	239 :	0000000000000111;
	238 :	1111111111100000;
	237 :	1111111111101011;
	236 :	0000000000011001;
	235 :	0000000000001100;
	234 :	1111111111110001;
	233 :	0000000000000001;
	232 :	1111111111110111;
	231 :	1111111111101111;
	230 :	1111111111010100;
	229 :	1111111111011010;
	228 :	1111111110111000;
	227 :	0000000000010001;
	226 :	0000000000100010;
	225 :	1111111111100010;
	224 :	1111111111011001;
	223 :	1111111111111110;
	222 :	0000000000000011;
	221 :	1111111111001011;
	220 :	1111111111101111;
	219 :	1111111111110100;
	218 :	1111111110110110;
	217 :	0000000000001111;
	216 :	1111111111101110;
	215 :	1111111110110100;
	214 :	0000000000001100;
	213 :	1111111110111011;
	212 :	1111111111001111;
	211 :	1111111111111110;
	210 :	1111111111110011;
	209 :	1111111110111011;
	208 :	1111111111001010;
	207 :	1111111111101001;
	206 :	0000000000010111;
	205 :	1111111111011100;
	204 :	1111111111010011;
	203 :	0000000000000110;
	202 :	1111111111110101;
	201 :	0000000000010101;
	200 :	1111111111101110;
	199 :	1111111111101011;
	198 :	1111111111110110;
	197 :	0000000000001110;
	196 :	1111111111101000;
	195 :	0000000000011100;
	194 :	1111111111101111;
	193 :	0000000000011000;
	192 :	0000000000000001;
	191 :	1111111111110100;
	190 :	0000000000011000;
	189 :	1111111111111000;
	188 :	1111111111110011;
	187 :	0000000000011100;
	186 :	0000000000000011;
	185 :	1111111111111000;
	184 :	1111111111110110;
	183 :	1111111111100010;
	182 :	1111111110111100;
	181 :	0000000000000011;
	180 :	0000000000010001;
	179 :	1111111111010010;
	178 :	1111111111101001;
	177 :	0000000000010010;
	176 :	1111111111101000;
	175 :	0000000000011101;
	174 :	1111111111001001;
	173 :	1111111111111010;
	172 :	0000000000001101;
	171 :	0000000000011100;
	170 :	1111111111101010;
	169 :	0000000000000100;
	168 :	0000000000010100;
	167 :	1111111111001001;
	166 :	0000000000000000;
	165 :	0000000000010000;
	164 :	0000000000000011;
	163 :	1111111111011010;
	162 :	0000000000100011;
	161 :	1111111111101011;
	160 :	1111111111100010;
	159 :	1111111111110001;
	158 :	0000000000100001;
	157 :	1111111111110101;
	156 :	0000000000011101;
	155 :	1111111111111000;
	154 :	0000000000101000;
	153 :	1111111111010010;
	152 :	0000000001001101;
	151 :	1111111111101101;
	150 :	0000000000011011;
	149 :	1111111111110001;
	148 :	1111111111101110;
	147 :	1111111110110111;
	146 :	0000000000101111;
	145 :	1111111111111111;
	144 :	0000000000100011;
	143 :	1111111111100110;
	142 :	0000000000110001;
	141 :	1111111111111100;
	140 :	1111111111001100;
	139 :	0000000000100111;
	138 :	1111111111010110;
	137 :	1111111111011110;
	136 :	1111111110111011;
	135 :	0000000000000101;
	134 :	0000000001001011;
	133 :	1111111111111010;
	132 :	1111111110111011;
	131 :	1111111111101111;
	130 :	1111111111011101;
	129 :	1111111111101101;
	128 :	1111111111110010;
	127 :	0000000000001101;
	126 :	0000000000000011;
	125 :	1111111111010010;
	124 :	1111111111011001;
	123 :	0000000000100010;
	122 :	1111111111110101;
	121 :	1111111111011101;
	120 :	1111111111111100;
	119 :	0000000000011110;
	118 :	1111111111110111;
	117 :	1111111111110101;
	116 :	1111111111110000;
	115 :	1111111111100010;
	114 :	0000000000001011;
	113 :	0000000000000110;
	112 :	0000000000000010;
	111 :	0000000000010000;
	110 :	0000000000101111;
	109 :	0000000000000110;
	108 :	0000000000111111;
	107 :	1111111111110010;
	106 :	0000000000001100;
	105 :	1111111111110010;
	104 :	1111111111110000;
	103 :	1111111111110100;
	102 :	0000000000101000;
	101 :	1111111111110010;
	100 :	1111111111100001;
	99 :	1111111111010011;
	98 :	0000000000010010;
	97 :	1111111111110110;
	96 :	0000000001000011;
	95 :	0000000000100001;
	94 :	0000000000010101;
	93 :	0000000000110001;
	92 :	1111111111011001;
	91 :	1111111111111010;
	90 :	0000000000011001;
	89 :	1111111111100110;
	88 :	1111111111101111;
	87 :	0000000000101100;
	86 :	1111111111110101;
	85 :	1111111111011010;
	84 :	1111111111000011;
	83 :	1111111111100110;
	82 :	1111111111110110;
	81 :	0000000000001011;
	80 :	1111111111111100;
	79 :	0000000000010111;
	78 :	1111111110101100;
	77 :	1111111111110001;
	76 :	1111111111100111;
	75 :	1111111111001100;
	74 :	1111111111111011;
	73 :	1111111111110010;
	72 :	1111111111011010;
	71 :	1111111111010110;
	70 :	1111111111111000;
	69 :	1111111111111011;
	68 :	1111111111111010;
	67 :	1111111111100000;
	66 :	1111111111000011;
	65 :	0000000000000110;
	64 :	1111111111011111;
	63 :	0000000000100111;
	62 :	0000000000100110;
	61 :	0000000000001111;
	60 :	1111111111101100;
	59 :	0000000000010001;
	58 :	0000000000110111;
	57 :	1111111111011011;
	56 :	1111111111101010;
	55 :	0000000000000101;
	54 :	0000000000010001;
	53 :	1111111111110011;
	52 :	1111111111111001;
	51 :	0000000000011001;
	50 :	0000000000001001;
	49 :	0000000000110100;
	48 :	1111111111110100;
	47 :	1111111111110101;
	46 :	1111111111100001;
	45 :	0000000001001011;
	44 :	1111111111110100;
	43 :	0000000000010000;
	42 :	0000000000011010;
	41 :	1111111110110010;
	40 :	1111111111101100;
	39 :	1111111111010110;
	38 :	1111111111011101;
	37 :	1111111111111010;
	36 :	0000000000011010;
	35 :	1111111111101100;
	34 :	1111111111101101;
	33 :	1111111111111100;
	32 :	0000000000000110;
	31 :	1111111111110101;
	30 :	0000000000001010;
	29 :	1111111111101001;
	28 :	0000000001010000;
	27 :	0000000000000010;
	26 :	0000000000111001;
	25 :	1111111111010110;
	24 :	0000000000100011;
	23 :	1111111111011101;
	22 :	0000000000000100;
	21 :	0000000000101101;
	20 :	1111111111110011;
	19 :	0000000000011110;
	18 :	0000000000000011;
	17 :	0000000000011010;
	16 :	0000000000000010;
	15 :	1111111111100101;
	14 :	0000000000010110;
	13 :	1111111111100010;
	12 :	0000000000101110;
	11 :	0000000000000111;
	10 :	0000000000011001;
	9 :	0000000000111001;
	8 :	0000000000100001;
	7 :	0000000000111110;
	6 :	0000000000100001;
	5 :	1111111111101001;
	4 :	0000000000100011;
	3 :	0000000000010110;
	2 :	1111111111011111;
	1 :	0000000000110000;
	0 :	0000000000001100;
END;
