-- begin_signature
-- Weight_Memory(numWeight
-- 784
-- neuronNo
-- 26
-- layerNo
-- 1
-- addressWidth
-- 10
-- dataWidth
-- 16
-- weightFile
-- "w_1_26.hex")
-- end_signature
WIDTH=16;
DEPTH=784;

ADDRESS_RADIX=UNS;
DATA_RADIX=BIN;

CONTENT BEGIN
	783 :	1111111111100101;
	782 :	1111111111111010;
	781 :	0000000000010011;
	780 :	1111111111111001;
	779 :	0000000000100100;
	778 :	1111111111111111;
	777 :	1111111111101101;
	776 :	0000000000001011;
	775 :	1111111110111110;
	774 :	1111111111110101;
	773 :	1111111111110111;
	772 :	0000000000001100;
	771 :	0000000000000101;
	770 :	1111111110111101;
	769 :	1111111101110011;
	768 :	1111111101111001;
	767 :	1111111101111111;
	766 :	1111111110001011;
	765 :	1111111111110111;
	764 :	1111111111101000;
	763 :	1111111111001010;
	762 :	0000000000000111;
	761 :	0000000000111111;
	760 :	0000000000010000;
	759 :	1111111111110010;
	758 :	0000000000011000;
	757 :	0000000000011010;
	756 :	1111111111111001;
	755 :	1111111111101110;
	754 :	1111111111110101;
	753 :	0000000000011111;
	752 :	1111111111111110;
	751 :	0000000000110000;
	750 :	0000000000010011;
	749 :	0000000000001100;
	748 :	1111111110010110;
	747 :	1111111101001111;
	746 :	1111111110101110;
	745 :	1111111111011100;
	744 :	1111111111101110;
	743 :	0000000000001100;
	742 :	1111111101010101;
	741 :	1111111110101100;
	740 :	1111111101000010;
	739 :	1111111110011101;
	738 :	0000000000011001;
	737 :	0000000000010110;
	736 :	0000000010010000;
	735 :	0000000001001010;
	734 :	0000000001011110;
	733 :	0000000001010000;
	732 :	1111111111111000;
	731 :	1111111111101101;
	730 :	0000000000101011;
	729 :	0000000000000101;
	728 :	0000000000010111;
	727 :	0000000000000110;
	726 :	0000000000000110;
	725 :	1111111111111110;
	724 :	0000000000001110;
	723 :	0000000000000001;
	722 :	0000000000100000;
	721 :	0000000000011001;
	720 :	1111111110110101;
	719 :	1111111010000001;
	718 :	1111110111101101;
	717 :	1111111101101001;
	716 :	0000000010000111;
	715 :	1111111101001010;
	714 :	1111111110001000;
	713 :	0000000001000110;
	712 :	1111111100110001;
	711 :	1111111010011111;
	710 :	0000000011100110;
	709 :	0000000011111101;
	708 :	0000000111101001;
	707 :	0000001000101011;
	706 :	0000000110000011;
	705 :	0000000011101111;
	704 :	1111111111111110;
	703 :	1111111111010100;
	702 :	1111111111011010;
	701 :	0000000000010011;
	700 :	1111111111111011;
	699 :	0000000000000010;
	698 :	1111111111111110;
	697 :	0000000000010001;
	696 :	1111111110111100;
	695 :	1111111110110101;
	694 :	1111111101110110;
	693 :	1111111100011110;
	692 :	1111111010010010;
	691 :	1111111000101001;
	690 :	1111110101100111;
	689 :	1111110110111011;
	688 :	1111111101111001;
	687 :	1111111100010011;
	686 :	1111111111001000;
	685 :	0000000000001000;
	684 :	1111111101011000;
	683 :	1111111101011011;
	682 :	1111111100100101;
	681 :	0000000001111111;
	680 :	0000000001100101;
	679 :	0000000001000010;
	678 :	1111111111100001;
	677 :	0000000011100010;
	676 :	0000000011001011;
	675 :	0000000000110101;
	674 :	0000000000011101;
	673 :	1111111111101110;
	672 :	1111111111101111;
	671 :	1111111111111010;
	670 :	0000000000010010;
	669 :	1111111111010101;
	668 :	1111111111000100;
	667 :	1111111101011110;
	666 :	1111111010001111;
	665 :	1111111011010011;
	664 :	1111111001111011;
	663 :	1111111100100011;
	662 :	1111111111101101;
	661 :	1111111001011001;
	660 :	1111111011100111;
	659 :	1111111100101010;
	658 :	1111111001110101;
	657 :	1111111101001111;
	656 :	0000000101100001;
	655 :	1111111111110000;
	654 :	1111111101011100;
	653 :	1111111011110010;
	652 :	1111110010001111;
	651 :	1111110100100010;
	650 :	1111110101010111;
	649 :	0000000100000000;
	648 :	0000000100100011;
	647 :	0000000010011001;
	646 :	0000000000011100;
	645 :	0000000000000011;
	644 :	0000000000010000;
	643 :	0000000000000010;
	642 :	0000000000100100;
	641 :	0000000001100000;
	640 :	1111111111011111;
	639 :	1111111100111100;
	638 :	1111111001001101;
	637 :	1111111001110110;
	636 :	1111111011101110;
	635 :	1111111101111110;
	634 :	1111110110101010;
	633 :	1111110111110100;
	632 :	1111111111101101;
	631 :	0000000100111011;
	630 :	0000000000010101;
	629 :	0000000000111000;
	628 :	1111111011100100;
	627 :	0000000001011001;
	626 :	0000000100100001;
	625 :	1111111100010100;
	624 :	1111111010010101;
	623 :	1111111011010011;
	622 :	1111110010110011;
	621 :	1111111001100011;
	620 :	1111111011011000;
	619 :	1111111001110110;
	618 :	1111111011101010;
	617 :	0000000000011011;
	616 :	0000000000011100;
	615 :	0000000000100111;
	614 :	0000000000001001;
	613 :	0000000010010001;
	612 :	0000000001000000;
	611 :	1111111101000111;
	610 :	1111111001110100;
	609 :	1111111001101100;
	608 :	0000000011000111;
	607 :	0000000101011001;
	606 :	0000000010000100;
	605 :	0000000010001000;
	604 :	0000000110101010;
	603 :	1111111101110001;
	602 :	0000000101011111;
	601 :	0000000101011110;
	600 :	0000000011000001;
	599 :	0000000001110000;
	598 :	0000000111000100;
	597 :	1111111111000110;
	596 :	0000000100010111;
	595 :	0000001010000101;
	594 :	0000000100100111;
	593 :	0000000010010000;
	592 :	1111111011101000;
	591 :	1111111001011111;
	590 :	1111111010101100;
	589 :	0000000000011110;
	588 :	1111111111110001;
	587 :	1111111111111000;
	586 :	1111111111100101;
	585 :	0000000001000111;
	584 :	0000000110011011;
	583 :	0000000000010000;
	582 :	1111111110000010;
	581 :	1111110101011011;
	580 :	1111111010010100;
	579 :	0000000001110011;
	578 :	0000000100010010;
	577 :	1111111110010101;
	576 :	0000000010101011;
	575 :	1111111001001011;
	574 :	0000001000001011;
	573 :	0000000000101111;
	572 :	1111111100011100;
	571 :	0000000011010011;
	570 :	0000001110010001;
	569 :	0000001101101001;
	568 :	0000001110000011;
	567 :	0000000110100010;
	566 :	0000001100111101;
	565 :	0000000110011101;
	564 :	0000000110110110;
	563 :	0000000000000001;
	562 :	1111111110010010;
	561 :	0000000000011101;
	560 :	0000000000001101;
	559 :	0000000000010000;
	558 :	1111111111100010;
	557 :	1111111111111110;
	556 :	0000000100001010;
	555 :	0000000000111010;
	554 :	1111111100011101;
	553 :	1111110111001011;
	552 :	1111111010000101;
	551 :	0000000000110100;
	550 :	0000000010110101;
	549 :	1111110011010101;
	548 :	0000000011010001;
	547 :	1111111101010100;
	546 :	0000000000111111;
	545 :	1111111100010010;
	544 :	1111111101001110;
	543 :	1111111110111101;
	542 :	0000001001010001;
	541 :	1111111111111111;
	540 :	0000001100001001;
	539 :	0000000111011110;
	538 :	0000001011011001;
	537 :	0000010000110001;
	536 :	0000000110101000;
	535 :	0000001001111110;
	534 :	0000000000000110;
	533 :	0000000000000101;
	532 :	0000000000010111;
	531 :	1111111111010111;
	530 :	0000000000010100;
	529 :	1111111101011101;
	528 :	1111111010000110;
	527 :	1111111100001011;
	526 :	1111110111100001;
	525 :	1111110010101010;
	524 :	1111110100111111;
	523 :	0000000010100010;
	522 :	1111111100011111;
	521 :	0000000101010101;
	520 :	1111111111000100;
	519 :	1111111111011011;
	518 :	0000000011100101;
	517 :	1111110111110101;
	516 :	1111101111110110;
	515 :	1111110100000001;
	514 :	1111111100011010;
	513 :	0000000101001011;
	512 :	0000000011011111;
	511 :	0000000110100111;
	510 :	0000001110101000;
	509 :	0000000101001000;
	508 :	0000001000101011;
	507 :	0000001110111111;
	506 :	0000000000111111;
	505 :	1111111111011110;
	504 :	0000000000010011;
	503 :	1111111111100001;
	502 :	0000000000001000;
	501 :	1111111100000010;
	500 :	1111111101001101;
	499 :	0000000011011110;
	498 :	1111111000001111;
	497 :	1111101100111100;
	496 :	1111111110011100;
	495 :	0000000101011110;
	494 :	1111111000100010;
	493 :	0000000111010001;
	492 :	1111110110010100;
	491 :	1111111010000100;
	490 :	1111111000001101;
	489 :	1111101010101001;
	488 :	1111011111101000;
	487 :	1111100010111110;
	486 :	1111110011110011;
	485 :	1111111000100010;
	484 :	0000000110000111;
	483 :	0000000101101000;
	482 :	0000000111101101;
	481 :	1111111110001110;
	480 :	0000000111101000;
	479 :	0000000101100011;
	478 :	0000000000010111;
	477 :	0000000001100000;
	476 :	1111111111100110;
	475 :	0000000000000111;
	474 :	1111111111001101;
	473 :	1111111110010011;
	472 :	0000000100110100;
	471 :	1111111111011111;
	470 :	1111111110101100;
	469 :	1111111101001011;
	468 :	0000001011010110;
	467 :	0000000111101100;
	466 :	0000000011101101;
	465 :	1111111001010101;
	464 :	1111101111100000;
	463 :	1111111000111000;
	462 :	1111101100010100;
	461 :	1111101111011101;
	460 :	1111011101001101;
	459 :	1111010101100100;
	458 :	1111010010111001;
	457 :	1111011110100001;
	456 :	1111101111001010;
	455 :	1111110110010001;
	454 :	1111111111011011;
	453 :	0000000010010110;
	452 :	0000000101001100;
	451 :	1111111101001010;
	450 :	0000000000100010;
	449 :	0000000000000000;
	448 :	1111111110110111;
	447 :	0000000000111101;
	446 :	1111111111100101;
	445 :	1111111111001100;
	444 :	0000000000001011;
	443 :	1111111111010110;
	442 :	0000000011001110;
	441 :	0000000001001101;
	440 :	0000000011001000;
	439 :	0000000010000101;
	438 :	1111111110100001;
	437 :	1111111011001110;
	436 :	0000000001011000;
	435 :	0000000011111001;
	434 :	0000000101111101;
	433 :	1111111101100110;
	432 :	0000000010111101;
	431 :	1111101010110011;
	430 :	1111010101010111;
	429 :	1111011100110000;
	428 :	1111100010001000;
	427 :	1111101100000000;
	426 :	1111110000010101;
	425 :	1111110110100001;
	424 :	1111111011000111;
	423 :	1111111011101101;
	422 :	0000000000011101;
	421 :	0000000000101000;
	420 :	1111111111101001;
	419 :	1111111111101111;
	418 :	1111111110110100;
	417 :	1111111110110101;
	416 :	1111111101011001;
	415 :	1111111101111001;
	414 :	0000000000100000;
	413 :	0000000111000011;
	412 :	1111111011000011;
	411 :	1111111000110000;
	410 :	0000000001011011;
	409 :	0000000001111011;
	408 :	1111111101111101;
	407 :	0000000110100000;
	406 :	0000001010110110;
	405 :	1111111101011101;
	404 :	0000001010010001;
	403 :	0000001000011101;
	402 :	1111101101010101;
	401 :	1111100101101001;
	400 :	1111100010001110;
	399 :	1111011100101011;
	398 :	1111101000100101;
	397 :	1111110101000000;
	396 :	1111110111110010;
	395 :	1111111101100010;
	394 :	1111111111011001;
	393 :	1111111111110000;
	392 :	0000000001010111;
	391 :	0000000001001000;
	390 :	1111111111000111;
	389 :	1111111111110010;
	388 :	1111111101000001;
	387 :	1111110110111010;
	386 :	1111110111101001;
	385 :	1111111100000000;
	384 :	1111111001011100;
	383 :	1111111101101100;
	382 :	0000000110111010;
	381 :	0000000011101011;
	380 :	0000010011000100;
	379 :	0000001000110000;
	378 :	0000001001011111;
	377 :	0000000010001001;
	376 :	0000001001000100;
	375 :	1111111011001010;
	374 :	1111110010111011;
	373 :	1111110100011010;
	372 :	1111110001000110;
	371 :	1111100111111100;
	370 :	1111110000011011;
	369 :	1111110111110100;
	368 :	1111111011001000;
	367 :	1111111110011000;
	366 :	1111111110001010;
	365 :	0000000000000111;
	364 :	1111111111100010;
	363 :	1111111111111010;
	362 :	0000000000100011;
	361 :	1111111111001011;
	360 :	1111111011100000;
	359 :	1111110101011100;
	358 :	1111101110110100;
	357 :	1111110100010011;
	356 :	1111111010011000;
	355 :	1111111101010100;
	354 :	0000001110101100;
	353 :	0000000100101000;
	352 :	0000001010111011;
	351 :	0000001100000111;
	350 :	0000000001110101;
	349 :	0000000011010111;
	348 :	1111111100111000;
	347 :	0000000101001100;
	346 :	0000000000101001;
	345 :	1111111010101011;
	344 :	1111110011011111;
	343 :	1111111000000100;
	342 :	1111110101001011;
	341 :	1111111010011111;
	340 :	1111111110110100;
	339 :	1111111111100110;
	338 :	1111111111010111;
	337 :	0000000000000101;
	336 :	1111111111111001;
	335 :	1111111111110100;
	334 :	0000000000001000;
	333 :	0000000000010011;
	332 :	1111111100000110;
	331 :	1111110101010101;
	330 :	1111101111010010;
	329 :	1111111010100001;
	328 :	0000000010101000;
	327 :	0000000001000010;
	326 :	0000001110101000;
	325 :	0000001010101001;
	324 :	0000001010010101;
	323 :	0000001110100111;
	322 :	0000001100000101;
	321 :	1111111111101001;
	320 :	1111111010001010;
	319 :	1111111011101111;
	318 :	0000000100110111;
	317 :	0000000011000011;
	316 :	0000000111010001;
	315 :	1111111100010100;
	314 :	1111111010010100;
	313 :	1111111010110010;
	312 :	1111111110011111;
	311 :	0000000000001000;
	310 :	0000000000001000;
	309 :	0000000000010000;
	308 :	1111111111110110;
	307 :	1111111111011110;
	306 :	0000000000001011;
	305 :	0000000000000010;
	304 :	1111111100000010;
	303 :	1111111001000101;
	302 :	1111111100110010;
	301 :	1111111011001101;
	300 :	1111111010101101;
	299 :	1111110101011011;
	298 :	1111110101111110;
	297 :	0000000000101011;
	296 :	0000000011111000;
	295 :	0000001001101110;
	294 :	0000001111100100;
	293 :	1111111100010111;
	292 :	0000000110011000;
	291 :	0000000010000010;
	290 :	1111111100100100;
	289 :	0000000101001111;
	288 :	0000000110010101;
	287 :	1111111101100000;
	286 :	1111111100001010;
	285 :	1111111011001100;
	284 :	1111111100011101;
	283 :	0000000000000111;
	282 :	1111111111100010;
	281 :	0000000000000000;
	280 :	0000000000101110;
	279 :	0000000001000000;
	278 :	0000000000000010;
	277 :	0000000000000100;
	276 :	1111111111000101;
	275 :	1111111100100110;
	274 :	1111111111010000;
	273 :	1111111010010100;
	272 :	1111110010111110;
	271 :	1111101110011110;
	270 :	1111110111110101;
	269 :	0000000000001000;
	268 :	1111111111001010;
	267 :	0000000001111100;
	266 :	0000000011111100;
	265 :	1111110111000011;
	264 :	0000001000001011;
	263 :	0000001011001000;
	262 :	1111111011011010;
	261 :	1111111100101100;
	260 :	1111111110001000;
	259 :	1111111101001001;
	258 :	1111111110010000;
	257 :	1111111011000111;
	256 :	1111111010010000;
	255 :	1111111100101111;
	254 :	1111111101101001;
	253 :	1111111111111001;
	252 :	1111111111111001;
	251 :	1111111111111010;
	250 :	0000000000000001;
	249 :	0000000011111111;
	248 :	0000000010100000;
	247 :	0000000100010111;
	246 :	0000000011011000;
	245 :	0000000111010100;
	244 :	0000001000111100;
	243 :	1111111100011100;
	242 :	0000000001100011;
	241 :	1111110101001101;
	240 :	1111111101001010;
	239 :	0000000001000001;
	238 :	0000000101100100;
	237 :	1111111100010101;
	236 :	0000000011011010;
	235 :	0000000011000011;
	234 :	1111111101000001;
	233 :	1111111000011000;
	232 :	1111111011010111;
	231 :	1111111110001101;
	230 :	1111111111011011;
	229 :	1111111100000101;
	228 :	1111110110010011;
	227 :	1111111011011011;
	226 :	1111111101010000;
	225 :	1111111111111101;
	224 :	0000000001011001;
	223 :	0000000000001110;
	222 :	0000000000010101;
	221 :	0000000010101000;
	220 :	0000000011110010;
	219 :	0000000011101111;
	218 :	1111111111111011;
	217 :	1111111010101111;
	216 :	0000001100010001;
	215 :	0000000100000010;
	214 :	1111111100011010;
	213 :	0000000100011010;
	212 :	0000000010111010;
	211 :	0000001000110101;
	210 :	0000010001001111;
	209 :	1111111100101111;
	208 :	0000000000110001;
	207 :	1111110100011010;
	206 :	1111111010011110;
	205 :	1111111101111001;
	204 :	0000000000010001;
	203 :	1111111011010000;
	202 :	1111111101000100;
	201 :	1111111011001001;
	200 :	1111111010110011;
	199 :	1111111101110101;
	198 :	1111111110011100;
	197 :	1111111111110100;
	196 :	0000000000100110;
	195 :	0000000000001101;
	194 :	0000000001001110;
	193 :	0000000100110001;
	192 :	0000000100101111;
	191 :	0000000100000010;
	190 :	0000000011001001;
	189 :	1111111101100100;
	188 :	0000000010010111;
	187 :	1111111110110000;
	186 :	1111111100111001;
	185 :	0000000100010101;
	184 :	0000000100101000;
	183 :	0000000011001110;
	182 :	1111111101100100;
	181 :	0000000100101111;
	180 :	1111111110010101;
	179 :	1111111101100101;
	178 :	1111111101010110;
	177 :	0000001010010011;
	176 :	0000000101001110;
	175 :	1111111001110111;
	174 :	1111111111000001;
	173 :	0000000000110100;
	172 :	0000000000011001;
	171 :	0000000000000001;
	170 :	1111111111110100;
	169 :	0000000000001111;
	168 :	1111111111110001;
	167 :	1111111111110011;
	166 :	1111111111100101;
	165 :	0000000110001000;
	164 :	0000001100101010;
	163 :	0000000100101010;
	162 :	0000000001001101;
	161 :	1111111101100011;
	160 :	1111111001010100;
	159 :	1111111111110011;
	158 :	0000000110100001;
	157 :	0000000001110011;
	156 :	0000001001011101;
	155 :	0000000110011100;
	154 :	1111111111110111;
	153 :	0000001010001101;
	152 :	0000000101000011;
	151 :	0000001000101011;
	150 :	0000000010001010;
	149 :	0000000010001000;
	148 :	0000000010100011;
	147 :	0000000101011100;
	146 :	0000000010010111;
	145 :	0000000011111000;
	144 :	0000000000100001;
	143 :	1111111111000010;
	142 :	0000000000000010;
	141 :	1111111111111010;
	140 :	1111111110110111;
	139 :	1111111111001001;
	138 :	1111111111011010;
	137 :	0000000010010111;
	136 :	0000001011100001;
	135 :	0000000001000100;
	134 :	1111111110110110;
	133 :	0000000110000110;
	132 :	0000000001001101;
	131 :	0000000011011011;
	130 :	0000000111101001;
	129 :	0000000000001001;
	128 :	0000000101100010;
	127 :	0000000100011110;
	126 :	0000000010011000;
	125 :	0000001010101101;
	124 :	0000000110101011;
	123 :	1111111011000100;
	122 :	0000000011111100;
	121 :	0000000011010001;
	120 :	0000000100111100;
	119 :	0000000011010000;
	118 :	0000000000110010;
	117 :	0000000011111110;
	116 :	1111111111111110;
	115 :	0000000000001010;
	114 :	1111111111001001;
	113 :	0000000000011011;
	112 :	1111111111110011;
	111 :	0000000000011100;
	110 :	1111111111000011;
	109 :	0000000000011100;
	108 :	0000000010111010;
	107 :	1111111111101100;
	106 :	1111111101111001;
	105 :	0000000100000001;
	104 :	0000001110100011;
	103 :	0000000011101011;
	102 :	0000000100000111;
	101 :	0000000010000101;
	100 :	0000001010000111;
	99 :	0000001111010111;
	98 :	0000001100111011;
	97 :	0000000100110110;
	96 :	1111111110000100;
	95 :	1111111100111000;
	94 :	0000000000110101;
	93 :	0000000101011000;
	92 :	0000000100000101;
	91 :	0000000000111111;
	90 :	0000000001010111;
	89 :	0000000000011001;
	88 :	0000000000000000;
	87 :	1111111111100110;
	86 :	1111111111101000;
	85 :	1111111111101101;
	84 :	1111111111011110;
	83 :	0000000000011000;
	82 :	0000000001001111;
	81 :	1111111111100111;
	80 :	0000000000101010;
	79 :	0000000000111101;
	78 :	1111111110011101;
	77 :	1111111100110101;
	76 :	1111111100011111;
	75 :	1111111101101001;
	74 :	1111111110110011;
	73 :	1111111111001110;
	72 :	0000000011101001;
	71 :	0000001000001100;
	70 :	1111111111110001;
	69 :	0000000010001100;
	68 :	1111111101000111;
	67 :	1111111011110111;
	66 :	1111111011100010;
	65 :	1111111110001110;
	64 :	0000000000000110;
	63 :	0000000000011011;
	62 :	0000000000101010;
	61 :	1111111111100000;
	60 :	0000000000011010;
	59 :	1111111111111100;
	58 :	0000000000011101;
	57 :	1111111111101011;
	56 :	0000000000000001;
	55 :	0000000000000011;
	54 :	0000000000001001;
	53 :	1111111111010111;
	52 :	1111111111100001;
	51 :	0000000000011000;
	50 :	0000000000000011;
	49 :	1111111111111110;
	48 :	1111111111100111;
	47 :	1111111111101010;
	46 :	0000000000011001;
	45 :	1111111111111110;
	44 :	0000000000011000;
	43 :	0000000011010111;
	42 :	0000000001000100;
	41 :	1111111111100001;
	40 :	1111111111111101;
	39 :	0000000000100010;
	38 :	0000000000011101;
	37 :	0000000000011001;
	36 :	0000000000001100;
	35 :	1111111111001000;
	34 :	1111111111001101;
	33 :	0000000000011111;
	32 :	0000000000011000;
	31 :	0000000000011000;
	30 :	1111111111110100;
	29 :	1111111111011011;
	28 :	1111111111100100;
	27 :	0000000000101111;
	26 :	0000000000110011;
	25 :	1111111111110111;
	24 :	0000000000011001;
	23 :	0000000000010110;
	22 :	0000000000001011;
	21 :	1111111111101000;
	20 :	1111111111101101;
	19 :	1111111111100000;
	18 :	0000000001000001;
	17 :	0000000000010001;
	16 :	1111111111011111;
	15 :	1111111111101010;
	14 :	0000000000010100;
	13 :	1111111111101010;
	12 :	1111111111011000;
	11 :	0000000000000000;
	10 :	0000000000010011;
	9 :	1111111111101000;
	8 :	1111111111010011;
	7 :	0000000000001110;
	6 :	0000000000001010;
	5 :	1111111111011000;
	4 :	1111111111100010;
	3 :	1111111111011000;
	2 :	0000000000001111;
	1 :	0000000000101101;
	0 :	1111111111110100;
END;
