-- begin_signature
-- Weight_Memory(numWeight
-- 784
-- neuronNo
-- 15
-- layerNo
-- 1
-- addressWidth
-- 10
-- dataWidth
-- 16
-- weightFile
-- "w_1_15.mif")
-- end_signature
WIDTH=16;
DEPTH=784;

ADDRESS_RADIX=UNS;
DATA_RADIX=BIN;

CONTENT BEGIN
	783 :	1111111111111111;
	782 :	0000000000001101;
	781 :	0000000000110110;
	780 :	1111111111100100;
	779 :	0000000000010001;
	778 :	0000000000001101;
	777 :	1111111111110010;
	776 :	1111111110001100;
	775 :	1111111111011001;
	774 :	1111111100110001;
	773 :	1111111101101111;
	772 :	1111111110000010;
	771 :	1111111011011001;
	770 :	1111111101011101;
	769 :	1111111111100001;
	768 :	1111111101010011;
	767 :	0000000000001111;
	766 :	0000000011101011;
	765 :	0000000000101010;
	764 :	0000000001000100;
	763 :	0000000010001010;
	762 :	0000000000010011;
	761 :	0000000000100111;
	760 :	1111111110100000;
	759 :	1111111111110110;
	758 :	0000000000101110;
	757 :	0000000000100110;
	756 :	1111111111100100;
	755 :	0000000000000100;
	754 :	1111111111101100;
	753 :	0000000000011100;
	752 :	0000000000011100;
	751 :	1111111111011110;
	750 :	0000000000111010;
	749 :	0000000010000001;
	748 :	0000000000001101;
	747 :	0000000100010000;
	746 :	0000000000000001;
	745 :	0000000000011010;
	744 :	0000000000001010;
	743 :	1111111101000011;
	742 :	1111110111011111;
	741 :	1111111100110110;
	740 :	1111111100100110;
	739 :	1111111001001111;
	738 :	1111111001110010;
	737 :	1111111000001111;
	736 :	1111111001110010;
	735 :	1111111010010100;
	734 :	1111111100111000;
	733 :	1111111110001111;
	732 :	1111111110100101;
	731 :	1111111111011100;
	730 :	0000000000111001;
	729 :	0000000000001101;
	728 :	1111111111001111;
	727 :	1111111111100111;
	726 :	0000000000001010;
	725 :	1111111111010011;
	724 :	0000000001110010;
	723 :	1111111110110011;
	722 :	0000000000101100;
	721 :	0000000001011011;
	720 :	0000000011010011;
	719 :	0000001000001100;
	718 :	1111111111100001;
	717 :	0000000001010001;
	716 :	0000001011011001;
	715 :	0000000011000111;
	714 :	0000001100011000;
	713 :	0000001001110011;
	712 :	0000000100011101;
	711 :	0000000101000110;
	710 :	1111111111111100;
	709 :	0000000000000110;
	708 :	0000000000010110;
	707 :	0000000001010010;
	706 :	1111111110100001;
	705 :	1111111111000010;
	704 :	0000000000000101;
	703 :	1111111111110000;
	702 :	1111111111000101;
	701 :	0000000000011111;
	700 :	0000000001000111;
	699 :	1111111111101101;
	698 :	1111111111110110;
	697 :	0000000000101011;
	696 :	0000000011010001;
	695 :	1111111111101000;
	694 :	0000000000011100;
	693 :	0000000010111001;
	692 :	1111111110101000;
	691 :	1111111101010000;
	690 :	1111111110001000;
	689 :	0000001000000011;
	688 :	0000000010100100;
	687 :	1111111110101001;
	686 :	1111111100000011;
	685 :	1111111101110000;
	684 :	1111111100011010;
	683 :	1111111101110110;
	682 :	0000000111011000;
	681 :	0000000001011101;
	680 :	0000000110000011;
	679 :	0000000010101000;
	678 :	0000000000100000;
	677 :	1111111111100101;
	676 :	1111111111011010;
	675 :	0000000000110101;
	674 :	1111111111111111;
	673 :	0000000000011110;
	672 :	1111111111011011;
	671 :	0000000000001011;
	670 :	0000000000101000;
	669 :	1111111111000010;
	668 :	0000000001011111;
	667 :	1111111111001101;
	666 :	1111111011010100;
	665 :	1111111011000001;
	664 :	1111111111110100;
	663 :	0000000010110010;
	662 :	1111111111001111;
	661 :	0000000010011001;
	660 :	0000000101100111;
	659 :	0000000000010110;
	658 :	0000000010100011;
	657 :	0000000000100001;
	656 :	1111111110110001;
	655 :	1111111100111111;
	654 :	1111111101001101;
	653 :	0000001000101110;
	652 :	0000000001100110;
	651 :	0000000000101100;
	650 :	0000000100101100;
	649 :	1111111111011010;
	648 :	1111111100111111;
	647 :	0000000000010110;
	646 :	1111111111100100;
	645 :	1111111111110000;
	644 :	0000000000101001;
	643 :	1111111111111101;
	642 :	1111111111110010;
	641 :	1111111111101010;
	640 :	0000000000101011;
	639 :	1111111111010110;
	638 :	1111111100010010;
	637 :	0000000000010010;
	636 :	1111111101001000;
	635 :	1111111111011011;
	634 :	0000001100110010;
	633 :	0000000110010011;
	632 :	0000000100000100;
	631 :	0000001001001110;
	630 :	0000000100111010;
	629 :	0000000101111010;
	628 :	0000000011101111;
	627 :	1111111001100101;
	626 :	1111111100001011;
	625 :	0000000100110111;
	624 :	1111111010011100;
	623 :	1111111011001010;
	622 :	0000000000010001;
	621 :	1111111101100000;
	620 :	1111111010111000;
	619 :	1111111111100001;
	618 :	0000000000000100;
	617 :	0000000000111011;
	616 :	0000000000001000;
	615 :	1111111111011110;
	614 :	0000000000001111;
	613 :	0000000000101000;
	612 :	1111111110100100;
	611 :	1111111111010101;
	610 :	1111111100110001;
	609 :	1111111101111111;
	608 :	0000000000010110;
	607 :	0000000010100001;
	606 :	0000000110101000;
	605 :	1111111111010010;
	604 :	1111111001000100;
	603 :	1111111101011001;
	602 :	1111111001001010;
	601 :	1111111101110001;
	600 :	0000000000010001;
	599 :	0000001010001001;
	598 :	0000000010000100;
	597 :	0000001000110010;
	596 :	0000000011000110;
	595 :	1111110111000011;
	594 :	1111111011111000;
	593 :	0000000000101101;
	592 :	1111111011011110;
	591 :	1111111110100101;
	590 :	0000000000101000;
	589 :	0000000000000011;
	588 :	1111111111101101;
	587 :	1111111111111011;
	586 :	1111111110101101;
	585 :	1111111100110111;
	584 :	1111111100100001;
	583 :	1111111010110111;
	582 :	0000000011110011;
	581 :	1111111100111010;
	580 :	1111111101011101;
	579 :	0000000011101000;
	578 :	0000000010110100;
	577 :	1111111100011001;
	576 :	1111111010100100;
	575 :	1111110101111000;
	574 :	1111111011001111;
	573 :	1111111000111110;
	572 :	0000001010011111;
	571 :	0000000000000010;
	570 :	1111110010000010;
	569 :	1111111100001100;
	568 :	1111111111000101;
	567 :	1111111101100101;
	566 :	1111111100110100;
	565 :	1111111101001001;
	564 :	1111111111111010;
	563 :	0000000000010000;
	562 :	0000000000000111;
	561 :	0000000000100010;
	560 :	0000000000011110;
	559 :	1111111111010101;
	558 :	1111111101000100;
	557 :	1111111100000011;
	556 :	1111111001000011;
	555 :	1111111001110010;
	554 :	0000000010001011;
	553 :	1111111111110101;
	552 :	1111111010110101;
	551 :	0000000000000110;
	550 :	1111111111101011;
	549 :	0000000101010100;
	548 :	1111111001110001;
	547 :	1111111111010001;
	546 :	1111111100001101;
	545 :	0000000000010000;
	544 :	1111111100011111;
	543 :	1111110101111000;
	542 :	1111110010100000;
	541 :	1111110010000000;
	540 :	1111111100111101;
	539 :	0000000011001010;
	538 :	1111111011000101;
	537 :	1111111001111010;
	536 :	0000000001111010;
	535 :	1111111111101000;
	534 :	0000000001010100;
	533 :	0000000000000100;
	532 :	0000000000010001;
	531 :	1111111111111000;
	530 :	1111111111110001;
	529 :	1111111111001000;
	528 :	1111111000011000;
	527 :	1111111100100110;
	526 :	0000000101111101;
	525 :	0000000011001101;
	524 :	1111111011101010;
	523 :	1111111010111000;
	522 :	1111111101001100;
	521 :	1111111111101001;
	520 :	1111111010000011;
	519 :	1111111100100000;
	518 :	0000000001010110;
	517 :	1111111011111111;
	516 :	1111111000110111;
	515 :	1111111010000001;
	514 :	1111101111101000;
	513 :	1111110011101010;
	512 :	1111111110001110;
	511 :	1111111111011101;
	510 :	0000000000101000;
	509 :	1111110010110111;
	508 :	1111111101110100;
	507 :	1111111100111111;
	506 :	0000000000101010;
	505 :	1111111111100110;
	504 :	0000000000010010;
	503 :	1111111111001010;
	502 :	1111111111010111;
	501 :	1111111110010101;
	500 :	1111111001100110;
	499 :	1111111111100111;
	498 :	1111111101100101;
	497 :	1111111011011100;
	496 :	1111111101101110;
	495 :	1111111110001010;
	494 :	0000000100101011;
	493 :	0000000111111011;
	492 :	1111111010110110;
	491 :	0000000111100000;
	490 :	1111111111001101;
	489 :	1111110111111011;
	488 :	1111110101001111;
	487 :	1111110001011000;
	486 :	1111111010001100;
	485 :	1111110110000010;
	484 :	1111110110101111;
	483 :	1111110101100110;
	482 :	0000000001111000;
	481 :	0000000100000000;
	480 :	0000000000110001;
	479 :	1111111101111000;
	478 :	1111111111111010;
	477 :	0000000000011010;
	476 :	1111111111110111;
	475 :	1111111111111111;
	474 :	1111111111101001;
	473 :	1111111011100110;
	472 :	1111111000000001;
	471 :	0000000001000000;
	470 :	1111111100010111;
	469 :	1111111111111110;
	468 :	1111111001101010;
	467 :	0000000111100011;
	466 :	0000000010001110;
	465 :	1111111111110100;
	464 :	1111110110110000;
	463 :	1111111000100001;
	462 :	1111110100111010;
	461 :	1111110101001001;
	460 :	1111110110010110;
	459 :	1111101110010111;
	458 :	1111111000111111;
	457 :	0000000000011010;
	456 :	1111111100000000;
	455 :	1111111100011001;
	454 :	1111111011011100;
	453 :	0000000000001010;
	452 :	0000000100011100;
	451 :	0000000000101000;
	450 :	0000000000100111;
	449 :	0000000000001111;
	448 :	0000000000010011;
	447 :	0000000000011010;
	446 :	1111111111101101;
	445 :	1111111011111110;
	444 :	0000000000011011;
	443 :	0000000001111001;
	442 :	1111111100110000;
	441 :	0000000011000101;
	440 :	1111111010001011;
	439 :	1111111011000001;
	438 :	1111111110100010;
	437 :	1111111010111110;
	436 :	1111101010101011;
	435 :	1111111100101000;
	434 :	1111110100001010;
	433 :	1111101000010111;
	432 :	1111110101001010;
	431 :	1111111100011111;
	430 :	0000000011100100;
	429 :	0000000001111101;
	428 :	0000000101010100;
	427 :	0000001011100000;
	426 :	0000000100110100;
	425 :	0000000100111100;
	424 :	1111111110110100;
	423 :	0000000001010110;
	422 :	0000000001010011;
	421 :	1111111110100101;
	420 :	1111111111110001;
	419 :	1111111111101010;
	418 :	0000000000001101;
	417 :	1111111100111010;
	416 :	1111111100100101;
	415 :	1111111010010101;
	414 :	1111111100101000;
	413 :	1111111000001010;
	412 :	1111111011001101;
	411 :	1111101101100001;
	410 :	1111110011001010;
	409 :	1111110010011100;
	408 :	1111110100110010;
	407 :	1111110110101010;
	406 :	1111110110101000;
	405 :	1111110011010001;
	404 :	1111111111001101;
	403 :	0000000010001110;
	402 :	0000000111000100;
	401 :	0000000111000101;
	400 :	0000001000111101;
	399 :	1111111110001011;
	398 :	0000000111110101;
	397 :	0000001010100111;
	396 :	1111110110010101;
	395 :	0000000001110101;
	394 :	0000000100001110;
	393 :	0000000000100101;
	392 :	0000000000001001;
	391 :	1111111111110000;
	390 :	0000000000000110;
	389 :	0000000001100100;
	388 :	1111111001001010;
	387 :	1111110000110111;
	386 :	1111111011111010;
	385 :	1111111111100000;
	384 :	0000000010110010;
	383 :	1111110110111001;
	382 :	1111110001011001;
	381 :	1111101111001100;
	380 :	1111111000111111;
	379 :	1111101010010000;
	378 :	1111110000000110;
	377 :	1111110011010100;
	376 :	0000000011110001;
	375 :	0000001101010010;
	374 :	0000000110111100;
	373 :	1111111100101100;
	372 :	1111111111111100;
	371 :	0000000011010000;
	370 :	0000000011000001;
	369 :	0000000100000101;
	368 :	1111111010110100;
	367 :	1111111110001011;
	366 :	0000000011011011;
	365 :	0000000001001110;
	364 :	0000000000100111;
	363 :	1111111111111000;
	362 :	0000000001110110;
	361 :	0000000011100001;
	360 :	1111111010000001;
	359 :	1111110100000010;
	358 :	1111111000111001;
	357 :	1111110010110101;
	356 :	1111110111111100;
	355 :	1111111001100000;
	354 :	1111111100001010;
	353 :	1111111111010000;
	352 :	1111110111100010;
	351 :	1111111100000111;
	350 :	1111110010110011;
	349 :	1111111111110100;
	348 :	0000001000001100;
	347 :	0000001011111110;
	346 :	0000000111001001;
	345 :	0000000111010101;
	344 :	0000000101100000;
	343 :	0000000100100100;
	342 :	1111111100001100;
	341 :	0000000001010001;
	340 :	0000000101010110;
	339 :	0000000011010010;
	338 :	0000000011100001;
	337 :	0000000001100000;
	336 :	0000000000011010;
	335 :	1111111111111011;
	334 :	0000000010000010;
	333 :	0000000110101110;
	332 :	0000000011000110;
	331 :	0000000011101010;
	330 :	1111111111001111;
	329 :	0000000010010110;
	328 :	0000000000101111;
	327 :	0000001000010110;
	326 :	0000001011001010;
	325 :	0000001001001111;
	324 :	1111111011111111;
	323 :	1111111000110000;
	322 :	1111110111100001;
	321 :	0000001010111001;
	320 :	0000000101011100;
	319 :	0000001100100111;
	318 :	0000000010000001;
	317 :	0000000100000010;
	316 :	1111111010011010;
	315 :	1111111000110001;
	314 :	1111111110010110;
	313 :	1111111111101111;
	312 :	0000001000111100;
	311 :	0000000110010001;
	310 :	0000000110000100;
	309 :	1111111111101011;
	308 :	0000000000000011;
	307 :	1111111111111010;
	306 :	0000000001010010;
	305 :	0000001010100011;
	304 :	0000001110100001;
	303 :	0000001101001011;
	302 :	0000000111101000;
	301 :	0000001010111000;
	300 :	0000010010011011;
	299 :	0000010001100000;
	298 :	0000010100110011;
	297 :	0000010000111000;
	296 :	0000000101111100;
	295 :	0000000000100101;
	294 :	0000000010010110;
	293 :	0000010100100010;
	292 :	0000000011001110;
	291 :	0000001001110110;
	290 :	0000010000110011;
	289 :	0000000011100100;
	288 :	0000000010100100;
	287 :	1111111111001001;
	286 :	0000000001111000;
	285 :	1111111111010100;
	284 :	0000000010000101;
	283 :	0000001000001100;
	282 :	0000000010011001;
	281 :	0000000001011010;
	280 :	1111111111101100;
	279 :	1111111111111110;
	278 :	1111111101010011;
	277 :	0000001010000001;
	276 :	0000010000110011;
	275 :	0000001001110111;
	274 :	0000001010001000;
	273 :	0000001101110110;
	272 :	0000000010001010;
	271 :	0000000001110100;
	270 :	0000001011101010;
	269 :	0000001000111110;
	268 :	0000001010010101;
	267 :	0000000110111100;
	266 :	0000000110100110;
	265 :	0000000100001110;
	264 :	0000000101110110;
	263 :	0000001001011111;
	262 :	0000000001100100;
	261 :	1111111101001010;
	260 :	1111111100110111;
	259 :	0000000000000000;
	258 :	0000000010110000;
	257 :	1111111111010101;
	256 :	0000000001000101;
	255 :	0000000110011100;
	254 :	0000000000100001;
	253 :	0000000001101101;
	252 :	1111111111110110;
	251 :	1111111111101111;
	250 :	1111111110110100;
	249 :	0000000001000110;
	248 :	0000001010100101;
	247 :	0000001010001111;
	246 :	1111111101110000;
	245 :	0000000010111101;
	244 :	0000000101101100;
	243 :	0000000001000000;
	242 :	0000000000111111;
	241 :	1111111111101000;
	240 :	1111111000101110;
	239 :	1111111011011111;
	238 :	1111111000010010;
	237 :	1111111000101001;
	236 :	1111111010101000;
	235 :	1111111011110111;
	234 :	1111111101100110;
	233 :	1111111011011011;
	232 :	1111111111101001;
	231 :	0000000000011101;
	230 :	1111111111100111;
	229 :	1111111100000010;
	228 :	0000000010010110;
	227 :	0000000010100111;
	226 :	0000000000100101;
	225 :	0000000001001101;
	224 :	1111111111000001;
	223 :	0000000000000000;
	222 :	1111111111110001;
	221 :	1111111001100000;
	220 :	1111111111001000;
	219 :	0000001001011011;
	218 :	0000000011101001;
	217 :	1111111011011100;
	216 :	1111111010001110;
	215 :	1111111101001111;
	214 :	1111111111111111;
	213 :	1111110111011000;
	212 :	1111110111010001;
	211 :	1111110111001010;
	210 :	1111111011101100;
	209 :	1111111010001000;
	208 :	0000000001101010;
	207 :	0000000000100011;
	206 :	0000000011110011;
	205 :	1111110111101101;
	204 :	1111111111111011;
	203 :	0000000110000010;
	202 :	0000000001101010;
	201 :	1111111010100111;
	200 :	1111111111110111;
	199 :	0000000000100000;
	198 :	0000000000100000;
	197 :	0000000000000000;
	196 :	0000000000100011;
	195 :	1111111111111100;
	194 :	1111111111011100;
	193 :	1111111011010000;
	192 :	1111111101010100;
	191 :	1111111110110000;
	190 :	0000000000111010;
	189 :	1111111101101110;
	188 :	1111110100001101;
	187 :	1111111100110011;
	186 :	1111110111110111;
	185 :	1111110100101010;
	184 :	1111110000101101;
	183 :	1111111001011000;
	182 :	0000000011000100;
	181 :	1111111011101010;
	180 :	0000000000100001;
	179 :	1111111101110011;
	178 :	1111110100111110;
	177 :	1111111000000111;
	176 :	1111111101001110;
	175 :	1111111100101110;
	174 :	1111111101110101;
	173 :	0000000000101101;
	172 :	1111111110100110;
	171 :	1111111111101101;
	170 :	0000000000010000;
	169 :	0000000000010101;
	168 :	1111111111100100;
	167 :	1111111111101111;
	166 :	1111111111101000;
	165 :	1111111110110100;
	164 :	1111111110000000;
	163 :	1111111101110000;
	162 :	1111111111110001;
	161 :	1111111011011000;
	160 :	1111110110011000;
	159 :	1111110100110011;
	158 :	1111110010011000;
	157 :	1111111100010100;
	156 :	1111111100010101;
	155 :	1111110111001011;
	154 :	1111110110101100;
	153 :	1111110011000111;
	152 :	1111110110110011;
	151 :	1111110110100111;
	150 :	1111110110110001;
	149 :	1111111010000011;
	148 :	1111111101011001;
	147 :	1111111110110011;
	146 :	1111111111000100;
	145 :	1111111111010000;
	144 :	1111111111011001;
	143 :	0000000000010101;
	142 :	0000000000011100;
	141 :	1111111111101110;
	140 :	0000000000001011;
	139 :	0000000000010100;
	138 :	1111111110011000;
	137 :	1111111111111000;
	136 :	1111111111110111;
	135 :	0000000000101011;
	134 :	0000000000110011;
	133 :	1111111110101010;
	132 :	1111111001101101;
	131 :	1111111010011100;
	130 :	1111111111101001;
	129 :	0000000000000010;
	128 :	1111111100011010;
	127 :	1111111111010010;
	126 :	1111111100101000;
	125 :	1111110111011111;
	124 :	1111111010000110;
	123 :	1111111010011100;
	122 :	1111110111001011;
	121 :	1111111000111000;
	120 :	1111111101101110;
	119 :	1111111110000111;
	118 :	1111111110001111;
	117 :	1111111110111000;
	116 :	0000000000001111;
	115 :	0000000000110100;
	114 :	0000000000001100;
	113 :	1111111111100110;
	112 :	0000000000000111;
	111 :	0000000000011010;
	110 :	1111111111110000;
	109 :	1111111111110111;
	108 :	1111111111111111;
	107 :	0000000000100101;
	106 :	1111111111101000;
	105 :	1111111110101011;
	104 :	1111111111111100;
	103 :	1111111110100000;
	102 :	1111111100010100;
	101 :	1111111011010101;
	100 :	1111111110100000;
	99 :	1111111110011110;
	98 :	1111111101010101;
	97 :	1111111010111111;
	96 :	1111111101010111;
	95 :	1111111011000001;
	94 :	1111111100101001;
	93 :	1111111101111000;
	92 :	1111111110001101;
	91 :	1111111111000011;
	90 :	0000000000001101;
	89 :	1111111111110111;
	88 :	1111111111011100;
	87 :	1111111111111110;
	86 :	1111111111111000;
	85 :	0000000000100010;
	84 :	0000000000010010;
	83 :	0000000000000110;
	82 :	0000000000000101;
	81 :	0000000000100011;
	80 :	1111111111101011;
	79 :	0000000000101101;
	78 :	0000000000000010;
	77 :	0000000000110111;
	76 :	0000000000110010;
	75 :	1111111111101011;
	74 :	0000000000001001;
	73 :	0000000000001110;
	72 :	0000000001100110;
	71 :	0000000001011100;
	70 :	1111111111100111;
	69 :	1111111111110100;
	68 :	1111111110001101;
	67 :	1111111101101011;
	66 :	1111111110010000;
	65 :	1111111101100100;
	64 :	1111111111011011;
	63 :	0000000000001001;
	62 :	1111111111100110;
	61 :	1111111111110100;
	60 :	1111111111101001;
	59 :	0000000001000011;
	58 :	1111111111110110;
	57 :	0000000000011100;
	56 :	0000000000100100;
	55 :	0000000000101010;
	54 :	0000000000011001;
	53 :	1111111110110001;
	52 :	1111111111101110;
	51 :	1111111111110011;
	50 :	1111111111110110;
	49 :	1111111111010010;
	48 :	1111111111101111;
	47 :	1111111111101101;
	46 :	1111111111110111;
	45 :	1111111111110101;
	44 :	1111111111101110;
	43 :	0000000000100000;
	42 :	1111111111111101;
	41 :	0000000000010000;
	40 :	1111111111001001;
	39 :	1111111111111101;
	38 :	0000000000100110;
	37 :	0000000000111100;
	36 :	1111111111101000;
	35 :	1111111111011011;
	34 :	1111111111011100;
	33 :	0000000000101111;
	32 :	0000000000001010;
	31 :	0000000000001110;
	30 :	0000000000000000;
	29 :	0000000000000100;
	28 :	0000000000111100;
	27 :	0000000000111001;
	26 :	0000000000000000;
	25 :	1111111111010000;
	24 :	0000000000001001;
	23 :	0000000001000101;
	22 :	0000000000100000;
	21 :	1111111111111100;
	20 :	0000000000010100;
	19 :	1111111111111001;
	18 :	1111111111101111;
	17 :	1111111111001111;
	16 :	0000000000011101;
	15 :	1111111111011110;
	14 :	0000000000000000;
	13 :	0000000000010101;
	12 :	0000000000000001;
	11 :	0000000000010000;
	10 :	1111111111111010;
	9 :	0000000000000111;
	8 :	0000000000011111;
	7 :	1111111111111011;
	6 :	0000000000101010;
	5 :	1111111111101100;
	4 :	0000000000000101;
	3 :	0000000000110011;
	2 :	1111111111110110;
	1 :	1111111111011010;
	0 :	1111111111011100;
END;
