-- begin_signature
-- Weight_Memory(numWeight
-- 30
-- neuronNo
-- 26
-- layerNo
-- 2
-- addressWidth
-- 5
-- dataWidth
-- 16
-- weightFile
-- "w_2_26.mif")
-- end_signature
WIDTH=16;
DEPTH=30;

ADDRESS_RADIX=UNS;
DATA_RADIX=BIN;

CONTENT BEGIN
	29 :	1111111011010110;
	28 :	1111111110011111;
	27 :	0000000011110011;
	26 :	1111111010101011;
	25 :	1111111011100010;
	24 :	1111111101001100;
	23 :	1111111001111111;
	22 :	0000001100101111;
	21 :	1111111110001011;
	20 :	1111111111111011;
	19 :	1111111110010010;
	18 :	1111111101110010;
	17 :	1111111010101101;
	16 :	1111111110100110;
	15 :	0000000100111111;
	14 :	1111111011100111;
	13 :	0000000001101111;
	12 :	0000000110010000;
	11 :	1111110111110111;
	10 :	1111111011011111;
	9 :	1111111111010101;
	8 :	1111111100001001;
	7 :	0000000010011001;
	6 :	0000010010001010;
	5 :	0000000000111111;
	4 :	1111111100111011;
	3 :	1111111111010000;
	2 :	1111111110011101;
	1 :	0000000011001100;
	0 :	0000000000100111;
END;
