-- begin_signature
-- Weight_Memory(numWeight
-- 30
-- neuronNo
-- 27
-- layerNo
-- 2
-- addressWidth
-- 5
-- dataWidth
-- 16
-- weightFile
-- "w_2_27.hex")
-- end_signature
WIDTH=16;
DEPTH=30;

ADDRESS_RADIX=UNS;
DATA_RADIX=BIN;

CONTENT BEGIN
	29 :	0000000000001000;
	28 :	0000000011100101;
	27 :	0000000000101011;
	26 :	1111101000100010;
	25 :	0000000110111001;
	24 :	1111101111101101;
	23 :	0000001000011010;
	22 :	0000000001000001;
	21 :	0000000010000110;
	20 :	0000001011100011;
	19 :	0000000011000000;
	18 :	1111110110000001;
	17 :	0000011011001100;
	16 :	0000010101111001;
	15 :	0000000101110111;
	14 :	1111110110011100;
	13 :	1111111110011000;
	12 :	1111111110011010;
	11 :	0000011011000111;
	10 :	0000000011111001;
	9 :	0000000111001100;
	8 :	0000010011011111;
	7 :	0000000101000011;
	6 :	1111111001100011;
	5 :	1111101001101011;
	4 :	1111111101111000;
	3 :	0000000010001111;
	2 :	1111111101011010;
	1 :	1111111101001011;
	0 :	1111111101100100;
END;
