-- begin_signature
-- Weight_Memory(numWeight
-- 784
-- neuronNo
-- 0
-- layerNo
-- 1
-- addressWidth
-- 10
-- dataWidth
-- 16
-- weightFile
-- "w_1_0.hex")
-- end_signature
WIDTH=16;
DEPTH=784;

ADDRESS_RADIX=UNS;
DATA_RADIX=BIN;

CONTENT BEGIN
	783 :	0000000000000000;
	782 :	1111111111110010;
	781 :	1111111111101101;
	780 :	1111111111100111;
	779 :	1111111111100000;
	778 :	1111111111100101;
	777 :	0000000001000100;
	776 :	1111111111110011;
	775 :	0000000000000101;
	774 :	0000000000000001;
	773 :	1111111111111011;
	772 :	0000000000111010;
	771 :	1111111111101001;
	770 :	0000000000000000;
	769 :	1111111111100001;
	768 :	0000000000101100;
	767 :	1111111111111001;
	766 :	0000000000011111;
	765 :	1111111111100101;
	764 :	0000000000010110;
	763 :	1111111111101110;
	762 :	0000000000001101;
	761 :	0000000000010110;
	760 :	0000000000010111;
	759 :	0000000000010001;
	758 :	0000000000100001;
	757 :	1111111111011000;
	756 :	1111111111101011;
	755 :	1111111111111010;
	754 :	1111111111011001;
	753 :	1111111111111011;
	752 :	0000000000010100;
	751 :	1111111111101111;
	750 :	0000000000111010;
	749 :	1111111111000100;
	748 :	1111111111101010;
	747 :	0000000000100010;
	746 :	1111111111000101;
	745 :	1111111111111110;
	744 :	1111111111100100;
	743 :	0000000000101100;
	742 :	1111111111110111;
	741 :	1111111111101110;
	740 :	1111111111110100;
	739 :	0000000000011001;
	738 :	1111111111111111;
	737 :	1111111111100101;
	736 :	0000000000011000;
	735 :	1111111111010101;
	734 :	1111111111011110;
	733 :	0000000000010000;
	732 :	0000000000000010;
	731 :	0000000000011111;
	730 :	1111111111110101;
	729 :	0000000000010101;
	728 :	1111111111100100;
	727 :	0000000000010111;
	726 :	0000000000011010;
	725 :	0000000000010011;
	724 :	0000000000000010;
	723 :	0000000000110010;
	722 :	0000000000110111;
	721 :	0000000000000010;
	720 :	0000000000011011;
	719 :	1111111110101110;
	718 :	1111111111110010;
	717 :	0000000000000000;
	716 :	1111111111010110;
	715 :	1111111111101101;
	714 :	1111111111100001;
	713 :	1111111111101010;
	712 :	1111111111010100;
	711 :	0000000000010111;
	710 :	1111111111011101;
	709 :	0000000000001100;
	708 :	1111111111011110;
	707 :	0000000000010101;
	706 :	1111111111100000;
	705 :	0000000000010110;
	704 :	0000000000010110;
	703 :	0000000000001011;
	702 :	1111111111111000;
	701 :	0000000000010010;
	700 :	1111111111110110;
	699 :	1111111111110111;
	698 :	0000000000000110;
	697 :	1111111111100000;
	696 :	1111111111111100;
	695 :	1111111111011011;
	694 :	1111111111011111;
	693 :	0000000000001011;
	692 :	0000000000110101;
	691 :	1111111111010011;
	690 :	1111111111011110;
	689 :	1111111110111011;
	688 :	1111111111100000;
	687 :	0000000000010110;
	686 :	1111111111101101;
	685 :	1111111111010111;
	684 :	0000000000100101;
	683 :	1111111110010100;
	682 :	0000000000011000;
	681 :	1111111111100111;
	680 :	1111111111111101;
	679 :	0000000000000110;
	678 :	0000000000000001;
	677 :	0000000001001010;
	676 :	1111111111111101;
	675 :	0000000000000010;
	674 :	1111111111010101;
	673 :	0000000000000001;
	672 :	1111111111101000;
	671 :	0000000000000010;
	670 :	0000000000011111;
	669 :	1111111111110111;
	668 :	0000000000010110;
	667 :	1111111111111100;
	666 :	0000000000001010;
	665 :	1111111111101000;
	664 :	1111111111110011;
	663 :	1111111111001010;
	662 :	1111111111111111;
	661 :	1111111111011010;
	660 :	1111111111110111;
	659 :	0000000000000000;
	658 :	0000000000001001;
	657 :	0000000000000101;
	656 :	1111111111110100;
	655 :	1111111111011000;
	654 :	1111111111111100;
	653 :	0000000001000011;
	652 :	0000000000110011;
	651 :	1111111111110001;
	650 :	0000000000011101;
	649 :	1111111111100111;
	648 :	0000000000001100;
	647 :	0000000000010011;
	646 :	0000000000011001;
	645 :	0000000000101100;
	644 :	1111111111000111;
	643 :	0000000000110111;
	642 :	0000000000111011;
	641 :	1111111111110010;
	640 :	1111111111110100;
	639 :	0000000000000110;
	638 :	1111111111101101;
	637 :	1111111111011100;
	636 :	0000000000011011;
	635 :	1111111111100011;
	634 :	1111111111111100;
	633 :	0000000000001001;
	632 :	1111111111100111;
	631 :	1111111111101001;
	630 :	1111111111111110;
	629 :	0000000000000000;
	628 :	0000000000001000;
	627 :	1111111111101101;
	626 :	0000000000011010;
	625 :	0000000001000100;
	624 :	0000000000101001;
	623 :	1111111111010111;
	622 :	0000000000101110;
	621 :	0000000000000000;
	620 :	1111111111111001;
	619 :	1111111111110101;
	618 :	1111111110101100;
	617 :	1111111111001010;
	616 :	0000000000011001;
	615 :	1111111111001111;
	614 :	1111111111101001;
	613 :	0000000000100100;
	612 :	1111111111101111;
	611 :	0000000000000010;
	610 :	1111111111111111;
	609 :	1111111111100011;
	608 :	1111111111100110;
	607 :	1111111111001111;
	606 :	1111111111011000;
	605 :	1111111111011110;
	604 :	1111111111111100;
	603 :	0000000001000110;
	602 :	1111111111110010;
	601 :	1111111111010110;
	600 :	0000000001011011;
	599 :	0000000000000011;
	598 :	1111111111100010;
	597 :	1111111111101000;
	596 :	1111111111110100;
	595 :	0000000000011001;
	594 :	1111111111100000;
	593 :	0000000000000111;
	592 :	0000000000010111;
	591 :	1111111111101111;
	590 :	0000000000000110;
	589 :	0000000000001101;
	588 :	0000000000011110;
	587 :	1111111111111011;
	586 :	1111111111101100;
	585 :	0000000000101001;
	584 :	0000000000011101;
	583 :	1111111111100001;
	582 :	1111111111110100;
	581 :	0000000000100101;
	580 :	1111111111101110;
	579 :	0000000000010100;
	578 :	0000000000010111;
	577 :	1111111111001101;
	576 :	0000000000001001;
	575 :	1111111111101110;
	574 :	1111111111111110;
	573 :	1111111111101110;
	572 :	0000000000000111;
	571 :	0000000000011001;
	570 :	1111111111100010;
	569 :	0000000000001111;
	568 :	0000000000010100;
	567 :	0000000000101001;
	566 :	0000000000010000;
	565 :	1111111111110101;
	564 :	0000000000000101;
	563 :	1111111111110011;
	562 :	0000000000010110;
	561 :	1111111111110101;
	560 :	1111111111110110;
	559 :	0000000000000110;
	558 :	1111111111000010;
	557 :	0000000000000101;
	556 :	1111111111111111;
	555 :	0000000000110010;
	554 :	0000000000011001;
	553 :	0000000000010010;
	552 :	0000000000010000;
	551 :	0000000000000100;
	550 :	1111111111101001;
	549 :	1111111111110000;
	548 :	1111111111011110;
	547 :	0000000000100001;
	546 :	1111111111010101;
	545 :	0000000000000101;
	544 :	1111111111011011;
	543 :	1111111111010010;
	542 :	1111111111111100;
	541 :	0000000000010110;
	540 :	1111111111101110;
	539 :	1111111111111101;
	538 :	0000000000000011;
	537 :	0000000000110101;
	536 :	0000000000000010;
	535 :	1111111111010011;
	534 :	1111111111011000;
	533 :	1111111111001000;
	532 :	0000000000011110;
	531 :	0000000000010100;
	530 :	0000000000001111;
	529 :	1111111111011100;
	528 :	0000000000011011;
	527 :	0000000000010100;
	526 :	1111111111011001;
	525 :	0000000000000000;
	524 :	0000000000001101;
	523 :	0000000000100101;
	522 :	0000000000010010;
	521 :	0000000000001100;
	520 :	1111111111111000;
	519 :	0000000000000000;
	518 :	0000000000010000;
	517 :	0000000000100010;
	516 :	1111111111100111;
	515 :	0000000000000011;
	514 :	1111111111100001;
	513 :	1111111111011010;
	512 :	0000000000010101;
	511 :	1111111111001101;
	510 :	0000000000011000;
	509 :	0000000000000111;
	508 :	1111111111101111;
	507 :	0000000000010101;
	506 :	1111111110100100;
	505 :	0000000000001001;
	504 :	1111111111110000;
	503 :	1111111111111110;
	502 :	0000000000001011;
	501 :	1111111110101101;
	500 :	0000000000000100;
	499 :	1111111111001100;
	498 :	1111111111100111;
	497 :	0000000000001111;
	496 :	1111111111111010;
	495 :	0000000000001010;
	494 :	1111111111110110;
	493 :	0000000000010001;
	492 :	0000000000001100;
	491 :	0000000000011110;
	490 :	0000000000000011;
	489 :	0000000000100011;
	488 :	1111111111101001;
	487 :	0000000000100110;
	486 :	1111111111110101;
	485 :	0000000000011000;
	484 :	0000000000010101;
	483 :	0000000000011010;
	482 :	0000000000110111;
	481 :	1111111111110001;
	480 :	1111111111110011;
	479 :	1111111111111110;
	478 :	0000000000101000;
	477 :	0000000000001000;
	476 :	1111111111100001;
	475 :	1111111111101100;
	474 :	0000000000000011;
	473 :	1111111111100100;
	472 :	0000000000010110;
	471 :	1111111111111011;
	470 :	1111111111110101;
	469 :	1111111111011110;
	468 :	0000000000010011;
	467 :	1111111111111110;
	466 :	1111111111110001;
	465 :	0000000000001001;
	464 :	0000000000010011;
	463 :	0000000000100100;
	462 :	0000000001100010;
	461 :	0000000000000011;
	460 :	1111111111010010;
	459 :	1111111110110111;
	458 :	1111111111111101;
	457 :	1111111111101111;
	456 :	0000000000101000;
	455 :	1111111111100111;
	454 :	1111111111101111;
	453 :	1111111111111100;
	452 :	0000000000100010;
	451 :	0000000000000100;
	450 :	0000000000101101;
	449 :	1111111111011110;
	448 :	1111111111111000;
	447 :	0000000000000000;
	446 :	0000000000000111;
	445 :	0000000000101011;
	444 :	0000000000000010;
	443 :	0000000000100100;
	442 :	0000000001000011;
	441 :	1111111111101100;
	440 :	1111111111110010;
	439 :	1111111111001101;
	438 :	1111111111010111;
	437 :	0000000000001100;
	436 :	0000000000011000;
	435 :	1111111111011100;
	434 :	0000000000001100;
	433 :	1111111111110000;
	432 :	0000000000011100;
	431 :	0000000000001110;
	430 :	0000000000101100;
	429 :	1111111111011111;
	428 :	1111111111110101;
	427 :	1111111111100010;
	426 :	1111111111000011;
	425 :	1111111111011001;
	424 :	1111111111111001;
	423 :	0000000000000010;
	422 :	1111111111011101;
	421 :	0000000000000101;
	420 :	0000000000001000;
	419 :	0000000000110100;
	418 :	1111111111101000;
	417 :	0000000000000010;
	416 :	1111111111101001;
	415 :	0000000000100101;
	414 :	1111111111111110;
	413 :	1111111111001110;
	412 :	1111111111001100;
	411 :	0000000001001010;
	410 :	0000000000010101;
	409 :	0000000000111000;
	408 :	0000000000010001;
	407 :	1111111111011011;
	406 :	0000000000000100;
	405 :	0000000000000000;
	404 :	0000000000000101;
	403 :	1111111111110011;
	402 :	1111111111101011;
	401 :	0000000000111010;
	400 :	0000000000111010;
	399 :	1111111110101011;
	398 :	1111111111000101;
	397 :	1111111111111000;
	396 :	0000000000011111;
	395 :	1111111111110100;
	394 :	1111111111111111;
	393 :	1111111111100110;
	392 :	1111111111111101;
	391 :	1111111111000000;
	390 :	0000000000000000;
	389 :	1111111111111111;
	388 :	1111111111111011;
	387 :	1111111111001100;
	386 :	0000000000000110;
	385 :	0000000000000101;
	384 :	0000000000000010;
	383 :	0000000000100000;
	382 :	0000000000101000;
	381 :	0000000000110001;
	380 :	1111111111010100;
	379 :	1111111111100101;
	378 :	0000000000001100;
	377 :	1111111111110001;
	376 :	1111111111100111;
	375 :	0000000000101111;
	374 :	0000000000010100;
	373 :	0000000000101001;
	372 :	0000000000001000;
	371 :	1111111111001010;
	370 :	1111111111100110;
	369 :	0000000000110110;
	368 :	1111111111011110;
	367 :	1111111111010000;
	366 :	1111111111111011;
	365 :	1111111111001101;
	364 :	1111111111110101;
	363 :	1111111111101101;
	362 :	1111111111011011;
	361 :	0000000000001011;
	360 :	1111111111010101;
	359 :	0000000000001011;
	358 :	0000000000010000;
	357 :	1111111111110010;
	356 :	0000000000110011;
	355 :	0000000000100111;
	354 :	1111111111011100;
	353 :	0000000000001110;
	352 :	1111111111001010;
	351 :	1111111111111111;
	350 :	0000000000010101;
	349 :	0000000000000011;
	348 :	1111111111111100;
	347 :	0000000000001010;
	346 :	1111111111011101;
	345 :	1111111111111110;
	344 :	1111111111101100;
	343 :	1111111111111010;
	342 :	0000000000111101;
	341 :	0000000000001111;
	340 :	0000000000010100;
	339 :	1111111111100000;
	338 :	1111111111010101;
	337 :	0000000000010000;
	336 :	1111111111001110;
	335 :	0000000000010010;
	334 :	1111111111101101;
	333 :	0000000000001110;
	332 :	1111111111100000;
	331 :	1111111111111001;
	330 :	1111111111111110;
	329 :	1111111111011010;
	328 :	0000000000011101;
	327 :	1111111111010100;
	326 :	1111111111110000;
	325 :	0000000000001000;
	324 :	0000000000101101;
	323 :	1111111111111010;
	322 :	1111111111101001;
	321 :	0000000000000110;
	320 :	0000000000101011;
	319 :	0000000000100101;
	318 :	1111111111110000;
	317 :	1111111111100101;
	316 :	1111111111111100;
	315 :	0000000001010101;
	314 :	0000000000001110;
	313 :	0000000000001111;
	312 :	1111111111000011;
	311 :	0000000000100010;
	310 :	1111111111110111;
	309 :	1111111111111001;
	308 :	0000000000101011;
	307 :	0000000001001011;
	306 :	0000000000010010;
	305 :	0000000000110100;
	304 :	1111111111000010;
	303 :	0000000001000010;
	302 :	1111111111111100;
	301 :	1111111111111110;
	300 :	0000000000000000;
	299 :	1111111111100111;
	298 :	1111111111101110;
	297 :	0000000000000111;
	296 :	0000000000000000;
	295 :	1111111111010100;
	294 :	1111111111111100;
	293 :	1111111111111010;
	292 :	0000000000100110;
	291 :	1111111111110001;
	290 :	0000000000111101;
	289 :	0000000000000000;
	288 :	0000000000010111;
	287 :	1111111111011011;
	286 :	1111111111110110;
	285 :	0000000000001011;
	284 :	1111111111110111;
	283 :	1111111111101101;
	282 :	1111111111010100;
	281 :	0000000000011110;
	280 :	0000000000110110;
	279 :	0000000000000000;
	278 :	1111111111111000;
	277 :	0000000000100011;
	276 :	0000000000000111;
	275 :	1111111111110100;
	274 :	1111111111111110;
	273 :	1111111111111111;
	272 :	0000000000000101;
	271 :	0000000000000001;
	270 :	1111111111010000;
	269 :	0000000000101000;
	268 :	0000000000100001;
	267 :	0000000000001010;
	266 :	1111111111101000;
	265 :	1111111111111010;
	264 :	0000000000000011;
	263 :	1111111111111110;
	262 :	1111111111111010;
	261 :	0000000000010100;
	260 :	0000000000001100;
	259 :	0000000000011111;
	258 :	0000000000010111;
	257 :	1111111111110101;
	256 :	0000000000001000;
	255 :	1111111111111000;
	254 :	1111111111100100;
	253 :	0000000000001000;
	252 :	1111111111101101;
	251 :	0000000000110010;
	250 :	1111111111111100;
	249 :	1111111110111111;
	248 :	1111111111110010;
	247 :	0000000001000011;
	246 :	1111111111110010;
	245 :	0000000000111100;
	244 :	1111111111110000;
	243 :	0000000000010011;
	242 :	1111111111010111;
	241 :	1111111111111001;
	240 :	1111111111100101;
	239 :	0000000000110100;
	238 :	0000000000000110;
	237 :	0000000000010110;
	236 :	1111111111101101;
	235 :	0000000000100111;
	234 :	1111111110111001;
	233 :	0000000000010111;
	232 :	1111111111100011;
	231 :	0000000000000000;
	230 :	0000000000001101;
	229 :	0000000000011001;
	228 :	0000000000010000;
	227 :	1111111111101001;
	226 :	0000000000110101;
	225 :	0000000000000101;
	224 :	0000000000100111;
	223 :	0000000000100010;
	222 :	0000000000010001;
	221 :	1111111111101000;
	220 :	0000000000011010;
	219 :	0000000000001101;
	218 :	1111111111111110;
	217 :	0000000000000001;
	216 :	1111111110111011;
	215 :	0000000000000000;
	214 :	0000000000101111;
	213 :	1111111111110011;
	212 :	1111111111001001;
	211 :	1111111111111010;
	210 :	1111111111101101;
	209 :	0000000000000110;
	208 :	0000000000110000;
	207 :	1111111111011111;
	206 :	1111111111100101;
	205 :	0000000000000000;
	204 :	0000000000001100;
	203 :	0000000000011101;
	202 :	1111111111111110;
	201 :	1111111111111110;
	200 :	1111111111100100;
	199 :	0000000000010000;
	198 :	0000000000010000;
	197 :	1111111111110011;
	196 :	1111111111101001;
	195 :	1111111111111110;
	194 :	0000000000101111;
	193 :	1111111110111001;
	192 :	1111111111000001;
	191 :	0000000000011010;
	190 :	1111111111111101;
	189 :	1111111111101010;
	188 :	1111111111011010;
	187 :	0000000000000110;
	186 :	1111111111010010;
	185 :	0000000000010100;
	184 :	0000000000001100;
	183 :	0000000000001100;
	182 :	0000000000010001;
	181 :	0000000000011101;
	180 :	1111111111101100;
	179 :	0000000001001001;
	178 :	1111111111111000;
	177 :	0000000000010000;
	176 :	0000000000011011;
	175 :	0000000001010011;
	174 :	1111111111110000;
	173 :	0000000000010110;
	172 :	0000000001010110;
	171 :	0000000000111001;
	170 :	0000000000000001;
	169 :	1111111111111010;
	168 :	1111111111101001;
	167 :	1111111111010010;
	166 :	1111111111011001;
	165 :	0000000000000111;
	164 :	1111111111010110;
	163 :	0000000000100000;
	162 :	1111111111100111;
	161 :	0000000000000001;
	160 :	1111111111110000;
	159 :	0000000000111100;
	158 :	1111111111011000;
	157 :	0000000000000011;
	156 :	1111111111101010;
	155 :	1111111111100100;
	154 :	1111111111011101;
	153 :	1111111111100101;
	152 :	1111111111001010;
	151 :	1111111111111011;
	150 :	0000000000110011;
	149 :	1111111111001010;
	148 :	1111111111111001;
	147 :	1111111111010001;
	146 :	0000000000111010;
	145 :	1111111111110110;
	144 :	0000000000001000;
	143 :	1111111111001010;
	142 :	1111111111110111;
	141 :	0000000000000001;
	140 :	0000000000100100;
	139 :	0000000000111011;
	138 :	1111111111101001;
	137 :	1111111111001111;
	136 :	0000000000100010;
	135 :	0000000000101100;
	134 :	0000000000011011;
	133 :	1111111111101011;
	132 :	0000000000101010;
	131 :	1111111111001111;
	130 :	0000000000000000;
	129 :	0000000000101001;
	128 :	1111111111111001;
	127 :	1111111111011101;
	126 :	1111111111000110;
	125 :	0000000000010001;
	124 :	1111111111100101;
	123 :	0000000000000101;
	122 :	0000000000000000;
	121 :	1111111111110111;
	120 :	0000000000100111;
	119 :	0000000000111001;
	118 :	1111111111010010;
	117 :	1111111111110011;
	116 :	0000000000011010;
	115 :	0000000000011111;
	114 :	1111111111110010;
	113 :	0000000000010010;
	112 :	0000000000101001;
	111 :	0000000000101000;
	110 :	0000000000101111;
	109 :	0000000000001101;
	108 :	0000000000000101;
	107 :	1111111111010100;
	106 :	1111111111111101;
	105 :	1111111111011010;
	104 :	0000000000100000;
	103 :	0000000000000010;
	102 :	0000000000001100;
	101 :	1111111110111100;
	100 :	1111111111000111;
	99 :	1111111111101110;
	98 :	0000000000000011;
	97 :	1111111111100000;
	96 :	1111111111111111;
	95 :	1111111111101110;
	94 :	1111111111100100;
	93 :	0000000000100101;
	92 :	1111111111111111;
	91 :	0000000000001111;
	90 :	0000000000001000;
	89 :	1111111111111111;
	88 :	0000000000001100;
	87 :	0000000000000100;
	86 :	0000000000000000;
	85 :	0000000000001101;
	84 :	1111111111101011;
	83 :	0000000000000000;
	82 :	0000000000111011;
	81 :	1111111110101001;
	80 :	0000000000010101;
	79 :	0000000000010101;
	78 :	1111111111101011;
	77 :	0000000000011110;
	76 :	0000000000000101;
	75 :	0000000000111100;
	74 :	0000000000010011;
	73 :	0000000000000101;
	72 :	1111111111010010;
	71 :	0000000000011000;
	70 :	1111111111110111;
	69 :	0000000000001010;
	68 :	0000000000001000;
	67 :	1111111111010011;
	66 :	1111111111110010;
	65 :	1111111111111010;
	64 :	1111111111000010;
	63 :	0000000000000100;
	62 :	1111111111100101;
	61 :	0000000000001011;
	60 :	0000000000001000;
	59 :	0000000000000000;
	58 :	0000000000100001;
	57 :	0000000000000000;
	56 :	0000000000001111;
	55 :	0000000000100101;
	54 :	1111111111011001;
	53 :	0000000000100001;
	52 :	0000000000000000;
	51 :	1111111111001010;
	50 :	1111111111101111;
	49 :	1111111111111101;
	48 :	0000000000001101;
	47 :	1111111111010111;
	46 :	1111111111101011;
	45 :	0000000000000100;
	44 :	1111111111111110;
	43 :	1111111111111000;
	42 :	1111111111011111;
	41 :	1111111111111110;
	40 :	0000000000110001;
	39 :	0000000000000011;
	38 :	0000000000011011;
	37 :	1111111111010001;
	36 :	0000000000000110;
	35 :	0000000000000000;
	34 :	1111111111100100;
	33 :	1111111111101111;
	32 :	0000000000000000;
	31 :	0000000000000101;
	30 :	0000000000000011;
	29 :	0000000000000111;
	28 :	1111111111110011;
	27 :	0000000001000110;
	26 :	0000000000101101;
	25 :	0000000000100100;
	24 :	1111111111011011;
	23 :	1111111111110101;
	22 :	0000000000101111;
	21 :	0000000000000000;
	20 :	1111111111110010;
	19 :	1111111111110110;
	18 :	1111111111110110;
	17 :	0000000000101110;
	16 :	0000000000001110;
	15 :	1111111111001001;
	14 :	1111111111001011;
	13 :	0000000000000010;
	12 :	1111111111111101;
	11 :	1111111111101110;
	10 :	1111111111100010;
	9 :	0000000000010000;
	8 :	0000000000000011;
	7 :	1111111111110000;
	6 :	1111111111111110;
	5 :	0000000000001101;
	4 :	1111111111010111;
	3 :	0000000000011011;
	2 :	1111111111101001;
	1 :	0000000000100100;
	0 :	0000000000100010;
END;
