-- begin_signature
-- Weight_Memory(numWeight
-- 784
-- neuronNo
-- 17
-- layerNo
-- 1
-- addressWidth
-- 10
-- dataWidth
-- 16
-- weightFile
-- "w_1_17.mif")
-- end_signature
WIDTH=16;
DEPTH=784;

ADDRESS_RADIX=UNS;
DATA_RADIX=BIN;

CONTENT BEGIN
	783 :	1111111111011010;
	782 :	0000000000011000;
	781 :	1111111111100111;
	780 :	0000000000010110;
	779 :	0000000000100100;
	778 :	1111111110010010;
	777 :	0000000000010111;
	776 :	0000000000110011;
	775 :	0000000000010100;
	774 :	1111111110101011;
	773 :	0000000000000100;
	772 :	1111111111110010;
	771 :	0000000000011001;
	770 :	1111111111100001;
	769 :	0000000000011101;
	768 :	0000000000001011;
	767 :	1111111111001011;
	766 :	0000000000111011;
	765 :	1111111111111001;
	764 :	1111111111101100;
	763 :	1111111111111011;
	762 :	1111111111110000;
	761 :	0000000000001101;
	760 :	0000000000000011;
	759 :	0000000000110111;
	758 :	0000000000111001;
	757 :	1111111111110000;
	756 :	0000000001001011;
	755 :	0000000000011011;
	754 :	1111111111111001;
	753 :	0000000000110101;
	752 :	1111111111111010;
	751 :	0000000000001111;
	750 :	1111111110110111;
	749 :	1111111111001101;
	748 :	1111111111011011;
	747 :	0000000000110110;
	746 :	0000000000001001;
	745 :	1111111111101000;
	744 :	0000000001000000;
	743 :	1111111111001101;
	742 :	0000000000000010;
	741 :	0000000011100001;
	740 :	0000000100100011;
	739 :	0000000011000000;
	738 :	0000000011110100;
	737 :	0000000000001100;
	736 :	0000000000101110;
	735 :	0000000001010000;
	734 :	1111111101100100;
	733 :	1111111100101100;
	732 :	0000000000010111;
	731 :	0000000000001101;
	730 :	1111111110111100;
	729 :	0000000000101010;
	728 :	1111111111101010;
	727 :	0000000000011010;
	726 :	0000000010000001;
	725 :	0000000001000001;
	724 :	0000000000100110;
	723 :	1111111101111110;
	722 :	1111111111001010;
	721 :	1111111100011010;
	720 :	1111111001010001;
	719 :	1111110100111000;
	718 :	1111111011100111;
	717 :	0000000100011101;
	716 :	0000000101011000;
	715 :	0000001001000001;
	714 :	1111111111000110;
	713 :	1111111110011101;
	712 :	0000000011000111;
	711 :	0000000001010000;
	710 :	0000000011111001;
	709 :	0000000001001011;
	708 :	1111111110100110;
	707 :	0000000010100100;
	706 :	0000000001010010;
	705 :	0000000010000011;
	704 :	0000000010101001;
	703 :	0000000001001111;
	702 :	1111111111110110;
	701 :	1111111111010101;
	700 :	0000000000100100;
	699 :	1111111111110011;
	698 :	0000000001100010;
	697 :	0000000011001011;
	696 :	0000000100001010;
	695 :	1111111111011110;
	694 :	0000000010011110;
	693 :	0000000000100000;
	692 :	1111110110001010;
	691 :	1111110101101000;
	690 :	1111111101000011;
	689 :	1111111111101000;
	688 :	1111111000001001;
	687 :	0000000010111011;
	686 :	0000000010110000;
	685 :	1111111111110101;
	684 :	1111111101110110;
	683 :	1111111011001110;
	682 :	1111110011110010;
	681 :	1111111001101001;
	680 :	0000000010010110;
	679 :	1111111110011110;
	678 :	1111111010110111;
	677 :	1111111111111001;
	676 :	0000000000011000;
	675 :	1111111110010011;
	674 :	0000000000010010;
	673 :	0000000000000111;
	672 :	1111111111100010;
	671 :	0000000000000001;
	670 :	0000000000010111;
	669 :	1111111111011000;
	668 :	0000001001010000;
	667 :	0000000100001001;
	666 :	0000000110000101;
	665 :	0000000110001101;
	664 :	1111111000010010;
	663 :	1111110100101101;
	662 :	1111111000110100;
	661 :	1111101110111001;
	660 :	1111110001011111;
	659 :	1111111010100011;
	658 :	1111111100100000;
	657 :	1111110110000011;
	656 :	1111111110011001;
	655 :	1111111100001011;
	654 :	1111110100000000;
	653 :	1111111011011011;
	652 :	1111110100110011;
	651 :	1111111101100111;
	650 :	1111111001010101;
	649 :	1111111101111010;
	648 :	1111111111100100;
	647 :	1111111111001111;
	646 :	0000000000110111;
	645 :	1111111111010100;
	644 :	1111111111111101;
	643 :	1111111111111111;
	642 :	1111111111001010;
	641 :	1111111111011101;
	640 :	0000001000110111;
	639 :	0000000111100110;
	638 :	0000000010100111;
	637 :	1111111111100111;
	636 :	0000000010011111;
	635 :	0000000001110111;
	634 :	1111111011001100;
	633 :	1111111000010000;
	632 :	1111111100111011;
	631 :	1111110100000010;
	630 :	1111111011011100;
	629 :	1111110001101011;
	628 :	0000000000011110;
	627 :	0000000011100001;
	626 :	1111111110101100;
	625 :	1111111000011111;
	624 :	0000000000100100;
	623 :	1111111110011001;
	622 :	1111110110010100;
	621 :	0000000110010000;
	620 :	0000000101011111;
	619 :	0000000001011010;
	618 :	0000000011001001;
	617 :	1111111111100000;
	616 :	0000000000011001;
	615 :	1111111111110001;
	614 :	0000000010100111;
	613 :	0000000000100110;
	612 :	0000000110101000;
	611 :	0000000111001011;
	610 :	0000000001101111;
	609 :	0000001000111111;
	608 :	0000000000101111;
	607 :	0000000000111000;
	606 :	1111111011000111;
	605 :	1111111001011011;
	604 :	1111111010110000;
	603 :	1111110010011000;
	602 :	1111111001011010;
	601 :	1111111011010001;
	600 :	0000000000101010;
	599 :	0000000001110011;
	598 :	0000000001100000;
	597 :	0000000011110100;
	596 :	0000000100010011;
	595 :	0000000001001010;
	594 :	0000000010010011;
	593 :	0000001000000011;
	592 :	0000000101010111;
	591 :	0000000001100111;
	590 :	0000000010010000;
	589 :	1111111111110111;
	588 :	1111111111010100;
	587 :	0000000000110011;
	586 :	1111111111011010;
	585 :	0000000000011100;
	584 :	0000001000100111;
	583 :	0000000101100101;
	582 :	1111111101100110;
	581 :	1111111011011010;
	580 :	1111111010011111;
	579 :	1111111110010001;
	578 :	1111111101000010;
	577 :	1111111010001101;
	576 :	0000000010000100;
	575 :	1111110111011110;
	574 :	1111111010000111;
	573 :	1111111011101110;
	572 :	1111111110100100;
	571 :	0000000100111100;
	570 :	1111111110010100;
	569 :	1111111110110010;
	568 :	0000000111001101;
	567 :	0000000101100001;
	566 :	0000000001101101;
	565 :	0000001101111010;
	564 :	0000000111010000;
	563 :	0000000100100100;
	562 :	1111111110011001;
	561 :	1111111111110110;
	560 :	0000000000011011;
	559 :	0000000000011000;
	558 :	0000000010010101;
	557 :	0000000110101001;
	556 :	0000001110100100;
	555 :	0000000101110000;
	554 :	0000001000110010;
	553 :	0000001000101010;
	552 :	0000000111101001;
	551 :	0000000010010000;
	550 :	0000000011100001;
	549 :	0000000001001010;
	548 :	1111111111101101;
	547 :	0000000111000101;
	546 :	0000000000000000;
	545 :	0000000000100001;
	544 :	0000000010100111;
	543 :	0000000011110011;
	542 :	1111111001000010;
	541 :	1111111110001001;
	540 :	1111111110111100;
	539 :	0000000100001101;
	538 :	1111111001101010;
	537 :	0000000010011011;
	536 :	0000000010100101;
	535 :	0000000001111110;
	534 :	1111111101010000;
	533 :	0000000000011000;
	532 :	1111111111010011;
	531 :	0000000010100001;
	530 :	0000000100101001;
	529 :	0000001101011111;
	528 :	0000001011010110;
	527 :	0000000001010011;
	526 :	0000000001000100;
	525 :	0000000011011101;
	524 :	0000000010110001;
	523 :	0000000101001010;
	522 :	0000000100010001;
	521 :	0000000000110011;
	520 :	0000000011001111;
	519 :	1111111111111010;
	518 :	0000000001101001;
	517 :	0000000010101101;
	516 :	1111111101001001;
	515 :	1111111010101011;
	514 :	1111111111111111;
	513 :	0000000010010110;
	512 :	0000000100010101;
	511 :	1111111111100011;
	510 :	0000000010001011;
	509 :	0000001010010001;
	508 :	0000000100010101;
	507 :	0000000010000010;
	506 :	0000000000001111;
	505 :	1111111111111001;
	504 :	1111111111111001;
	503 :	0000000001111101;
	502 :	0000000011110111;
	501 :	0000000111100100;
	500 :	0000000010011001;
	499 :	0000000000001010;
	498 :	1111111111110101;
	497 :	0000000001110010;
	496 :	0000000001001101;
	495 :	1111111111010110;
	494 :	0000001000010100;
	493 :	0000000101010001;
	492 :	0000000000100000;
	491 :	0000000111001010;
	490 :	0000000110001000;
	489 :	1111111100001110;
	488 :	0000000000111001;
	487 :	1111111001111010;
	486 :	0000000011001100;
	485 :	0000000000000110;
	484 :	0000000111000100;
	483 :	0000000001000110;
	482 :	0000001010001111;
	481 :	0000000010100011;
	480 :	0000001001000111;
	479 :	0000000100110111;
	478 :	0000000001100010;
	477 :	1111111111010100;
	476 :	1111111111110011;
	475 :	1111111111110000;
	474 :	0000000100110110;
	473 :	0000000010100000;
	472 :	0000000101011100;
	471 :	0000000011100100;
	470 :	0000000011111000;
	469 :	0000000110110000;
	468 :	1111111011010101;
	467 :	0000000101001100;
	466 :	0000000001001110;
	465 :	0000000000001110;
	464 :	0000000001101101;
	463 :	0000000010111010;
	462 :	0000000110001110;
	461 :	0000001011010101;
	460 :	0000000101111000;
	459 :	0000000000110011;
	458 :	1111111110001000;
	457 :	0000000110011100;
	456 :	0000000000010101;
	455 :	0000000101000011;
	454 :	0000001101001001;
	453 :	0000000001001111;
	452 :	0000000100010000;
	451 :	0000000101100101;
	450 :	1111111111101001;
	449 :	1111111111010110;
	448 :	0000000000000010;
	447 :	1111111111111010;
	446 :	0000000011101101;
	445 :	0000000001010010;
	444 :	0000000101100111;
	443 :	1111111101000100;
	442 :	1111111001010010;
	441 :	1111111011100010;
	440 :	1111110101100001;
	439 :	0000000000111010;
	438 :	1111111011011011;
	437 :	1111111111101111;
	436 :	0000000101011000;
	435 :	0000000110000110;
	434 :	1111111100010111;
	433 :	0000000111111000;
	432 :	0000000000000010;
	431 :	0000000001001010;
	430 :	1111111101101010;
	429 :	0000001001010100;
	428 :	0000000100100000;
	427 :	0000000010010111;
	426 :	0000001111101010;
	425 :	0000000111101010;
	424 :	1111111111111010;
	423 :	0000000001010010;
	422 :	1111111110011011;
	421 :	1111111111101111;
	420 :	0000000000001011;
	419 :	0000000000011001;
	418 :	0000000111000001;
	417 :	0000000011000000;
	416 :	0000000000000001;
	415 :	1111111100100000;
	414 :	1111111110001111;
	413 :	1111111110000010;
	412 :	1111111101111101;
	411 :	0000000000100100;
	410 :	0000000111111000;
	409 :	1111111001011101;
	408 :	0000000001000110;
	407 :	1111111010001110;
	406 :	0000000011001010;
	405 :	0000001000010000;
	404 :	0000000101010101;
	403 :	0000000110110000;
	402 :	1111111111101000;
	401 :	0000000111110100;
	400 :	0000000000111111;
	399 :	0000001100001111;
	398 :	0000001011000100;
	397 :	1111111001100011;
	396 :	1111111011001110;
	395 :	1111111011100000;
	394 :	1111111111011011;
	393 :	1111111111010111;
	392 :	0000000000100010;
	391 :	0000000000111111;
	390 :	0000000001100001;
	389 :	0000000101110001;
	388 :	0000000010111001;
	387 :	0000000000010000;
	386 :	1111111001100001;
	385 :	1111111110011001;
	384 :	0000000000011000;
	383 :	1111110100000101;
	382 :	1111111101100000;
	381 :	1111111010011111;
	380 :	1111111101100011;
	379 :	1111111100000001;
	378 :	1111111111001010;
	377 :	1111111110101011;
	376 :	0000000100010101;
	375 :	0000000100000010;
	374 :	0000000011001101;
	373 :	1111111111100110;
	372 :	1111111001101100;
	371 :	1111110011111010;
	370 :	1111101101010010;
	369 :	1111101111110111;
	368 :	1111110010111101;
	367 :	1111111011001000;
	366 :	1111111111111001;
	365 :	1111111111011010;
	364 :	0000000000010000;
	363 :	0000000000001011;
	362 :	0000000001011011;
	361 :	0000000101101001;
	360 :	0000000100001011;
	359 :	1111111111011110;
	358 :	1111111001011111;
	357 :	1111111010100001;
	356 :	0000000011110110;
	355 :	0000000001010001;
	354 :	1111111111110100;
	353 :	1111111000010011;
	352 :	1111111110100101;
	351 :	1111111011011110;
	350 :	1111111110110100;
	349 :	1111111000011000;
	348 :	1111110011101000;
	347 :	1111101110111101;
	346 :	1111101100001111;
	345 :	1111011111100011;
	344 :	1111100000011101;
	343 :	1111011000011001;
	342 :	1111011000101011;
	341 :	1111101011110001;
	340 :	1111110001011111;
	339 :	1111111010110011;
	338 :	1111111110001111;
	337 :	1111111111010111;
	336 :	1111111111101001;
	335 :	0000000000000010;
	334 :	1111111111000101;
	333 :	0000000000101101;
	332 :	1111111110100110;
	331 :	1111111110101110;
	330 :	1111111001011100;
	329 :	1111110110100010;
	328 :	1111111100111001;
	327 :	0000001000011000;
	326 :	1111111011011101;
	325 :	1111111011011011;
	324 :	0000000010111010;
	323 :	1111110100110001;
	322 :	1111101011110000;
	321 :	1111011100100111;
	320 :	1111101001011110;
	319 :	1111101000000101;
	318 :	1111011110011100;
	317 :	1111011110110001;
	316 :	1111100101011011;
	315 :	1111100010100010;
	314 :	1111100100111010;
	313 :	1111110001110000;
	312 :	1111110110011011;
	311 :	1111111100000010;
	310 :	1111111110010101;
	309 :	0000000000000011;
	308 :	1111111111101110;
	307 :	0000000000010001;
	306 :	1111111111110111;
	305 :	1111111110100011;
	304 :	1111111011111000;
	303 :	1111111001100000;
	302 :	1111111010111100;
	301 :	0000000001011011;
	300 :	1111111010001101;
	299 :	1111111011000001;
	298 :	0000000101001100;
	297 :	0000000010110100;
	296 :	1111111100001010;
	295 :	1111110110101100;
	294 :	1111101110100001;
	293 :	1111100100000110;
	292 :	1111101100000101;
	291 :	1111101111010101;
	290 :	1111110110011101;
	289 :	1111111010101110;
	288 :	1111111000101011;
	287 :	1111101111010011;
	286 :	1111110110011110;
	285 :	1111111001001111;
	284 :	1111111001010100;
	283 :	1111111010110101;
	282 :	1111111110110011;
	281 :	1111111111111111;
	280 :	1111111111111111;
	279 :	0000000000001001;
	278 :	1111111110110000;
	277 :	1111111110000010;
	276 :	1111110111010110;
	275 :	1111111001111011;
	274 :	1111111111100011;
	273 :	0000000000000000;
	272 :	1111110001011011;
	271 :	0000000100011100;
	270 :	0000000010100001;
	269 :	1111111110110100;
	268 :	0000000000001010;
	267 :	0000000101101010;
	266 :	1111111101100100;
	265 :	1111111010111110;
	264 :	0000000110010111;
	263 :	1111111111110111;
	262 :	1111111100000110;
	261 :	1111111111101001;
	260 :	1111111000010011;
	259 :	1111110011111101;
	258 :	1111110111101010;
	257 :	0000000000111011;
	256 :	1111111111000011;
	255 :	1111111010110110;
	254 :	1111111111000110;
	253 :	0000000000001111;
	252 :	1111111111001101;
	251 :	0000000000010011;
	250 :	0000000000001100;
	249 :	1111111110000101;
	248 :	1111111000001011;
	247 :	1111111010101100;
	246 :	0000000010110000;
	245 :	0000000000111001;
	244 :	0000000001011100;
	243 :	0000000101001011;
	242 :	0000000100000011;
	241 :	0000000100111110;
	240 :	0000001000101011;
	239 :	0000000110110110;
	238 :	0000000010101010;
	237 :	0000000001101010;
	236 :	0000000111001010;
	235 :	0000000111110011;
	234 :	0000000011010101;
	233 :	1111111011111110;
	232 :	1111111110001111;
	231 :	1111111101100010;
	230 :	1111111011100110;
	229 :	0000000101110110;
	228 :	1111111111000100;
	227 :	1111111110101101;
	226 :	1111111110110110;
	225 :	1111111111010010;
	224 :	0000000000001000;
	223 :	0000000000001100;
	222 :	0000000000011010;
	221 :	1111111101000111;
	220 :	1111111000100110;
	219 :	1111110110110100;
	218 :	0000001001010110;
	217 :	1111111110111001;
	216 :	1111111100100101;
	215 :	0000000101011100;
	214 :	0000000011010011;
	213 :	0000000101011011;
	212 :	0000000000110101;
	211 :	0000000010101110;
	210 :	0000000110001011;
	209 :	0000001001000010;
	208 :	0000000011000100;
	207 :	0000000101101001;
	206 :	0000000101110011;
	205 :	0000000011000100;
	204 :	0000001001011101;
	203 :	0000000011000000;
	202 :	0000000000001001;
	201 :	1111111100110011;
	200 :	1111111011111101;
	199 :	1111111111111001;
	198 :	1111111110111000;
	197 :	0000000000011100;
	196 :	0000000000010001;
	195 :	1111111111011111;
	194 :	1111111111100100;
	193 :	1111111100011011;
	192 :	1111111001010010;
	191 :	1111111010111100;
	190 :	0000000001101000;
	189 :	1111111101100111;
	188 :	1111111011111101;
	187 :	0000000100000000;
	186 :	0000000011110001;
	185 :	0000000010001001;
	184 :	0000001100000100;
	183 :	0000001011011100;
	182 :	0000000111011011;
	181 :	0000001010011110;
	180 :	0000000011111001;
	179 :	0000000101001111;
	178 :	0000001111101111;
	177 :	0000000101111110;
	176 :	1111111110010001;
	175 :	0000000100111100;
	174 :	0000000000000011;
	173 :	0000000000100111;
	172 :	1111111101001101;
	171 :	1111111101010101;
	170 :	1111111111011100;
	169 :	1111111111011100;
	168 :	0000000000001000;
	167 :	0000000000011101;
	166 :	0000000000111001;
	165 :	0000000000111001;
	164 :	1111111010111111;
	163 :	1111111100001100;
	162 :	0000000000011100;
	161 :	0000000100110110;
	160 :	0000000001001101;
	159 :	1111111000011100;
	158 :	0000000000110010;
	157 :	0000000000111011;
	156 :	0000001001100000;
	155 :	0000000000110111;
	154 :	0000000000101111;
	153 :	0000000011011111;
	152 :	0000001000100001;
	151 :	0000001010101110;
	150 :	0000001001111110;
	149 :	0000001100100000;
	148 :	0000001010000100;
	147 :	0000001010110111;
	146 :	0000000011100101;
	145 :	1111111110011111;
	144 :	1111111111011111;
	143 :	1111111110110010;
	142 :	0000000000000000;
	141 :	1111111111100101;
	140 :	0000000000000110;
	139 :	0000000000100000;
	138 :	1111111111111101;
	137 :	0000000000011111;
	136 :	1111111101110111;
	135 :	1111110111111110;
	134 :	1111111000111101;
	133 :	1111111101001110;
	132 :	0000000110110000;
	131 :	0000001000101001;
	130 :	0000000111011010;
	129 :	0000000011110000;
	128 :	0000000100010010;
	127 :	0000000000101111;
	126 :	0000000011011000;
	125 :	0000000001101111;
	124 :	0000000110101100;
	123 :	0000001010110001;
	122 :	0000010001100111;
	121 :	0000010000000000;
	120 :	0000000111101010;
	119 :	0000000100011101;
	118 :	0000000010001100;
	117 :	1111111111110010;
	116 :	1111111110010011;
	115 :	0000000000010001;
	114 :	1111111111110111;
	113 :	0000000000010101;
	112 :	1111111111011100;
	111 :	0000000000011100;
	110 :	0000000000100101;
	109 :	0000000000100110;
	108 :	1111111101011111;
	107 :	1111111000111100;
	106 :	1111111010010011;
	105 :	1111111100001100;
	104 :	1111110111111010;
	103 :	1111110110110111;
	102 :	1111110110101100;
	101 :	1111111110100010;
	100 :	0000000010111111;
	99 :	1111111010110001;
	98 :	0000000000011111;
	97 :	0000001001011100;
	96 :	0000001000111011;
	95 :	0000001010010101;
	94 :	0000001001000010;
	93 :	0000001000110100;
	92 :	0000000010100000;
	91 :	1111111110110000;
	90 :	0000000000010100;
	89 :	1111111111101111;
	88 :	0000000000000100;
	87 :	0000000000111011;
	86 :	1111111110111011;
	85 :	0000000000000000;
	84 :	0000000000101100;
	83 :	1111111111111010;
	82 :	1111111111111110;
	81 :	0000000001101100;
	80 :	0000000000010011;
	79 :	1111111101110100;
	78 :	1111111011001000;
	77 :	1111111011111101;
	76 :	1111111011100101;
	75 :	1111110111100000;
	74 :	1111110011111111;
	73 :	1111111010010101;
	72 :	1111111111111111;
	71 :	1111111110101000;
	70 :	1111111101110101;
	69 :	0000000000100010;
	68 :	1111111110000110;
	67 :	1111111101111011;
	66 :	1111111110101110;
	65 :	0000000011111010;
	64 :	1111111111110100;
	63 :	1111111111100111;
	62 :	1111111111101101;
	61 :	0000000000010011;
	60 :	0000000000111000;
	59 :	1111111111010101;
	58 :	1111111111110001;
	57 :	0000000000010001;
	56 :	0000000000001110;
	55 :	0000000000100010;
	54 :	1111111111011100;
	53 :	1111111111000101;
	52 :	1111111111111100;
	51 :	0000000000001100;
	50 :	1111111111100111;
	49 :	1111111111111110;
	48 :	1111111111100001;
	47 :	1111111100111010;
	46 :	1111111101000110;
	45 :	1111111101101101;
	44 :	0000000000110100;
	43 :	1111111011011010;
	42 :	1111111011111001;
	41 :	1111111101010011;
	40 :	1111111011010111;
	39 :	1111111101101001;
	38 :	1111111101100101;
	37 :	1111111101101111;
	36 :	1111111111001001;
	35 :	1111111111100110;
	34 :	1111111111010010;
	33 :	1111111111101101;
	32 :	0000000000011100;
	31 :	1111111111110101;
	30 :	0000000000100110;
	29 :	1111111111100010;
	28 :	1111111111101010;
	27 :	1111111111101110;
	26 :	0000000000000000;
	25 :	1111111111101000;
	24 :	1111111111111100;
	23 :	1111111111111011;
	22 :	1111111111101110;
	21 :	1111111111001111;
	20 :	0000000000001101;
	19 :	0000000000001111;
	18 :	1111111111111111;
	17 :	1111111111110001;
	16 :	0000000000001001;
	15 :	1111111111011001;
	14 :	1111111111100110;
	13 :	1111111111110101;
	12 :	1111111110111001;
	11 :	0000000000011010;
	10 :	1111111111111001;
	9 :	0000000000011100;
	8 :	1111111111100111;
	7 :	1111111111011011;
	6 :	0000000000111111;
	5 :	0000000000001111;
	4 :	1111111111111100;
	3 :	0000000000011111;
	2 :	1111111111110011;
	1 :	1111111111101011;
	0 :	0000000000011010;
END;
