-- begin_signature
-- Weight_Memory(numWeight
-- 784
-- neuronNo
-- 29
-- layerNo
-- 1
-- addressWidth
-- 10
-- dataWidth
-- 16
-- weightFile
-- "w_1_29.hex")
-- end_signature
WIDTH=16;
DEPTH=784;

ADDRESS_RADIX=UNS;
DATA_RADIX=BIN;

CONTENT BEGIN
	783 :	1111111110011100;
	782 :	1111111111101111;
	781 :	0000000000010101;
	780 :	0000000000010111;
	779 :	0000000000100100;
	778 :	1111111111101011;
	777 :	1111111111111011;
	776 :	1111111111111000;
	775 :	0000000000111111;
	774 :	0000000000101001;
	773 :	0000000000000001;
	772 :	1111111111111101;
	771 :	1111111111111001;
	770 :	0000000000010011;
	769 :	0000000000001101;
	768 :	0000000000111111;
	767 :	0000000000111011;
	766 :	0000000000011101;
	765 :	0000000000010011;
	764 :	1111111111000100;
	763 :	0000000000011111;
	762 :	0000000000100101;
	761 :	0000000000001110;
	760 :	0000000000000110;
	759 :	1111111111010100;
	758 :	0000000000010100;
	757 :	0000000000101010;
	756 :	0000000000101101;
	755 :	1111111111011010;
	754 :	0000000000100111;
	753 :	0000000000100101;
	752 :	0000000001010111;
	751 :	1111111111101010;
	750 :	0000000000001001;
	749 :	0000000000000100;
	748 :	1111111111000110;
	747 :	1111111111100001;
	746 :	1111111111100100;
	745 :	1111111111110101;
	744 :	1111111111111010;
	743 :	0000000000010001;
	742 :	1111111111101000;
	741 :	1111111110110111;
	740 :	0000000000000000;
	739 :	1111111111111011;
	738 :	0000000000001100;
	737 :	1111111111111000;
	736 :	0000000000010000;
	735 :	0000000000011001;
	734 :	0000000000010100;
	733 :	1111111111010100;
	732 :	0000000000000001;
	731 :	1111111111111101;
	730 :	1111111111101010;
	729 :	0000000000011110;
	728 :	1111111111011001;
	727 :	0000000000100011;
	726 :	1111111111110110;
	725 :	0000000000001110;
	724 :	1111111111110010;
	723 :	0000000000010011;
	722 :	1111111111110011;
	721 :	1111111111110001;
	720 :	1111111111011000;
	719 :	0000000000010100;
	718 :	0000000001001010;
	717 :	0000000000001011;
	716 :	0000000000010111;
	715 :	1111111111011011;
	714 :	0000000000101011;
	713 :	0000000000011011;
	712 :	0000000000100010;
	711 :	0000000001000011;
	710 :	1111111111111001;
	709 :	0000000000001111;
	708 :	1111111111101101;
	707 :	1111111111101011;
	706 :	0000000000000000;
	705 :	1111111111111000;
	704 :	0000000000100100;
	703 :	1111111111011010;
	702 :	1111111111101111;
	701 :	1111111111100010;
	700 :	1111111111111111;
	699 :	0000000000000000;
	698 :	0000000000101001;
	697 :	0000000000000101;
	696 :	1111111111010111;
	695 :	0000000000000010;
	694 :	1111111111110011;
	693 :	1111111111101000;
	692 :	0000000000100010;
	691 :	0000000000011110;
	690 :	0000000000001111;
	689 :	1111111111011100;
	688 :	0000000000000001;
	687 :	1111111111010011;
	686 :	0000000000010111;
	685 :	0000000000100100;
	684 :	0000000000001001;
	683 :	1111111111100011;
	682 :	0000000000010000;
	681 :	1111111111111000;
	680 :	1111111111100101;
	679 :	0000000000100000;
	678 :	1111111111011000;
	677 :	0000000000011001;
	676 :	0000000001001100;
	675 :	0000000000010001;
	674 :	0000000000010110;
	673 :	0000000000101100;
	672 :	0000000000011100;
	671 :	0000000000100010;
	670 :	1111111111001100;
	669 :	0000000000011110;
	668 :	0000000000100111;
	667 :	1111111111100011;
	666 :	1111111111101101;
	665 :	1111111111101100;
	664 :	0000000000000010;
	663 :	1111111111011110;
	662 :	0000000000010110;
	661 :	0000000000001000;
	660 :	1111111111111100;
	659 :	1111111111110011;
	658 :	1111111111101001;
	657 :	0000000000011101;
	656 :	1111111111111011;
	655 :	1111111111000101;
	654 :	1111111111101011;
	653 :	0000000000001000;
	652 :	1111111111010010;
	651 :	1111111111100100;
	650 :	0000000000100000;
	649 :	1111111111011010;
	648 :	0000000000000010;
	647 :	1111111111101100;
	646 :	0000000000010100;
	645 :	0000000000001011;
	644 :	0000000001001010;
	643 :	1111111111111001;
	642 :	1111111111001101;
	641 :	0000000000100000;
	640 :	0000000000010011;
	639 :	0000000000010010;
	638 :	0000000000000000;
	637 :	0000000000110011;
	636 :	1111111111101100;
	635 :	1111111111110101;
	634 :	1111111111011111;
	633 :	0000000001010001;
	632 :	1111111111110001;
	631 :	1111111111100101;
	630 :	0000000000000111;
	629 :	0000000000010101;
	628 :	1111111111101011;
	627 :	0000000000001100;
	626 :	0000000000010000;
	625 :	1111111111110010;
	624 :	0000000000101000;
	623 :	1111111111010011;
	622 :	0000000000010111;
	621 :	0000000000111100;
	620 :	0000000000000000;
	619 :	1111111111100110;
	618 :	0000000000010001;
	617 :	0000000000010000;
	616 :	1111111111100010;
	615 :	1111111111110111;
	614 :	0000000000000001;
	613 :	1111111111001001;
	612 :	0000000000000111;
	611 :	0000000000011010;
	610 :	1111111111111101;
	609 :	1111111111100000;
	608 :	1111111111000011;
	607 :	1111111111001101;
	606 :	0000000000110010;
	605 :	0000000000000011;
	604 :	0000000000100100;
	603 :	1111111111101100;
	602 :	1111111110110010;
	601 :	0000000000000000;
	600 :	1111111111111100;
	599 :	0000000000100001;
	598 :	0000000000001010;
	597 :	1111111111010011;
	596 :	0000000000110001;
	595 :	0000000000010110;
	594 :	0000000000001001;
	593 :	0000000000000001;
	592 :	0000000000010011;
	591 :	0000000000011001;
	590 :	0000000000100110;
	589 :	1111111111111100;
	588 :	0000000000000000;
	587 :	1111111111110111;
	586 :	1111111111111111;
	585 :	0000000000000111;
	584 :	0000000000101111;
	583 :	1111111111110101;
	582 :	1111111111110011;
	581 :	1111111111101000;
	580 :	0000000000010101;
	579 :	1111111111101101;
	578 :	1111111111101011;
	577 :	1111111111110100;
	576 :	1111111111111100;
	575 :	0000000000100001;
	574 :	0000000000010000;
	573 :	0000000000011011;
	572 :	0000000000101010;
	571 :	1111111111101110;
	570 :	0000000000000110;
	569 :	0000000000111001;
	568 :	0000000000011000;
	567 :	1111111111101000;
	566 :	1111111111000000;
	565 :	1111111111110100;
	564 :	1111111111001101;
	563 :	0000000000000010;
	562 :	0000000000001000;
	561 :	0000000000001110;
	560 :	0000000000000110;
	559 :	0000000000010010;
	558 :	0000000000011110;
	557 :	1111111111011010;
	556 :	1111111111100011;
	555 :	1111111111110101;
	554 :	0000000000000011;
	553 :	0000000000010101;
	552 :	0000000000110010;
	551 :	1111111111110111;
	550 :	0000000000000000;
	549 :	1111111111101011;
	548 :	0000000000010001;
	547 :	0000000000010010;
	546 :	1111111111111010;
	545 :	1111111111111111;
	544 :	1111111111111111;
	543 :	0000000000000000;
	542 :	1111111111011001;
	541 :	1111111111111000;
	540 :	1111111111010100;
	539 :	1111111111100100;
	538 :	1111111111000100;
	537 :	1111111110111100;
	536 :	0000000000010011;
	535 :	1111111111010110;
	534 :	0000000000000111;
	533 :	0000000000010100;
	532 :	1111111110110100;
	531 :	1111111111111111;
	530 :	0000000000001001;
	529 :	0000000000000111;
	528 :	1111111111100001;
	527 :	1111111111101110;
	526 :	0000000000011011;
	525 :	1111111111110101;
	524 :	1111111111000011;
	523 :	0000000000100001;
	522 :	0000000000000100;
	521 :	0000000001001001;
	520 :	1111111111001010;
	519 :	0000000000000000;
	518 :	0000000000000011;
	517 :	0000000000111011;
	516 :	1111111111111111;
	515 :	0000000000001111;
	514 :	1111111111011101;
	513 :	1111111111110010;
	512 :	0000000000011000;
	511 :	1111111111001100;
	510 :	1111111111010100;
	509 :	1111111111100001;
	508 :	0000000000011011;
	507 :	0000000000101010;
	506 :	1111111111010110;
	505 :	0000000000000100;
	504 :	1111111111101110;
	503 :	0000000001010011;
	502 :	1111111111001111;
	501 :	0000000000001000;
	500 :	1111111111011010;
	499 :	1111111111011111;
	498 :	1111111111111100;
	497 :	0000000000101101;
	496 :	1111111111100101;
	495 :	1111111111100011;
	494 :	1111111111111011;
	493 :	0000000000001001;
	492 :	0000000000011000;
	491 :	1111111111011110;
	490 :	1111111111110100;
	489 :	1111111111110011;
	488 :	1111111111010010;
	487 :	1111111111110111;
	486 :	0000000000000000;
	485 :	0000000000001100;
	484 :	0000000000011111;
	483 :	0000000000010110;
	482 :	1111111111110010;
	481 :	1111111111100111;
	480 :	1111111111010011;
	479 :	0000000000010101;
	478 :	1111111111111100;
	477 :	1111111111110110;
	476 :	1111111111111001;
	475 :	1111111110111011;
	474 :	1111111111100101;
	473 :	0000000000000101;
	472 :	0000000000001010;
	471 :	0000000000000100;
	470 :	1111111111110001;
	469 :	0000000000010001;
	468 :	1111111111111101;
	467 :	0000000000000111;
	466 :	0000000000000010;
	465 :	1111111111010011;
	464 :	0000000000111110;
	463 :	1111111110110110;
	462 :	1111111111011100;
	461 :	1111111111110110;
	460 :	0000000000101010;
	459 :	0000000000100001;
	458 :	1111111111011011;
	457 :	0000000000101011;
	456 :	1111111111111110;
	455 :	1111111111100110;
	454 :	1111111111010010;
	453 :	1111111111010110;
	452 :	0000000000011100;
	451 :	0000000000001000;
	450 :	1111111111100011;
	449 :	0000000000011111;
	448 :	1111111111110100;
	447 :	0000000000001010;
	446 :	1111111111101101;
	445 :	1111111111111000;
	444 :	1111111111110000;
	443 :	1111111111100101;
	442 :	1111111110111101;
	441 :	1111111111100101;
	440 :	0000000000000011;
	439 :	1111111111110110;
	438 :	1111111111110011;
	437 :	0000000000000100;
	436 :	1111111111101010;
	435 :	0000000000010010;
	434 :	0000000000111000;
	433 :	1111111111100011;
	432 :	1111111111010101;
	431 :	0000000000000110;
	430 :	0000000000000110;
	429 :	0000000000001000;
	428 :	0000000000000000;
	427 :	1111111111110111;
	426 :	1111111111100000;
	425 :	0000000000000010;
	424 :	0000000000000001;
	423 :	1111111111010100;
	422 :	1111111111111011;
	421 :	0000000000000010;
	420 :	1111111111101011;
	419 :	0000000000101111;
	418 :	0000000000100001;
	417 :	0000000000110001;
	416 :	0000000000000000;
	415 :	1111111111110100;
	414 :	0000000000011000;
	413 :	1111111111100110;
	412 :	0000000000010111;
	411 :	0000000000010011;
	410 :	0000000000100011;
	409 :	1111111111011000;
	408 :	0000000000000100;
	407 :	1111111111100101;
	406 :	0000000000110101;
	405 :	0000000000111001;
	404 :	1111111111101011;
	403 :	0000000000000011;
	402 :	1111111111111111;
	401 :	0000000000000011;
	400 :	1111111111110101;
	399 :	0000000000010101;
	398 :	1111111111101111;
	397 :	0000000000001110;
	396 :	1111111110111101;
	395 :	1111111111111010;
	394 :	0000000000011111;
	393 :	1111111111110001;
	392 :	1111111111111011;
	391 :	0000000000101010;
	390 :	1111111111011000;
	389 :	0000000000111111;
	388 :	1111111111011111;
	387 :	1111111111111111;
	386 :	0000000000000010;
	385 :	0000000000001100;
	384 :	1111111111100101;
	383 :	1111111111110001;
	382 :	1111111111010000;
	381 :	0000000000010010;
	380 :	1111111111110000;
	379 :	0000000000010111;
	378 :	1111111111010011;
	377 :	0000000000001001;
	376 :	1111111111101001;
	375 :	1111111111100000;
	374 :	0000000000100001;
	373 :	1111111111011101;
	372 :	1111111111111001;
	371 :	0000000000011101;
	370 :	0000000000010010;
	369 :	1111111111110001;
	368 :	0000000000100000;
	367 :	1111111111001100;
	366 :	0000000000010100;
	365 :	1111111111110111;
	364 :	1111111111101000;
	363 :	1111111111010001;
	362 :	1111111111001001;
	361 :	1111111111011011;
	360 :	1111111111110000;
	359 :	1111111111111110;
	358 :	0000000000000000;
	357 :	1111111111111000;
	356 :	0000000000101001;
	355 :	1111111111000010;
	354 :	0000000000000101;
	353 :	1111111111111000;
	352 :	0000000000001101;
	351 :	1111111111101000;
	350 :	1111111111101110;
	349 :	0000000000000100;
	348 :	1111111111101010;
	347 :	0000000000000000;
	346 :	1111111111101011;
	345 :	0000000000000000;
	344 :	1111111111110100;
	343 :	1111111111101111;
	342 :	0000000000101001;
	341 :	0000000000000110;
	340 :	0000000000001110;
	339 :	1111111111011110;
	338 :	1111111111001111;
	337 :	1111111111101111;
	336 :	0000000000000000;
	335 :	1111111111100100;
	334 :	0000000000110100;
	333 :	1111111111100110;
	332 :	1111111111100111;
	331 :	0000000000000100;
	330 :	1111111111100011;
	329 :	1111111111100011;
	328 :	0000000000000101;
	327 :	0000000000000110;
	326 :	0000000000000100;
	325 :	0000000000000000;
	324 :	1111111111010010;
	323 :	1111111111011110;
	322 :	1111111111001111;
	321 :	1111111111101000;
	320 :	0000000000101111;
	319 :	0000000000000000;
	318 :	0000000000010011;
	317 :	0000000000001010;
	316 :	1111111111101001;
	315 :	0000000000011110;
	314 :	0000000000000000;
	313 :	1111111111111101;
	312 :	1111111111111110;
	311 :	1111111111010010;
	310 :	1111111111110011;
	309 :	1111111111110010;
	308 :	0000000000001001;
	307 :	1111111111100101;
	306 :	1111111111100110;
	305 :	0000000000000011;
	304 :	0000000000011100;
	303 :	0000000000001001;
	302 :	1111111111100100;
	301 :	1111111111101100;
	300 :	0000000000001010;
	299 :	0000000000000001;
	298 :	0000000000100010;
	297 :	1111111111110001;
	296 :	1111111111101101;
	295 :	1111111111110110;
	294 :	0000000000011111;
	293 :	1111111111010000;
	292 :	0000000000001001;
	291 :	1111111111101011;
	290 :	1111111111011011;
	289 :	1111111111001001;
	288 :	0000000000000010;
	287 :	0000000000000011;
	286 :	0000000001001001;
	285 :	0000000000001000;
	284 :	1111111111101101;
	283 :	0000000000000010;
	282 :	0000000000010110;
	281 :	0000000000011111;
	280 :	1111111111100001;
	279 :	0000000000110111;
	278 :	0000000000011000;
	277 :	0000000000001010;
	276 :	1111111111110010;
	275 :	1111111111101100;
	274 :	1111111111101011;
	273 :	0000000000100000;
	272 :	1111111110111001;
	271 :	0000000000000000;
	270 :	0000000000110000;
	269 :	0000000000001011;
	268 :	0000000000101001;
	267 :	0000000000001100;
	266 :	0000000000001110;
	265 :	1111111111110101;
	264 :	0000000000001100;
	263 :	0000000000010101;
	262 :	0000000000101010;
	261 :	0000000000001101;
	260 :	1111111111110001;
	259 :	1111111111011100;
	258 :	0000000000110000;
	257 :	0000000000000111;
	256 :	0000000001000101;
	255 :	0000000000000101;
	254 :	0000000000101001;
	253 :	0000000000000000;
	252 :	1111111111000101;
	251 :	0000000000001000;
	250 :	0000000000010110;
	249 :	0000000001001000;
	248 :	1111111111011001;
	247 :	1111111110110101;
	246 :	0000000000101011;
	245 :	1111111111100011;
	244 :	1111111111011101;
	243 :	0000000000010000;
	242 :	1111111111110010;
	241 :	1111111111101010;
	240 :	1111111111100110;
	239 :	0000000000000111;
	238 :	1111111111101011;
	237 :	0000000000000000;
	236 :	1111111111010101;
	235 :	0000000000000100;
	234 :	0000000000000101;
	233 :	0000000000000010;
	232 :	0000000000010110;
	231 :	1111111111111011;
	230 :	1111111111110101;
	229 :	1111111111110010;
	228 :	0000000000001111;
	227 :	0000000000101001;
	226 :	1111111111011101;
	225 :	0000000000000010;
	224 :	0000000000100111;
	223 :	1111111111101100;
	222 :	1111111111101110;
	221 :	1111111111101011;
	220 :	1111111111111000;
	219 :	1111111111001011;
	218 :	1111111111101001;
	217 :	0000000000010000;
	216 :	0000000000011010;
	215 :	0000000000100011;
	214 :	1111111111111110;
	213 :	0000000001001111;
	212 :	0000000000011101;
	211 :	1111111111010001;
	210 :	1111111111101011;
	209 :	0000000000010111;
	208 :	0000000000100101;
	207 :	1111111111011010;
	206 :	1111111111111110;
	205 :	1111111110110110;
	204 :	0000000000010101;
	203 :	1111111111111000;
	202 :	0000000000001110;
	201 :	0000000000001010;
	200 :	1111111111111010;
	199 :	1111111111110001;
	198 :	0000000000111001;
	197 :	0000000000001110;
	196 :	0000000000101011;
	195 :	0000000000011110;
	194 :	1111111111010110;
	193 :	0000000000011100;
	192 :	0000000000011101;
	191 :	0000000000010100;
	190 :	1111111111010001;
	189 :	1111111111111110;
	188 :	0000000000000100;
	187 :	1111111111000100;
	186 :	1111111111111111;
	185 :	0000000000000101;
	184 :	1111111111101101;
	183 :	0000000000110000;
	182 :	0000000000001000;
	181 :	1111111111011011;
	180 :	0000000000110100;
	179 :	0000000000110010;
	178 :	1111111111010001;
	177 :	0000000000011101;
	176 :	0000000000000101;
	175 :	0000000000001011;
	174 :	1111111111011110;
	173 :	0000000000001011;
	172 :	1111111111110001;
	171 :	0000000000011011;
	170 :	0000000000100011;
	169 :	1111111111011100;
	168 :	1111111111100001;
	167 :	0000000000000000;
	166 :	1111111111110001;
	165 :	1111111110111111;
	164 :	0000000000001000;
	163 :	1111111111100111;
	162 :	1111111111000001;
	161 :	0000000000011110;
	160 :	1111111111101000;
	159 :	0000000000000101;
	158 :	0000000000101001;
	157 :	0000000000010110;
	156 :	1111111111111110;
	155 :	0000000000101100;
	154 :	1111111111011010;
	153 :	0000000000101100;
	152 :	0000000001000011;
	151 :	0000000000011000;
	150 :	0000000000001110;
	149 :	1111111111110100;
	148 :	0000000000101001;
	147 :	0000000000011001;
	146 :	1111111111010010;
	145 :	0000000000001111;
	144 :	1111111111110011;
	143 :	0000000000100000;
	142 :	1111111111111111;
	141 :	0000000000010010;
	140 :	1111111111110111;
	139 :	0000000000000000;
	138 :	0000000000100110;
	137 :	0000000000010000;
	136 :	0000000000011101;
	135 :	1111111111110001;
	134 :	0000000000010000;
	133 :	0000000000100111;
	132 :	0000000000010111;
	131 :	0000000000101100;
	130 :	1111111111110011;
	129 :	1111111111111101;
	128 :	0000000000110001;
	127 :	1111111111010110;
	126 :	0000000000000000;
	125 :	0000000000001010;
	124 :	0000000000100001;
	123 :	1111111111111100;
	122 :	1111111111110100;
	121 :	0000000000000000;
	120 :	1111111111111110;
	119 :	0000000000100100;
	118 :	1111111111010111;
	117 :	0000000000000000;
	116 :	0000000000000100;
	115 :	1111111111110101;
	114 :	1111111111101110;
	113 :	1111111111000011;
	112 :	0000000000100111;
	111 :	1111111111101110;
	110 :	1111111111101011;
	109 :	0000000000000010;
	108 :	1111111111111010;
	107 :	1111111111000100;
	106 :	1111111111110010;
	105 :	1111111111001111;
	104 :	1111111111101011;
	103 :	1111111111010010;
	102 :	0000000000010111;
	101 :	1111111111111001;
	100 :	1111111110111111;
	99 :	1111111111111000;
	98 :	0000000000100011;
	97 :	1111111111111000;
	96 :	1111111110111100;
	95 :	1111111111010101;
	94 :	0000000000010100;
	93 :	1111111111101001;
	92 :	1111111111111111;
	91 :	0000000000001011;
	90 :	1111111111001011;
	89 :	1111111111110110;
	88 :	1111111110111011;
	87 :	1111111111100000;
	86 :	0000000000001111;
	85 :	0000000000100010;
	84 :	1111111111110101;
	83 :	1111111111111101;
	82 :	0000000000001001;
	81 :	1111111111110111;
	80 :	1111111111101000;
	79 :	1111111111000011;
	78 :	1111111110111100;
	77 :	0000000000100010;
	76 :	1111111111001011;
	75 :	0000000000001101;
	74 :	1111111111111110;
	73 :	0000000000100011;
	72 :	1111111110111010;
	71 :	1111111111011010;
	70 :	0000000000110110;
	69 :	0000000000011101;
	68 :	0000000000111000;
	67 :	1111111111110011;
	66 :	0000000000001101;
	65 :	1111111111111101;
	64 :	1111111111111111;
	63 :	0000000000001010;
	62 :	1111111111101110;
	61 :	0000000000010100;
	60 :	0000000000011100;
	59 :	0000000000111111;
	58 :	0000000000101111;
	57 :	1111111111111011;
	56 :	0000000000110100;
	55 :	1111111111101011;
	54 :	1111111111101010;
	53 :	1111111111110110;
	52 :	0000000000010101;
	51 :	1111111111111110;
	50 :	1111111111110100;
	49 :	1111111111111011;
	48 :	0000000000101011;
	47 :	1111111111110011;
	46 :	1111111111110110;
	45 :	0000000000000000;
	44 :	0000000000011000;
	43 :	0000000000010100;
	42 :	1111111111111111;
	41 :	1111111111101100;
	40 :	1111111111100110;
	39 :	1111111111010110;
	38 :	0000000000101011;
	37 :	0000000000101111;
	36 :	0000000001001111;
	35 :	1111111110110010;
	34 :	1111111111010001;
	33 :	0000000000001000;
	32 :	1111111111111100;
	31 :	0000000000011111;
	30 :	1111111111101011;
	29 :	1111111111011011;
	28 :	0000000000000001;
	27 :	0000000000001110;
	26 :	0000000000001101;
	25 :	0000000000001101;
	24 :	0000000000101110;
	23 :	1111111111011101;
	22 :	0000000000010110;
	21 :	1111111111011001;
	20 :	1111111111110010;
	19 :	1111111111100100;
	18 :	0000000000010101;
	17 :	0000000000001001;
	16 :	1111111111110001;
	15 :	1111111111110001;
	14 :	0000000000010101;
	13 :	1111111111101011;
	12 :	0000000000000010;
	11 :	0000000000000100;
	10 :	0000000000101001;
	9 :	0000000000100101;
	8 :	0000000000010000;
	7 :	1111111111010000;
	6 :	0000000000010111;
	5 :	0000000000111010;
	4 :	1111111111101011;
	3 :	1111111111100110;
	2 :	0000000000001110;
	1 :	1111111111111111;
	0 :	0000000000111111;
END;
