-- begin_signature
-- Weight_Memory(numWeight
-- 784
-- neuronNo
-- 25
-- layerNo
-- 1
-- addressWidth
-- 10
-- dataWidth
-- 16
-- weightFile
-- "w_1_25.hex")
-- end_signature
WIDTH=16;
DEPTH=784;

ADDRESS_RADIX=UNS;
DATA_RADIX=BIN;

CONTENT BEGIN
	783 :	0000000000001010;
	782 :	0000000000000000;
	781 :	1111111111101000;
	780 :	1111111111100001;
	779 :	1111111111110100;
	778 :	0000000000100101;
	777 :	0000000000001000;
	776 :	0000000000000011;
	775 :	0000000001010110;
	774 :	0000000000111110;
	773 :	1111111111100000;
	772 :	0000000000001010;
	771 :	0000000001000110;
	770 :	0000000010111011;
	769 :	0000000001101100;
	768 :	0000000000100010;
	767 :	0000000000001010;
	766 :	0000000000001010;
	765 :	0000000001010111;
	764 :	0000000010010100;
	763 :	0000000001000110;
	762 :	0000000000110001;
	761 :	0000000000001111;
	760 :	1111111111111000;
	759 :	0000000000101011;
	758 :	1111111111101110;
	757 :	1111111110101110;
	756 :	1111111111100010;
	755 :	1111111111011111;
	754 :	1111111111011001;
	753 :	0000000000110100;
	752 :	0000000000010100;
	751 :	0000000000001011;
	750 :	0000000001101110;
	749 :	0000000011101101;
	748 :	0000000011010001;
	747 :	0000000000110001;
	746 :	0000000100000110;
	745 :	0000000100101101;
	744 :	0000000100101010;
	743 :	0000000011100101;
	742 :	0000000101110000;
	741 :	1111111111011100;
	740 :	1111111011011110;
	739 :	0000000001001110;
	738 :	0000000101001100;
	737 :	0000001000011001;
	736 :	0000000111001110;
	735 :	0000000101010110;
	734 :	0000000100000000;
	733 :	0000000011000101;
	732 :	0000000000011110;
	731 :	1111111110111011;
	730 :	0000000000100001;
	729 :	0000000000011111;
	728 :	0000000000000111;
	727 :	0000000000110001;
	726 :	1111111110110101;
	725 :	1111111111100011;
	724 :	1111111110011101;
	723 :	1111111111100011;
	722 :	0000000000001100;
	721 :	0000000010011010;
	720 :	0000000110001100;
	719 :	0000000101000011;
	718 :	0000000110111000;
	717 :	0000000011000110;
	716 :	0000000000101001;
	715 :	1111110011110100;
	714 :	0000000010111111;
	713 :	1111111100100011;
	712 :	0000000010011111;
	711 :	0000000010101011;
	710 :	0000000100010100;
	709 :	0000000011101110;
	708 :	0000000000000011;
	707 :	1111111101000000;
	706 :	1111111110101001;
	705 :	1111111111111111;
	704 :	1111111111010011;
	703 :	1111111111101110;
	702 :	1111111111011100;
	701 :	0000000000011011;
	700 :	0000000000101101;
	699 :	0000000000111000;
	698 :	1111111111010111;
	697 :	1111111110100000;
	696 :	1111111101100101;
	695 :	0000000011011010;
	694 :	0000000000100010;
	693 :	1111111111111001;
	692 :	0000000101101111;
	691 :	0000000100000111;
	690 :	1111111111000010;
	689 :	0000001011110011;
	688 :	0000001000011100;
	687 :	0000000010010110;
	686 :	1111111001101101;
	685 :	1111110110011000;
	684 :	1111111000100010;
	683 :	0000000010011110;
	682 :	0000001000001000;
	681 :	0000000110100101;
	680 :	1111111101010101;
	679 :	1111111001010100;
	678 :	1111111011100101;
	677 :	1111111100101110;
	676 :	1111111100010101;
	675 :	0000000000000010;
	674 :	1111111111101001;
	673 :	1111111111111010;
	672 :	0000000000101101;
	671 :	0000000000100011;
	670 :	0000000000001100;
	669 :	1111111111100111;
	668 :	0000000001110111;
	667 :	0000000011011010;
	666 :	0000000000110010;
	665 :	0000000000010001;
	664 :	1111111011001100;
	663 :	1111111010101010;
	662 :	1111111111110000;
	661 :	0000000101011001;
	660 :	1111111111100001;
	659 :	0000000110110010;
	658 :	0000001001101001;
	657 :	1111111111101110;
	656 :	1111111100110100;
	655 :	0000000001001001;
	654 :	0000000011100110;
	653 :	1111111010100000;
	652 :	1111111001101101;
	651 :	1111110111000100;
	650 :	1111111001011000;
	649 :	1111111101010011;
	648 :	1111111101100011;
	647 :	0000000000010010;
	646 :	1111111111000011;
	645 :	0000000000001001;
	644 :	0000000000010011;
	643 :	1111111111110100;
	642 :	0000000000100010;
	641 :	0000000000010010;
	640 :	0000000011011000;
	639 :	0000000011000000;
	638 :	1111111101111111;
	637 :	1111110110010111;
	636 :	1111111000000101;
	635 :	1111101111111110;
	634 :	1111110110000110;
	633 :	1111111110011010;
	632 :	1111111110101000;
	631 :	1111111100011001;
	630 :	0000000100101101;
	629 :	0000000100110100;
	628 :	0000000110001100;
	627 :	0000000110110111;
	626 :	0000000001101010;
	625 :	1111110111111000;
	624 :	1111110010010110;
	623 :	1111110100011101;
	622 :	1111111010110111;
	621 :	1111111101111110;
	620 :	1111111111001110;
	619 :	1111111111010000;
	618 :	0000000000011110;
	617 :	1111111111101010;
	616 :	0000000000011100;
	615 :	0000000000001000;
	614 :	1111111111110001;
	613 :	1111111111010000;
	612 :	0000000011110010;
	611 :	1111111110101101;
	610 :	1111111001011001;
	609 :	1111110110000001;
	608 :	1111110111011010;
	607 :	1111110011111001;
	606 :	1111110001101110;
	605 :	1111111011010101;
	604 :	0000001000100001;
	603 :	1111111101011011;
	602 :	1111110101001111;
	601 :	1111110110111111;
	600 :	1111111011000010;
	599 :	1111101000111001;
	598 :	1111101011001000;
	597 :	1111101010101010;
	596 :	1111101011000101;
	595 :	1111101110101010;
	594 :	1111110111001101;
	593 :	1111111110111111;
	592 :	1111111111011000;
	591 :	1111111110001010;
	590 :	0000000000001101;
	589 :	0000000000100101;
	588 :	1111111111110111;
	587 :	1111111111100001;
	586 :	0000000000111001;
	585 :	0000000001100001;
	584 :	0000000010000010;
	583 :	1111111110111010;
	582 :	1111110110001010;
	581 :	1111110000101010;
	580 :	1111110111101100;
	579 :	1111111010111001;
	578 :	1111111011111110;
	577 :	1111111100010111;
	576 :	0000000101011100;
	575 :	1111111011111111;
	574 :	1111111110001110;
	573 :	1111110110001101;
	572 :	1111101111111111;
	571 :	1111101110010111;
	570 :	1111110001000011;
	569 :	1111101111110010;
	568 :	1111110100011011;
	567 :	1111110001111001;
	566 :	1111110111101111;
	565 :	1111111110011011;
	564 :	1111111111001000;
	563 :	1111111111101111;
	562 :	0000000000100100;
	561 :	1111111111010100;
	560 :	0000000000011101;
	559 :	1111111111010101;
	558 :	1111111111111001;
	557 :	0000000001000111;
	556 :	0000000000100100;
	555 :	1111111010011110;
	554 :	1111110010101100;
	553 :	1111110110101001;
	552 :	1111111110010110;
	551 :	0000001001100000;
	550 :	1111111011111111;
	549 :	1111111010011010;
	548 :	0000001110011011;
	547 :	0000000011110111;
	546 :	1111111011000011;
	545 :	1111111111011111;
	544 :	0000000100110110;
	543 :	0000000000010011;
	542 :	1111110110111011;
	541 :	1111111010101011;
	540 :	1111111101101111;
	539 :	0000000000111010;
	538 :	1111110101010111;
	537 :	1111111100010111;
	536 :	1111111010110111;
	535 :	1111111101011101;
	534 :	0000000000100100;
	533 :	1111111111001001;
	532 :	1111111111101001;
	531 :	1111111111010011;
	530 :	1111111111000011;
	529 :	1111111101111111;
	528 :	1111111100010110;
	527 :	1111110111100000;
	526 :	1111110110110010;
	525 :	1111111011011100;
	524 :	0000000100101011;
	523 :	1111111100010101;
	522 :	0000000001110110;
	521 :	0000000110110100;
	520 :	0000000010010000;
	519 :	1111110110110001;
	518 :	1111110001101011;
	517 :	1111110100011111;
	516 :	1111111001011011;
	515 :	0000000110010011;
	514 :	1111111111001100;
	513 :	0000000000000010;
	512 :	0000000011111101;
	511 :	0000001000111010;
	510 :	1111110111111110;
	509 :	1111110000101010;
	508 :	1111111011010101;
	507 :	1111111010011011;
	506 :	1111111111100101;
	505 :	1111111111100000;
	504 :	0000000001001000;
	503 :	0000000001010000;
	502 :	0000000000101110;
	501 :	1111111111001110;
	500 :	1111111001111001;
	499 :	1111111100000011;
	498 :	1111111011111110;
	497 :	1111111101010111;
	496 :	1111111010011100;
	495 :	1111111000011111;
	494 :	0000001100100010;
	493 :	1111111010110011;
	492 :	0000000010101111;
	491 :	0000000011011111;
	490 :	1111110101100111;
	489 :	1111110110001111;
	488 :	1111111101111101;
	487 :	1111110110000111;
	486 :	1111111001100001;
	485 :	1111111100100010;
	484 :	0000001000101010;
	483 :	0000001100110100;
	482 :	1111111011101000;
	481 :	1111110101101010;
	480 :	1111111000110101;
	479 :	1111111011010111;
	478 :	1111111111001101;
	477 :	1111111111010011;
	476 :	0000000000001100;
	475 :	1111111111100011;
	474 :	0000000010010100;
	473 :	0000000000000011;
	472 :	1111111000101110;
	471 :	1111111101100010;
	470 :	0000000010000101;
	469 :	1111111110101110;
	468 :	0000000010100011;
	467 :	1111111001001111;
	466 :	0000001001100011;
	465 :	0000001001001001;
	464 :	0000000110010001;
	463 :	1111110110100110;
	462 :	1111101110000000;
	461 :	1111110001011001;
	460 :	1111111010000011;
	459 :	1111111100010110;
	458 :	1111111011011101;
	457 :	1111111000011001;
	456 :	0000001000011101;
	455 :	0000000101110111;
	454 :	0000000000110001;
	453 :	1111111100001100;
	452 :	1111111001101101;
	451 :	1111111010111101;
	450 :	1111111111000011;
	449 :	0000000000001111;
	448 :	0000000000100001;
	447 :	0000000000000100;
	446 :	0000000011000110;
	445 :	1111111111001100;
	444 :	1111110011110001;
	443 :	1111110110010010;
	442 :	0000000110111001;
	441 :	0000000000110010;
	440 :	0000000010100100;
	439 :	0000000111011011;
	438 :	0000000100111111;
	437 :	0000001000000011;
	436 :	0000001011111111;
	435 :	1111111000000010;
	434 :	1111101010101101;
	433 :	1111110011010111;
	432 :	1111110111010111;
	431 :	1111111110111110;
	430 :	0000000000010011;
	429 :	0000000000111101;
	428 :	0000000001001010;
	427 :	1111111110011101;
	426 :	0000000011111111;
	425 :	0000000010001110;
	424 :	0000000001101100;
	423 :	1111111011100101;
	422 :	1111111110110001;
	421 :	1111111111111010;
	420 :	1111111111001011;
	419 :	1111111111110001;
	418 :	0000000000011100;
	417 :	1111111110001011;
	416 :	1111110001001100;
	415 :	1111110110001010;
	414 :	0000000100010111;
	413 :	1111111110111101;
	412 :	0000000101001100;
	411 :	0000001011110101;
	410 :	0000001000101111;
	409 :	0000000101110010;
	408 :	0000001010110110;
	407 :	0000000010001000;
	406 :	1111111100000010;
	405 :	1111111111010000;
	404 :	1111111110010001;
	403 :	1111111011100101;
	402 :	1111111101101110;
	401 :	0000000111001111;
	400 :	0000001010011011;
	399 :	0000001010100000;
	398 :	0000000100001100;
	397 :	0000000010101111;
	396 :	0000001100000000;
	395 :	1111111101110100;
	394 :	1111111110101001;
	393 :	0000000000010000;
	392 :	0000000000010000;
	391 :	0000000000010001;
	390 :	0000000000010001;
	389 :	1111111011100111;
	388 :	1111110000001010;
	387 :	1111110011001010;
	386 :	0000000010001010;
	385 :	0000001011101110;
	384 :	0000001011011000;
	383 :	0000001001000110;
	382 :	0000000110010000;
	381 :	0000010011001010;
	380 :	0000001101010110;
	379 :	0000000010000010;
	378 :	1111111011001011;
	377 :	1111111110010100;
	376 :	0000000001110111;
	375 :	1111110111001101;
	374 :	1111111111111000;
	373 :	0000000011100111;
	372 :	0000000111111011;
	371 :	0000001000101011;
	370 :	0000000110010101;
	369 :	0000001110101011;
	368 :	0000001101011111;
	367 :	1111111010110001;
	366 :	1111111111110100;
	365 :	1111111111110011;
	364 :	0000000000000110;
	363 :	0000000000011010;
	362 :	1111111111100001;
	361 :	1111111010010010;
	360 :	1111110011011111;
	359 :	0000000001011101;
	358 :	0000000111110110;
	357 :	0000001010001100;
	356 :	1111111110101110;
	355 :	0000000111001010;
	354 :	0000001000000001;
	353 :	0000001101000110;
	352 :	0000000100111100;
	351 :	0000000111011111;
	350 :	1111111000101101;
	349 :	1111111000100010;
	348 :	1111110010001111;
	347 :	1111111100101000;
	346 :	0000000011000101;
	345 :	0000001010011110;
	344 :	0000001001001010;
	343 :	0000000111101110;
	342 :	0000001010101001;
	341 :	0000000010000111;
	340 :	0000000100001110;
	339 :	1111111010010101;
	338 :	1111111111101001;
	337 :	1111111111100000;
	336 :	1111111111010111;
	335 :	1111111111110001;
	334 :	1111111110001001;
	333 :	1111111100100111;
	332 :	1111110100011010;
	331 :	0000000001101111;
	330 :	0000001011010100;
	329 :	0000000111101111;
	328 :	0000001000001100;
	327 :	1111111111001001;
	326 :	0000000011001101;
	325 :	0000010010010010;
	324 :	0000000011111110;
	323 :	0000000111000000;
	322 :	1111111000110000;
	321 :	1111110110101011;
	320 :	1111111101101000;
	319 :	0000000101000111;
	318 :	0000001001101101;
	317 :	0000000111110001;
	316 :	0000000100011101;
	315 :	0000000100110100;
	314 :	0000001010010001;
	313 :	1111111101011010;
	312 :	1111110111011100;
	311 :	1111111010000110;
	310 :	1111111111010010;
	309 :	0000000000001011;
	308 :	0000000000110100;
	307 :	0000000000000101;
	306 :	1111111110011010;
	305 :	1111111110111000;
	304 :	1111110110011000;
	303 :	1111111111100111;
	302 :	0000000101001101;
	301 :	1111111110001010;
	300 :	0000001000000100;
	299 :	0000000110001001;
	298 :	1111111111001001;
	297 :	0000000001101010;
	296 :	1111111110010110;
	295 :	0000000110010111;
	294 :	1111111001100111;
	293 :	1111110100110011;
	292 :	1111111111111001;
	291 :	1111111111001000;
	290 :	0000000110111101;
	289 :	0000000010010011;
	288 :	1111111111111000;
	287 :	1111111110100110;
	286 :	0000000110010010;
	285 :	1111111000011000;
	284 :	1111110111011001;
	283 :	1111111110011110;
	282 :	0000000000001001;
	281 :	1111111111010001;
	280 :	1111111111111010;
	279 :	0000000000010010;
	278 :	1111111111010100;
	277 :	1111111101010010;
	276 :	1111111000001111;
	275 :	1111111100100110;
	274 :	1111111110011110;
	273 :	1111111001000001;
	272 :	0000000110100001;
	271 :	1111110110111011;
	270 :	0000000010101111;
	269 :	0000000101111011;
	268 :	0000000001011101;
	267 :	0000001110000011;
	266 :	1111111110011111;
	265 :	1111110100011011;
	264 :	1111111011110101;
	263 :	0000000101011000;
	262 :	1111111100100000;
	261 :	1111111001011011;
	260 :	0000000001100000;
	259 :	1111111001000001;
	258 :	1111111011000110;
	257 :	1111111010110011;
	256 :	1111111001010110;
	255 :	1111111110010011;
	254 :	1111111111000000;
	253 :	1111111111010101;
	252 :	1111111111111110;
	251 :	1111111111001001;
	250 :	0000000000101000;
	249 :	1111111011101100;
	248 :	1111111011000111;
	247 :	1111111001100000;
	246 :	1111111000010101;
	245 :	1111111011111000;
	244 :	1111111100110111;
	243 :	1111111010111011;
	242 :	0000000001000001;
	241 :	0000000010110001;
	240 :	1111111011000100;
	239 :	0000000101110110;
	238 :	0000000000111100;
	237 :	1111111010000010;
	236 :	1111110110110000;
	235 :	1111111010100000;
	234 :	1111111101010111;
	233 :	1111110110110101;
	232 :	0000000000001101;
	231 :	1111101110101010;
	230 :	1111111011010011;
	229 :	1111111001100101;
	228 :	1111110111011011;
	227 :	1111111101001110;
	226 :	0000000000111110;
	225 :	1111111110101010;
	224 :	1111111111111110;
	223 :	0000000000011110;
	222 :	0000000001100000;
	221 :	1111111111001111;
	220 :	1111111110011101;
	219 :	0000000000001101;
	218 :	0000000000001100;
	217 :	1111111001011111;
	216 :	0000000011101010;
	215 :	0000000010100010;
	214 :	1111111101111111;
	213 :	0000001000111000;
	212 :	0000000101110011;
	211 :	0000001100000000;
	210 :	0000000011111101;
	209 :	0000001001011111;
	208 :	1111111110101010;
	207 :	1111111100011000;
	206 :	1111111111100000;
	205 :	1111111111011101;
	204 :	1111111100110100;
	203 :	1111111110110100;
	202 :	1111111011010101;
	201 :	1111110100101011;
	200 :	1111111000100011;
	199 :	0000000000001001;
	198 :	0000000000001110;
	197 :	0000000000000011;
	196 :	1111111111111110;
	195 :	1111111111010010;
	194 :	0000000000011101;
	193 :	0000000000101010;
	192 :	0000000001000001;
	191 :	1111111111001011;
	190 :	1111111101110110;
	189 :	1111111100001110;
	188 :	0000000010010101;
	187 :	0000000010101110;
	186 :	0000001000001111;
	185 :	0000000000101011;
	184 :	0000000111011001;
	183 :	1111111101001110;
	182 :	0000000000001101;
	181 :	0000001100100010;
	180 :	0000001001001101;
	179 :	0000000101011100;
	178 :	1111111111100100;
	177 :	1111111110000101;
	176 :	1111111110101011;
	175 :	1111111101001001;
	174 :	1111111011011110;
	173 :	1111111001101110;
	172 :	1111111011111110;
	171 :	1111111111100001;
	170 :	1111111111110100;
	169 :	0000000000011100;
	168 :	1111111111100110;
	167 :	0000000000011011;
	166 :	0000000000101001;
	165 :	1111111110111001;
	164 :	0000000001100010;
	163 :	0000000001111010;
	162 :	1111111111001110;
	161 :	0000000000111110;
	160 :	1111111101010111;
	159 :	1111111000000010;
	158 :	1111111010110110;
	157 :	1111111000001010;
	156 :	1111111110001000;
	155 :	1111111100101001;
	154 :	1111110111110010;
	153 :	0000000100100010;
	152 :	0000000010011000;
	151 :	0000000110111101;
	150 :	1111111100000011;
	149 :	1111111011001111;
	148 :	1111111001010010;
	147 :	1111110111001011;
	146 :	1111111001110100;
	145 :	1111111101001010;
	144 :	1111111110111110;
	143 :	1111111111110001;
	142 :	1111111111100011;
	141 :	1111111111110010;
	140 :	0000000000101110;
	139 :	1111111111110110;
	138 :	0000000001010000;
	137 :	0000000000001000;
	136 :	0000000000100011;
	135 :	0000000000101011;
	134 :	0000000000011011;
	133 :	0000000001000100;
	132 :	1111111110000011;
	131 :	1111111010110101;
	130 :	0000000000000000;
	129 :	1111111101100010;
	128 :	1111110011010100;
	127 :	1111110000010010;
	126 :	1111101011010111;
	125 :	1111100110000100;
	124 :	1111101000111000;
	123 :	1111101111000101;
	122 :	1111110000110100;
	121 :	1111110111011100;
	120 :	1111110110100000;
	119 :	1111111001011010;
	118 :	1111111100000000;
	117 :	1111111110110001;
	116 :	0000000000100100;
	115 :	1111111111010001;
	114 :	0000000000011010;
	113 :	0000000000000101;
	112 :	1111111111101110;
	111 :	0000000000001100;
	110 :	1111111111110001;
	109 :	0000000000001011;
	108 :	1111111110110100;
	107 :	0000000000011100;
	106 :	0000000000110000;
	105 :	0000000000000100;
	104 :	0000000000001010;
	103 :	0000000011101000;
	102 :	0000000010010110;
	101 :	1111111111000100;
	100 :	1111111101111111;
	99 :	1111111100010111;
	98 :	1111110110100010;
	97 :	1111101111011011;
	96 :	1111110110100110;
	95 :	1111111000111010;
	94 :	1111111001101111;
	93 :	1111111001101110;
	92 :	1111111001110101;
	91 :	1111111010110111;
	90 :	1111111110010111;
	89 :	1111111111110110;
	88 :	1111111111110111;
	87 :	0000000000001000;
	86 :	0000000000011100;
	85 :	1111111111111010;
	84 :	1111111111101100;
	83 :	0000000000000000;
	82 :	0000000000100100;
	81 :	1111111111100101;
	80 :	1111111111100100;
	79 :	1111111111000101;
	78 :	1111111110111011;
	77 :	1111111111101111;
	76 :	1111111111000011;
	75 :	1111111110101100;
	74 :	1111111111000111;
	73 :	1111111110001011;
	72 :	1111111110001001;
	71 :	1111111100011010;
	70 :	1111111010010001;
	69 :	1111111001111111;
	68 :	1111111001100001;
	67 :	1111111011111010;
	66 :	1111111100001001;
	65 :	1111111101011010;
	64 :	1111111101000110;
	63 :	1111111101100100;
	62 :	1111111110110000;
	61 :	0000000000111010;
	60 :	1111111111101100;
	59 :	1111111111011001;
	58 :	0000000001000111;
	57 :	1111111111111011;
	56 :	1111111111111001;
	55 :	1111111111101010;
	54 :	0000000000001100;
	53 :	0000000000001010;
	52 :	0000000000001011;
	51 :	1111111111110011;
	50 :	1111111111011010;
	49 :	0000000000010011;
	48 :	1111111110100101;
	47 :	1111111111100101;
	46 :	0000000000001111;
	45 :	1111111110110000;
	44 :	1111111101111110;
	43 :	1111111110110011;
	42 :	0000000000010011;
	41 :	1111111110001001;
	40 :	1111111100101011;
	39 :	1111111101011010;
	38 :	1111111111100100;
	37 :	1111111110100100;
	36 :	1111111101011001;
	35 :	1111111100111100;
	34 :	1111111110110100;
	33 :	1111111111010100;
	32 :	1111111111010000;
	31 :	1111111111110110;
	30 :	1111111111110010;
	29 :	1111111111001010;
	28 :	0000000000000001;
	27 :	0000000000000100;
	26 :	1111111111110000;
	25 :	1111111111110000;
	24 :	1111111111111011;
	23 :	0000000000001101;
	22 :	1111111111011010;
	21 :	0000000000111001;
	20 :	0000000000101101;
	19 :	0000000000010001;
	18 :	1111111111010000;
	17 :	1111111111101011;
	16 :	1111111111011000;
	15 :	0000000000011111;
	14 :	1111111111100110;
	13 :	0000000000000001;
	12 :	1111111111101100;
	11 :	0000000000101111;
	10 :	1111111110111001;
	9 :	1111111111101111;
	8 :	0000000000110010;
	7 :	1111111111111010;
	6 :	1111111111011101;
	5 :	1111111111101110;
	4 :	0000000000010100;
	3 :	1111111111011111;
	2 :	1111111111111101;
	1 :	1111111111111111;
	0 :	0000000000101100;
END;
