-- begin_signature
-- Weight_Memory(numWeight
-- 30
-- neuronNo
-- 2
-- layerNo
-- 2
-- addressWidth
-- 5
-- dataWidth
-- 16
-- weightFile
-- "w_2_2.mif")
-- end_signature
WIDTH=16;
DEPTH=30;

ADDRESS_RADIX=UNS;
DATA_RADIX=BIN;

CONTENT BEGIN
	29 :	0000000100000110;
	28 :	0000000110010111;
	27 :	0000000001101101;
	26 :	1111100011111001;
	25 :	1111111000110101;
	24 :	1111110100111010;
	23 :	1111110110101011;
	22 :	0000001101001110;
	21 :	1111110101000111;
	20 :	1111111011000010;
	19 :	1111110001000000;
	18 :	1111110011001000;
	17 :	0000010010001010;
	16 :	0000001100000000;
	15 :	0000010101100001;
	14 :	1111101101101110;
	13 :	0000000001010111;
	12 :	1111110101111111;
	11 :	0000000101101101;
	10 :	1111111110111010;
	9 :	1111111101001011;
	8 :	0000010111010100;
	7 :	1111111111100001;
	6 :	0000001110011010;
	5 :	1111111000100010;
	4 :	1111111111100000;
	3 :	1111111111110100;
	2 :	1111111001111101;
	1 :	1111110110101010;
	0 :	1111111101111000;
END;
