-- begin_signature
-- Weight_Memory(numWeight
-- 784
-- neuronNo
-- 9
-- layerNo
-- 1
-- addressWidth
-- 10
-- dataWidth
-- 16
-- weightFile
-- "w_1_9.mif")
-- end_signature
WIDTH=16;
DEPTH=784;

ADDRESS_RADIX=UNS;
DATA_RADIX=BIN;

CONTENT BEGIN
	783 :	0000000000010001;
	782 :	1111111110111110;
	781 :	1111111111111000;
	780 :	1111111111010101;
	779 :	1111111111100000;
	778 :	1111111111110110;
	777 :	1111111111011100;
	776 :	1111111111011111;
	775 :	1111111111101100;
	774 :	0000000000000100;
	773 :	0000000000000100;
	772 :	1111111111110001;
	771 :	0000000000011000;
	770 :	1111111111000011;
	769 :	1111111110111111;
	768 :	1111111111111001;
	767 :	0000000000101010;
	766 :	1111111111111111;
	765 :	1111111111111101;
	764 :	0000000000010101;
	763 :	1111111111011001;
	762 :	0000000000011101;
	761 :	0000000000110101;
	760 :	1111111111110001;
	759 :	0000000000000100;
	758 :	0000000000011101;
	757 :	1111111111000100;
	756 :	1111111111101011;
	755 :	0000000000001011;
	754 :	1111111111101100;
	753 :	0000000000001000;
	752 :	0000000000000001;
	751 :	1111111111101000;
	750 :	0000000000001110;
	749 :	1111111111001000;
	748 :	1111111111110000;
	747 :	1111111110001110;
	746 :	1111111110001101;
	745 :	1111111110110001;
	744 :	1111111011110100;
	743 :	1111111100101110;
	742 :	1111111010010101;
	741 :	1111111001110111;
	740 :	1111111010000010;
	739 :	1111111110011010;
	738 :	1111111101110100;
	737 :	1111111110110011;
	736 :	1111111111101101;
	735 :	1111111111110101;
	734 :	0000000000010011;
	733 :	0000000000100001;
	732 :	0000000000001001;
	731 :	1111111111111101;
	730 :	0000000000000101;
	729 :	1111111111011110;
	728 :	1111111111101010;
	727 :	1111111111101000;
	726 :	0000000000000000;
	725 :	0000000000001111;
	724 :	1111111111100100;
	723 :	0000000000100100;
	722 :	1111111111101000;
	721 :	1111111110011011;
	720 :	1111111111101011;
	719 :	1111111111110010;
	718 :	0000000000001001;
	717 :	1111111010001001;
	716 :	1111110000011011;
	715 :	1111110000101110;
	714 :	1111111000010000;
	713 :	1111111000110011;
	712 :	1111110011010100;
	711 :	1111111000111010;
	710 :	1111110100110001;
	709 :	1111111101010010;
	708 :	1111111111101011;
	707 :	1111111111101110;
	706 :	1111111110011101;
	705 :	1111111111100000;
	704 :	1111111111101111;
	703 :	0000000000000101;
	702 :	0000000000100000;
	701 :	1111111111111101;
	700 :	1111111111111100;
	699 :	0000000000000110;
	698 :	0000000000000010;
	697 :	1111111111011011;
	696 :	1111111110010001;
	695 :	1111111110010001;
	694 :	1111111010011111;
	693 :	1111111000100111;
	692 :	1111111101101111;
	691 :	0000000101011110;
	690 :	1111111110110000;
	689 :	1111111101011001;
	688 :	1111110111100010;
	687 :	1111111101011110;
	686 :	0000000001001110;
	685 :	1111110011010011;
	684 :	1111110000100101;
	683 :	1111111000110101;
	682 :	1111111100011001;
	681 :	1111111100101010;
	680 :	1111111100100010;
	679 :	1111111110010010;
	678 :	1111111111111111;
	677 :	1111111111110101;
	676 :	0000000000010010;
	675 :	0000000000000011;
	674 :	0000000000010001;
	673 :	1111111111111011;
	672 :	1111111110101111;
	671 :	0000000000110101;
	670 :	0000000001101110;
	669 :	0000000000010010;
	668 :	1111111111100010;
	667 :	1111111100010111;
	666 :	1111111000111110;
	665 :	1111111001010110;
	664 :	1111111110100111;
	663 :	0000000101000011;
	662 :	1111111100111100;
	661 :	0000000111010001;
	660 :	1111111100000000;
	659 :	1111111101000010;
	658 :	1111111011100011;
	657 :	1111111011010000;
	656 :	0000000101111010;
	655 :	1111111100000100;
	654 :	1111111010110010;
	653 :	0000000000110100;
	652 :	1111111101100011;
	651 :	1111111011001000;
	650 :	0000000000001110;
	649 :	0000000000101011;
	648 :	1111111111111101;
	647 :	1111111111111001;
	646 :	1111111111000111;
	645 :	1111111111111110;
	644 :	1111111111010101;
	643 :	0000000000010100;
	642 :	0000000000100100;
	641 :	0000000000101110;
	640 :	0000000000000000;
	639 :	1111111111110000;
	638 :	1111111110010100;
	637 :	1111111111011010;
	636 :	0000000111101110;
	635 :	0000001101011000;
	634 :	0000001000101000;
	633 :	0000000011110111;
	632 :	1111111110100101;
	631 :	1111111001100010;
	630 :	0000000000100100;
	629 :	1111111101010101;
	628 :	1111111000111101;
	627 :	1111110101011101;
	626 :	0000000001101111;
	625 :	0000000110101110;
	624 :	0000000110101111;
	623 :	1111111011011001;
	622 :	1111111101001001;
	621 :	1111111111110001;
	620 :	1111111110111101;
	619 :	1111111111110100;
	618 :	1111111111110111;
	617 :	0000000000111001;
	616 :	0000000000101000;
	615 :	0000000000010111;
	614 :	0000000000001101;
	613 :	0000000000010011;
	612 :	1111111101111111;
	611 :	1111111011011110;
	610 :	1111111101010100;
	609 :	1111111111100100;
	608 :	0000000011010101;
	607 :	0000000101100011;
	606 :	0000001001000001;
	605 :	1111111101101000;
	604 :	0000000010011011;
	603 :	0000000100100101;
	602 :	0000000001110100;
	601 :	1111111000110101;
	600 :	0000000011110011;
	599 :	1111111110101010;
	598 :	0000000101001010;
	597 :	1111111100111000;
	596 :	0000000010110010;
	595 :	1111110110110101;
	594 :	1111111101000111;
	593 :	1111111101110100;
	592 :	1111111111100000;
	591 :	1111111111111011;
	590 :	1111111111101010;
	589 :	0000000001010010;
	588 :	0000000000001110;
	587 :	0000000000001001;
	586 :	0000000001100110;
	585 :	0000000001001101;
	584 :	0000000001101100;
	583 :	1111111100111000;
	582 :	1111111001100111;
	581 :	1111110111110100;
	580 :	0000000000000011;
	579 :	0000001000100100;
	578 :	0000001001011011;
	577 :	0000001000011000;
	576 :	0000010001000011;
	575 :	0000000010000010;
	574 :	0000000111001011;
	573 :	1111111101111110;
	572 :	0000001001110100;
	571 :	0000000010101110;
	570 :	1111110110110000;
	569 :	1111111110110101;
	568 :	0000000000100111;
	567 :	1111111010101001;
	566 :	1111111110011110;
	565 :	1111111101101000;
	564 :	1111111110111110;
	563 :	1111111111010101;
	562 :	1111111111100011;
	561 :	0000000000010110;
	560 :	1111111111111110;
	559 :	0000000001101000;
	558 :	0000000001110110;
	557 :	0000000000001111;
	556 :	1111111111111100;
	555 :	0000000001000001;
	554 :	1111111100011110;
	553 :	1111111101001101;
	552 :	1111111101110101;
	551 :	0000000110110010;
	550 :	0000000010010100;
	549 :	1111111110001111;
	548 :	0000001101100001;
	547 :	0000001001010001;
	546 :	0000000110001100;
	545 :	0000001100101110;
	544 :	0000000010111000;
	543 :	1111111010001001;
	542 :	1111110101001010;
	541 :	1111111111001100;
	540 :	1111110111011001;
	539 :	1111111001010000;
	538 :	1111111011111101;
	537 :	1111111100111001;
	536 :	1111111110010110;
	535 :	1111111111110010;
	534 :	1111111111100000;
	533 :	0000000000011111;
	532 :	0000000000110100;
	531 :	0000000001010001;
	530 :	0000000001110011;
	529 :	1111111111111000;
	528 :	1111111101011001;
	527 :	1111111111000001;
	526 :	1111111011001110;
	525 :	1111111111110110;
	524 :	0000000100010011;
	523 :	0000000001001001;
	522 :	1111111100011110;
	521 :	1111111011110101;
	520 :	1111110011110010;
	519 :	1111111101110101;
	518 :	0000001010010111;
	517 :	1111111110010011;
	516 :	1111110011111111;
	515 :	1111110001110010;
	514 :	1111111100101100;
	513 :	1111110110100110;
	512 :	1111110110011100;
	511 :	1111111001001001;
	510 :	1111111001001011;
	509 :	1111111110110110;
	508 :	1111111111100110;
	507 :	0000000000010100;
	506 :	0000000000011111;
	505 :	0000000000011100;
	504 :	1111111111110101;
	503 :	1111111111110001;
	502 :	0000000001101000;
	501 :	1111111111100000;
	500 :	1111111110011110;
	499 :	1111111110010010;
	498 :	1111111100100010;
	497 :	1111111011011011;
	496 :	1111111001000100;
	495 :	1111111000011101;
	494 :	1111101111010001;
	493 :	1111110001111100;
	492 :	1111111011000011;
	491 :	1111111110010000;
	490 :	0000010001000111;
	489 :	0000000101000100;
	488 :	1111111001100110;
	487 :	1111111101010101;
	486 :	0000000101000111;
	485 :	1111111011110011;
	484 :	1111111101011001;
	483 :	1111111111011111;
	482 :	1111111100100011;
	481 :	1111111101010110;
	480 :	1111111111011001;
	479 :	0000000001000011;
	478 :	0000000000000011;
	477 :	0000000000001000;
	476 :	0000000000011110;
	475 :	1111111111111101;
	474 :	0000000001001011;
	473 :	0000000000010001;
	472 :	1111111111101011;
	471 :	1111111101000010;
	470 :	1111111001011111;
	469 :	1111111011111000;
	468 :	1111111010101010;
	467 :	1111110101001100;
	466 :	1111101111101011;
	465 :	1111101111011111;
	464 :	1111111101000100;
	463 :	1111111000010100;
	462 :	0000001100010111;
	461 :	1111111100000110;
	460 :	1111111001000011;
	459 :	0000001000010101;
	458 :	1111111101000000;
	457 :	1111111011011000;
	456 :	0000000011000110;
	455 :	0000000010101111;
	454 :	1111111110111110;
	453 :	1111111110010110;
	452 :	0000000000000101;
	451 :	1111111111110111;
	450 :	0000000000000000;
	449 :	0000000000001000;
	448 :	0000000000101100;
	447 :	0000000000001110;
	446 :	1111111111111100;
	445 :	0000000001111100;
	444 :	0000000000011100;
	443 :	1111111111110100;
	442 :	1111111011111011;
	441 :	0000000000001001;
	440 :	1111111100110111;
	439 :	1111111010101011;
	438 :	1111110110011010;
	437 :	1111110111000010;
	436 :	0000000001010100;
	435 :	1111111011000010;
	434 :	0000001010010111;
	433 :	0000000011100001;
	432 :	0000000011011001;
	431 :	0000000111010110;
	430 :	1111110101110001;
	429 :	1111111010110110;
	428 :	0000000101101000;
	427 :	0000000000011010;
	426 :	1111111111001001;
	425 :	1111111111100001;
	424 :	1111111111111010;
	423 :	1111111111001110;
	422 :	0000000000100101;
	421 :	0000000000011110;
	420 :	0000000000011011;
	419 :	0000000000011011;
	418 :	0000000001010000;
	417 :	0000000011001000;
	416 :	0000000001011111;
	415 :	0000000000000011;
	414 :	0000000010000011;
	413 :	0000000110101011;
	412 :	0000000110000010;
	411 :	0000001001010011;
	410 :	1111111111110000;
	409 :	1111111110011001;
	408 :	1111111101101001;
	407 :	0000000010110000;
	406 :	0000001110111011;
	405 :	1111111110101001;
	404 :	1111111101111011;
	403 :	1111110011111110;
	402 :	1111110100000010;
	401 :	0000000010001001;
	400 :	0000000100000010;
	399 :	1111111011011001;
	398 :	1111111110111010;
	397 :	1111111110001001;
	396 :	0000000010000111;
	395 :	1111111111110100;
	394 :	1111111111111110;
	393 :	1111111111100101;
	392 :	1111111111011011;
	391 :	1111111111011001;
	390 :	0000000000000010;
	389 :	0000000010011101;
	388 :	0000000010000101;
	387 :	0000000000001111;
	386 :	0000000001100101;
	385 :	0000000001111000;
	384 :	1111111110111100;
	383 :	1111111110011010;
	382 :	1111110100101100;
	381 :	1111111001111100;
	380 :	0000001001110010;
	379 :	0000000001010101;
	378 :	0000001101110111;
	377 :	1111111101100101;
	376 :	0000000011001011;
	375 :	1111111001010100;
	374 :	1111110100101100;
	373 :	1111111011011011;
	372 :	1111111110011010;
	371 :	1111111010111010;
	370 :	1111111101110000;
	369 :	1111111110101010;
	368 :	0000000001011010;
	367 :	0000000000111011;
	366 :	1111111111101000;
	365 :	0000000000100000;
	364 :	1111111111011000;
	363 :	1111111111110110;
	362 :	1111111111011001;
	361 :	1111111111010001;
	360 :	1111111110000011;
	359 :	1111111110100101;
	358 :	0000000000011101;
	357 :	0000000100000100;
	356 :	0000000010010011;
	355 :	1111111001101000;
	354 :	1111101101000000;
	353 :	1111110011100100;
	352 :	0000000110110110;
	351 :	1111111011110010;
	350 :	0000001000110001;
	349 :	0000000101001011;
	348 :	0000001011011011;
	347 :	0000000001110011;
	346 :	1111111011001011;
	345 :	1111111100111011;
	344 :	1111111100100100;
	343 :	0000000010100101;
	342 :	1111111100011101;
	341 :	1111111101011100;
	340 :	1111111111010010;
	339 :	0000000000001111;
	338 :	0000000000010001;
	337 :	0000000000001101;
	336 :	1111111111011110;
	335 :	0000000000010000;
	334 :	1111111111000101;
	333 :	1111111100010110;
	332 :	1111111101100100;
	331 :	0000000001101111;
	330 :	0000000100100111;
	329 :	0000000100111110;
	328 :	1111111100110100;
	327 :	1111110101011001;
	326 :	1111101100010000;
	325 :	1111111000011101;
	324 :	0000000011101100;
	323 :	0000000101110011;
	322 :	0000001100010010;
	321 :	0000001001010101;
	320 :	1111111101101111;
	319 :	0000000000011100;
	318 :	1111111011000111;
	317 :	1111110010100001;
	316 :	1111111100110011;
	315 :	0000000010111101;
	314 :	1111111011011111;
	313 :	1111111101010011;
	312 :	1111111111000010;
	311 :	1111111111110101;
	310 :	0000000000001011;
	309 :	0000000000101000;
	308 :	0000000000001111;
	307 :	0000000000000011;
	306 :	0000000001100110;
	305 :	0000000000101001;
	304 :	0000000001000111;
	303 :	1111111111101100;
	302 :	1111111110101101;
	301 :	1111111101111100;
	300 :	1111110100110011;
	299 :	1111111000101011;
	298 :	1111110101000000;
	297 :	1111111101000101;
	296 :	0000001000100000;
	295 :	0000010010010000;
	294 :	0000011000011101;
	293 :	0000010101100110;
	292 :	0000000010100100;
	291 :	0000000000010100;
	290 :	1111110101100111;
	289 :	1111110101000111;
	288 :	1111111011111010;
	287 :	0000000010010100;
	286 :	1111111100000100;
	285 :	1111111100001001;
	284 :	1111111011011000;
	283 :	1111111110111110;
	282 :	1111111111101111;
	281 :	1111111111000100;
	280 :	1111111111111110;
	279 :	0000000100110100;
	278 :	0000000001111111;
	277 :	1111111111110100;
	276 :	1111111011010100;
	275 :	1111111010100001;
	274 :	1111111011001100;
	273 :	1111111001011000;
	272 :	1111110110001010;
	271 :	1111110101001100;
	270 :	1111110100110100;
	269 :	1111110101111011;
	268 :	0000000001000101;
	267 :	0000000110111111;
	266 :	0000010101110110;
	265 :	0000001100011101;
	264 :	1111111101110001;
	263 :	0000001001100010;
	262 :	1111111110001101;
	261 :	1111110110110001;
	260 :	1111111010110100;
	259 :	1111111110011010;
	258 :	1111111101110101;
	257 :	1111111100001000;
	256 :	1111111011000010;
	255 :	1111111111011011;
	254 :	1111111111101000;
	253 :	0000000000001110;
	252 :	0000000000010100;
	251 :	0000000000001111;
	250 :	0000000000010001;
	249 :	1111111101111101;
	248 :	1111111010110111;
	247 :	1111111001110111;
	246 :	1111111011011001;
	245 :	1111111010101000;
	244 :	1111110110110101;
	243 :	1111110011100010;
	242 :	1111110100010101;
	241 :	1111111100011100;
	240 :	1111110100001011;
	239 :	0000000011000000;
	238 :	0000001110000110;
	237 :	0000000001101101;
	236 :	1111111100010000;
	235 :	1111111111100101;
	234 :	0000000010110100;
	233 :	1111111100111111;
	232 :	1111111010011000;
	231 :	1111111010110011;
	230 :	1111111100011110;
	229 :	1111111011011110;
	228 :	1111111110001011;
	227 :	0000000000001010;
	226 :	0000000000000110;
	225 :	1111111111111111;
	224 :	0000000000111011;
	223 :	1111111111111010;
	222 :	1111111111101100;
	221 :	1111111101100000;
	220 :	1111111100010111;
	219 :	1111111101010010;
	218 :	1111111100100100;
	217 :	1111111010110101;
	216 :	1111110111101110;
	215 :	1111111000111110;
	214 :	1111111101001011;
	213 :	1111111010000110;
	212 :	0000000001011001;
	211 :	1111111110011001;
	210 :	0000000101011100;
	209 :	1111110100110110;
	208 :	0000000100101111;
	207 :	0000000001000111;
	206 :	0000000000101001;
	205 :	1111111100010010;
	204 :	1111110000111010;
	203 :	1111110011100000;
	202 :	1111110111000010;
	201 :	1111111011100101;
	200 :	1111111101110111;
	199 :	1111111111011101;
	198 :	1111111111100010;
	197 :	0000000000000100;
	196 :	0000000000100011;
	195 :	1111111111100111;
	194 :	1111111111110100;
	193 :	1111111110011101;
	192 :	1111111101011101;
	191 :	1111111110100111;
	190 :	1111111100111011;
	189 :	1111111010011001;
	188 :	1111110000100111;
	187 :	1111110100001110;
	186 :	1111111001100111;
	185 :	1111111000100101;
	184 :	1111111111001101;
	183 :	1111111011110001;
	182 :	0000000001000011;
	181 :	0000000010110000;
	180 :	1111111010110110;
	179 :	1111111010011010;
	178 :	0000000000111011;
	177 :	1111110101011111;
	176 :	1111101110111110;
	175 :	1111110000001101;
	174 :	1111111000010010;
	173 :	1111111100011011;
	172 :	1111111111000010;
	171 :	0000000000000001;
	170 :	1111111111001110;
	169 :	0000000000010000;
	168 :	1111111111111010;
	167 :	0000000000011111;
	166 :	1111111111111111;
	165 :	1111111110110110;
	164 :	1111111110010101;
	163 :	1111111101011000;
	162 :	1111111100011100;
	161 :	1111111000001100;
	160 :	1111110000010110;
	159 :	1111110000111100;
	158 :	1111110101011100;
	157 :	0000000001111110;
	156 :	0000000111101010;
	155 :	0000001111010010;
	154 :	0000000011001100;
	153 :	0000000110010010;
	152 :	1111111010111100;
	151 :	1111111001011111;
	150 :	1111111000101010;
	149 :	1111110111010001;
	148 :	1111111100011111;
	147 :	1111111111010110;
	146 :	1111111111100010;
	145 :	0000000000100001;
	144 :	0000000000011100;
	143 :	0000000000100001;
	142 :	0000000000110111;
	141 :	1111111110110011;
	140 :	0000000000011101;
	139 :	1111111110111110;
	138 :	1111111110111011;
	137 :	0000000000000110;
	136 :	1111111111101011;
	135 :	1111111110100111;
	134 :	1111111101101101;
	133 :	1111111001010111;
	132 :	1111110011011010;
	131 :	1111110011000010;
	130 :	1111111000010001;
	129 :	1111111110001001;
	128 :	1111111001001111;
	127 :	0000000000011111;
	126 :	1111111001110111;
	125 :	1111111011100101;
	124 :	1111111001001011;
	123 :	1111111100000111;
	122 :	0000000011100101;
	121 :	0000000100000011;
	120 :	0000000011110011;
	119 :	0000000000001100;
	118 :	1111111111000110;
	117 :	0000000000011010;
	116 :	0000000000010101;
	115 :	1111111111001000;
	114 :	0000000000010111;
	113 :	1111111110111111;
	112 :	0000000000110100;
	111 :	1111111111101100;
	110 :	1111111111101111;
	109 :	1111111111111000;
	108 :	1111111111111110;
	107 :	1111111111100011;
	106 :	1111111111101000;
	105 :	1111111110010001;
	104 :	1111111101100000;
	103 :	1111111011001011;
	102 :	1111111010010111;
	101 :	1111111110100011;
	100 :	0000000101110110;
	99 :	0000000011001110;
	98 :	1111111110111000;
	97 :	0000000100000100;
	96 :	0000000010110001;
	95 :	1111111001101011;
	94 :	1111111011111001;
	93 :	1111111101001111;
	92 :	1111111101001010;
	91 :	1111111111100000;
	90 :	1111111111110010;
	89 :	0000000000010111;
	88 :	0000000000100101;
	87 :	0000000000100101;
	86 :	0000000000001110;
	85 :	1111111110101010;
	84 :	0000000000000110;
	83 :	0000000000000100;
	82 :	0000000000001111;
	81 :	0000000000111011;
	80 :	1111111111010010;
	79 :	1111111110111000;
	78 :	1111111111001100;
	77 :	1111111111110010;
	76 :	1111111111110100;
	75 :	0000000000000010;
	74 :	1111111110111001;
	73 :	0000000000101010;
	72 :	0000000110111100;
	71 :	0000001011010111;
	70 :	0000000110001100;
	69 :	0000000100101111;
	68 :	0000000010000001;
	67 :	0000000000101011;
	66 :	0000000000110101;
	65 :	1111111110101110;
	64 :	1111111110111111;
	63 :	1111111111010010;
	62 :	0000000000011000;
	61 :	0000000000010010;
	60 :	1111111111100001;
	59 :	0000000000111001;
	58 :	1111111111011001;
	57 :	0000000000000100;
	56 :	0000000000110000;
	55 :	0000000000100010;
	54 :	0000000000011110;
	53 :	1111111111100100;
	52 :	1111111111011101;
	51 :	1111111111111101;
	50 :	0000000000000000;
	49 :	0000000000110111;
	48 :	0000000000000000;
	47 :	1111111111110011;
	46 :	0000000000010111;
	45 :	0000000000000001;
	44 :	0000000000010111;
	43 :	0000000100101111;
	42 :	0000000001111001;
	41 :	1111111111111111;
	40 :	1111111111101100;
	39 :	1111111111000101;
	38 :	0000000000000101;
	37 :	1111111111001010;
	36 :	0000000000110000;
	35 :	0000000000101101;
	34 :	0000000000011011;
	33 :	1111111111100110;
	32 :	1111111111101000;
	31 :	1111111111100011;
	30 :	1111111111111100;
	29 :	0000000000010100;
	28 :	1111111111111010;
	27 :	1111111111011001;
	26 :	1111111111011011;
	25 :	1111111111110100;
	24 :	1111111111101111;
	23 :	1111111111110110;
	22 :	1111111111110000;
	21 :	0000000001000100;
	20 :	1111111110111101;
	19 :	1111111111001110;
	18 :	0000000000011111;
	17 :	1111111111011001;
	16 :	1111111111110100;
	15 :	0000000000001110;
	14 :	0000000000000101;
	13 :	1111111111110011;
	12 :	0000000000111110;
	11 :	1111111111111110;
	10 :	0000000000001001;
	9 :	1111111111111000;
	8 :	0000000000100010;
	7 :	0000000000000000;
	6 :	1111111111001001;
	5 :	1111111111111111;
	4 :	1111111111011000;
	3 :	0000000001001010;
	2 :	0000000000010000;
	1 :	0000000000001100;
	0 :	1111111111111101;
END;
