-- begin_signature
-- Weight_Memory(numWeight
-- 784
-- neuronNo
-- 10
-- layerNo
-- 1
-- addressWidth
-- 10
-- dataWidth
-- 16
-- weightFile
-- "w_1_10.hex")
-- end_signature
WIDTH=16;
DEPTH=784;

ADDRESS_RADIX=UNS;
DATA_RADIX=BIN;

CONTENT BEGIN
	783 :	1111111111100111;
	782 :	0000000000111110;
	781 :	1111111111011001;
	780 :	1111111111111001;
	779 :	1111111111100101;
	778 :	0000000000001010;
	777 :	1111111111101000;
	776 :	1111111111110100;
	775 :	1111111111011000;
	774 :	0000000000000010;
	773 :	1111111111110101;
	772 :	0000000000000101;
	771 :	0000000001000100;
	770 :	1111111111011110;
	769 :	0000000000101010;
	768 :	0000000000100010;
	767 :	1111111111110010;
	766 :	1111111111011100;
	765 :	1111111111111101;
	764 :	0000000000101110;
	763 :	0000000001001110;
	762 :	0000000001000101;
	761 :	1111111111001000;
	760 :	0000000000000100;
	759 :	1111111111101101;
	758 :	0000000000001000;
	757 :	1111111111001111;
	756 :	0000000000001011;
	755 :	0000000000110100;
	754 :	0000000000100101;
	753 :	0000000000000000;
	752 :	1111111111011110;
	751 :	0000000000001100;
	750 :	1111111111001001;
	749 :	1111111111010111;
	748 :	0000000000100101;
	747 :	0000000000010001;
	746 :	0000000000110001;
	745 :	1111111111001110;
	744 :	1111111111101100;
	743 :	0000000000000111;
	742 :	0000000000011100;
	741 :	0000000000001010;
	740 :	0000000000010111;
	739 :	0000000000011011;
	738 :	1111111111110100;
	737 :	0000000000010011;
	736 :	1111111111001101;
	735 :	0000000000011101;
	734 :	0000000000010011;
	733 :	1111111111111111;
	732 :	0000000000010010;
	731 :	1111111111000111;
	730 :	0000000000001010;
	729 :	0000000000100100;
	728 :	0000000000101101;
	727 :	1111111111110011;
	726 :	1111111110110011;
	725 :	1111111111100101;
	724 :	1111111111100011;
	723 :	0000000000011110;
	722 :	0000000000001100;
	721 :	1111111111001100;
	720 :	1111111111101101;
	719 :	0000000000001100;
	718 :	0000000000010011;
	717 :	0000000000011111;
	716 :	0000000000001111;
	715 :	0000000000011011;
	714 :	0000000000000100;
	713 :	0000000000000010;
	712 :	0000000000001010;
	711 :	1111111111101100;
	710 :	0000000000000101;
	709 :	0000000000000010;
	708 :	1111111111101010;
	707 :	1111111110111001;
	706 :	0000000000011000;
	705 :	0000000000010001;
	704 :	1111111111110110;
	703 :	0000000000011101;
	702 :	0000000000010000;
	701 :	1111111110111101;
	700 :	1111111111110000;
	699 :	0000000000001110;
	698 :	0000000000101111;
	697 :	1111111111110110;
	696 :	1111111111110101;
	695 :	0000000000011010;
	694 :	1111111111101101;
	693 :	0000000000000010;
	692 :	0000000000000011;
	691 :	1111111111110100;
	690 :	0000000000011100;
	689 :	0000000000110010;
	688 :	0000000000011000;
	687 :	1111111111011011;
	686 :	1111111111110010;
	685 :	0000000000000110;
	684 :	0000000000000010;
	683 :	1111111111011100;
	682 :	1111111111101001;
	681 :	0000000000111001;
	680 :	1111111111111000;
	679 :	0000000000010000;
	678 :	0000000000001000;
	677 :	1111111111011111;
	676 :	1111111111100011;
	675 :	1111111111111010;
	674 :	0000000000000101;
	673 :	1111111111010000;
	672 :	0000000000011100;
	671 :	0000000000100000;
	670 :	1111111111100010;
	669 :	0000000000101000;
	668 :	1111111111101110;
	667 :	0000000000001111;
	666 :	0000000000101011;
	665 :	0000000000011001;
	664 :	1111111111101011;
	663 :	0000000000010011;
	662 :	1111111111010111;
	661 :	0000000001000111;
	660 :	0000000000001111;
	659 :	1111111111100011;
	658 :	0000000000011011;
	657 :	1111111111001110;
	656 :	1111111110110001;
	655 :	0000000000011110;
	654 :	0000000000001010;
	653 :	0000000000010001;
	652 :	1111111111011101;
	651 :	1111111111100010;
	650 :	1111111111101100;
	649 :	0000000000011101;
	648 :	1111111111011010;
	647 :	0000000000011001;
	646 :	1111111110111111;
	645 :	1111111111101111;
	644 :	0000000000001111;
	643 :	1111111111111100;
	642 :	0000000000111011;
	641 :	1111111111000011;
	640 :	1111111111101101;
	639 :	1111111111101100;
	638 :	1111111111111010;
	637 :	0000000000001011;
	636 :	0000000000010111;
	635 :	1111111111010000;
	634 :	0000000000010100;
	633 :	1111111111110001;
	632 :	1111111111100111;
	631 :	0000000000010000;
	630 :	0000000000110100;
	629 :	0000000000100000;
	628 :	1111111111101001;
	627 :	0000000000110101;
	626 :	1111111110111111;
	625 :	1111111111101110;
	624 :	0000000000101001;
	623 :	1111111111110111;
	622 :	0000000000010100;
	621 :	0000000000001000;
	620 :	0000000000011000;
	619 :	0000000000101011;
	618 :	0000000000011110;
	617 :	1111111111111111;
	616 :	1111111111001110;
	615 :	0000000000001000;
	614 :	0000000000001011;
	613 :	0000000000111111;
	612 :	1111111111111100;
	611 :	0000000000110001;
	610 :	0000000000010000;
	609 :	0000000000010111;
	608 :	1111111111101011;
	607 :	0000000000010010;
	606 :	1111111111010001;
	605 :	1111111111110101;
	604 :	0000000000001100;
	603 :	0000000000000010;
	602 :	0000000000010011;
	601 :	0000000000110110;
	600 :	0000000000010101;
	599 :	1111111111010010;
	598 :	0000000000011100;
	597 :	1111111111011011;
	596 :	0000000000010010;
	595 :	0000000000110111;
	594 :	1111111111101100;
	593 :	1111111111001010;
	592 :	0000000000011101;
	591 :	1111111111100111;
	590 :	1111111111101010;
	589 :	0000000000000101;
	588 :	1111111111111011;
	587 :	0000000000001000;
	586 :	0000000000111111;
	585 :	0000000000101110;
	584 :	1111111111111110;
	583 :	1111111111101100;
	582 :	0000000000010001;
	581 :	1111111111101100;
	580 :	0000000000100000;
	579 :	1111111111010001;
	578 :	1111111111110000;
	577 :	0000000000001100;
	576 :	1111111111101100;
	575 :	0000000000000111;
	574 :	0000000000110010;
	573 :	1111111111110011;
	572 :	0000000000011010;
	571 :	0000000000100011;
	570 :	1111111111100011;
	569 :	1111111111001000;
	568 :	0000000000100001;
	567 :	0000000000001101;
	566 :	1111111111111111;
	565 :	1111111111110101;
	564 :	0000000000111010;
	563 :	1111111111101111;
	562 :	1111111111011101;
	561 :	1111111111010101;
	560 :	1111111111000001;
	559 :	0000000001001101;
	558 :	1111111111001101;
	557 :	1111111111010101;
	556 :	1111111110100011;
	555 :	0000000000110111;
	554 :	1111111111101010;
	553 :	0000000000000001;
	552 :	0000000000100101;
	551 :	1111111110111100;
	550 :	0000000000010000;
	549 :	1111111111111010;
	548 :	0000000000010101;
	547 :	0000000000001100;
	546 :	1111111111010101;
	545 :	0000000000001101;
	544 :	0000000000010110;
	543 :	0000000000011010;
	542 :	0000000000000100;
	541 :	0000000000010001;
	540 :	0000000000011111;
	539 :	1111111111011100;
	538 :	1111111111110111;
	537 :	0000000000000001;
	536 :	1111111111111010;
	535 :	1111111111100111;
	534 :	1111111111111010;
	533 :	0000000001011000;
	532 :	0000000000000000;
	531 :	0000000000101011;
	530 :	1111111111101000;
	529 :	1111111111101010;
	528 :	0000000000011111;
	527 :	0000000000111001;
	526 :	1111111111001110;
	525 :	1111111111111101;
	524 :	0000000000011001;
	523 :	1111111111010111;
	522 :	0000000000000111;
	521 :	0000000000100011;
	520 :	0000000000001011;
	519 :	1111111111111100;
	518 :	1111111111111110;
	517 :	1111111111011111;
	516 :	0000000001001010;
	515 :	1111111111110011;
	514 :	1111111111010011;
	513 :	1111111111101110;
	512 :	0000000000001100;
	511 :	1111111111101110;
	510 :	1111111111001011;
	509 :	1111111111111010;
	508 :	0000000000100000;
	507 :	1111111111100111;
	506 :	1111111111110010;
	505 :	0000000000001001;
	504 :	1111111111001001;
	503 :	0000000000011110;
	502 :	0000000000011101;
	501 :	0000000000010111;
	500 :	0000000000010011;
	499 :	0000000000010110;
	498 :	1111111111100111;
	497 :	0000000000010010;
	496 :	0000000000000011;
	495 :	1111111111011001;
	494 :	1111111111110001;
	493 :	0000000000011010;
	492 :	0000000000110011;
	491 :	0000000000001101;
	490 :	1111111111110101;
	489 :	1111111111111100;
	488 :	1111111111111010;
	487 :	0000000000010101;
	486 :	0000000000101001;
	485 :	0000000000000110;
	484 :	1111111111110100;
	483 :	0000000000001010;
	482 :	1111111111010100;
	481 :	0000000000001010;
	480 :	0000000000001001;
	479 :	0000000000101001;
	478 :	1111111111110001;
	477 :	0000000000111100;
	476 :	0000000000001001;
	475 :	0000000000010110;
	474 :	1111111111110100;
	473 :	0000000000010101;
	472 :	0000000000111001;
	471 :	0000000000101001;
	470 :	1111111111101111;
	469 :	1111111111110010;
	468 :	1111111111110100;
	467 :	0000000000000000;
	466 :	0000000000110100;
	465 :	1111111111011001;
	464 :	0000000000010001;
	463 :	0000000000100111;
	462 :	1111111111111010;
	461 :	1111111111001011;
	460 :	0000000000000001;
	459 :	1111111111111000;
	458 :	1111111111101110;
	457 :	1111111110111100;
	456 :	0000000000101110;
	455 :	0000000000010000;
	454 :	1111111111111000;
	453 :	1111111111101001;
	452 :	1111111111011000;
	451 :	1111111111110011;
	450 :	0000000000010001;
	449 :	1111111111111100;
	448 :	1111111111110110;
	447 :	1111111111111011;
	446 :	0000000000000110;
	445 :	1111111111100101;
	444 :	0000000000010001;
	443 :	0000000000110011;
	442 :	0000000000101001;
	441 :	1111111111010001;
	440 :	0000000000000000;
	439 :	0000000000000100;
	438 :	0000000000011010;
	437 :	0000000000101111;
	436 :	0000000000001101;
	435 :	0000000000011100;
	434 :	0000000000001111;
	433 :	0000000000001001;
	432 :	1111111111011100;
	431 :	0000000000001110;
	430 :	0000000000101011;
	429 :	0000000000100000;
	428 :	1111111111111100;
	427 :	0000000000000000;
	426 :	0000000000000110;
	425 :	0000000000010001;
	424 :	1111111111011111;
	423 :	0000000000010000;
	422 :	0000000000110110;
	421 :	1111111111110010;
	420 :	1111111111000010;
	419 :	1111111111011111;
	418 :	1111111111010010;
	417 :	0000000000010001;
	416 :	1111111111010010;
	415 :	1111111111011110;
	414 :	0000000000010101;
	413 :	1111111111100100;
	412 :	0000000000100000;
	411 :	1111111111100100;
	410 :	1111111111111000;
	409 :	1111111111011101;
	408 :	0000000000000101;
	407 :	1111111111010111;
	406 :	1111111111100100;
	405 :	0000000000010001;
	404 :	0000000000001001;
	403 :	1111111111111001;
	402 :	1111111111111111;
	401 :	1111111111011011;
	400 :	1111111111101011;
	399 :	0000000000011111;
	398 :	0000000000001011;
	397 :	1111111111110010;
	396 :	1111111111100100;
	395 :	1111111111101101;
	394 :	0000000000100011;
	393 :	1111111111011001;
	392 :	0000000000100011;
	391 :	0000000000000000;
	390 :	0000000000000101;
	389 :	0000000000000110;
	388 :	0000000000110100;
	387 :	1111111111001000;
	386 :	0000000000110000;
	385 :	1111111111101001;
	384 :	0000000001000000;
	383 :	0000000000111101;
	382 :	1111111110110001;
	381 :	0000000000111101;
	380 :	1111111111101010;
	379 :	1111111111111010;
	378 :	1111111111110010;
	377 :	0000000000110011;
	376 :	0000000000011100;
	375 :	0000000000010010;
	374 :	1111111111111101;
	373 :	0000000000001111;
	372 :	0000000000011011;
	371 :	1111111111100001;
	370 :	1111111111101011;
	369 :	0000000000010000;
	368 :	0000000000011010;
	367 :	0000000000110001;
	366 :	1111111111101100;
	365 :	0000000000000010;
	364 :	0000000000001010;
	363 :	1111111111100101;
	362 :	0000000000000000;
	361 :	1111111111110110;
	360 :	1111111111111111;
	359 :	0000000000000000;
	358 :	0000000000011001;
	357 :	1111111111100011;
	356 :	0000000000000110;
	355 :	1111111111010110;
	354 :	0000000000000001;
	353 :	1111111111010010;
	352 :	0000000000011111;
	351 :	0000000000011111;
	350 :	0000000000001100;
	349 :	1111111111110100;
	348 :	0000000000010100;
	347 :	1111111111100010;
	346 :	1111111111110101;
	345 :	0000000000010111;
	344 :	1111111111000111;
	343 :	1111111111100101;
	342 :	0000000000010000;
	341 :	1111111111101100;
	340 :	0000000000101001;
	339 :	0000000000010011;
	338 :	0000000000011001;
	337 :	1111111111101101;
	336 :	1111111111110001;
	335 :	1111111111111111;
	334 :	0000000001001101;
	333 :	0000000000001100;
	332 :	0000000000101001;
	331 :	0000000000000000;
	330 :	1111111111101011;
	329 :	0000000000000001;
	328 :	0000000000011000;
	327 :	1111111111101000;
	326 :	0000000000000110;
	325 :	1111111111100010;
	324 :	1111111111110111;
	323 :	1111111111010010;
	322 :	0000000000101001;
	321 :	1111111111101011;
	320 :	0000000000010101;
	319 :	0000000000001011;
	318 :	0000000000010011;
	317 :	0000000000010110;
	316 :	1111111110110100;
	315 :	1111111111111111;
	314 :	0000000000000011;
	313 :	1111111111101101;
	312 :	1111111111111001;
	311 :	1111111111001110;
	310 :	0000000000101011;
	309 :	0000000000111011;
	308 :	0000000000010110;
	307 :	1111111111011010;
	306 :	0000000000011000;
	305 :	0000000000010100;
	304 :	0000000000001000;
	303 :	1111111111010100;
	302 :	1111111111110001;
	301 :	0000000000001100;
	300 :	1111111111101111;
	299 :	1111111111111010;
	298 :	0000000000001110;
	297 :	0000000000010110;
	296 :	1111111111111100;
	295 :	0000000000010001;
	294 :	1111111111011000;
	293 :	1111111111100110;
	292 :	1111111111001110;
	291 :	0000000000000000;
	290 :	1111111111010000;
	289 :	0000000000111100;
	288 :	0000000000100011;
	287 :	1111111111111100;
	286 :	1111111111100100;
	285 :	0000000000101010;
	284 :	0000000000000011;
	283 :	1111111111111010;
	282 :	0000000000101011;
	281 :	1111111111001010;
	280 :	0000000000010100;
	279 :	1111111111101010;
	278 :	0000000000001100;
	277 :	1111111111110101;
	276 :	1111111111100110;
	275 :	0000000000000011;
	274 :	1111111111111010;
	273 :	1111111111110000;
	272 :	0000000000101110;
	271 :	1111111111101110;
	270 :	0000000000001011;
	269 :	1111111111110010;
	268 :	1111111111110101;
	267 :	0000000000000000;
	266 :	1111111111111110;
	265 :	1111111111101101;
	264 :	1111111111111000;
	263 :	0000000000011010;
	262 :	0000000000010101;
	261 :	1111111111111111;
	260 :	1111111111011111;
	259 :	0000000000101011;
	258 :	1111111111100010;
	257 :	0000000000000000;
	256 :	1111111111111101;
	255 :	0000000000010110;
	254 :	0000000000101110;
	253 :	0000000000000101;
	252 :	0000000000010000;
	251 :	1111111111111100;
	250 :	1111111111110101;
	249 :	0000000000000000;
	248 :	0000000000000000;
	247 :	0000000000001000;
	246 :	1111111111111001;
	245 :	0000000000001000;
	244 :	0000000000001001;
	243 :	1111111111101010;
	242 :	0000000000000001;
	241 :	0000000000101110;
	240 :	0000000000011110;
	239 :	0000000000100111;
	238 :	0000000000001011;
	237 :	0000000000111101;
	236 :	1111111111101101;
	235 :	0000000000110011;
	234 :	0000000000110110;
	233 :	1111111111001011;
	232 :	1111111111111001;
	231 :	1111111111100110;
	230 :	1111111111111000;
	229 :	0000000000111110;
	228 :	1111111111111100;
	227 :	0000000000101000;
	226 :	0000000000100110;
	225 :	0000000000100000;
	224 :	1111111111110010;
	223 :	1111111111100001;
	222 :	1111111111111111;
	221 :	1111111111110111;
	220 :	0000000000000010;
	219 :	0000000000001100;
	218 :	0000000000001101;
	217 :	0000000000001110;
	216 :	1111111111110100;
	215 :	0000000000000000;
	214 :	1111111111111101;
	213 :	1111111111101000;
	212 :	1111111111000001;
	211 :	1111111111100111;
	210 :	1111111111011011;
	209 :	0000000000001010;
	208 :	0000000000101010;
	207 :	1111111111000010;
	206 :	1111111111111000;
	205 :	1111111111001111;
	204 :	0000000000000011;
	203 :	1111111111111011;
	202 :	0000000000101001;
	201 :	0000000000000001;
	200 :	0000000000010110;
	199 :	0000000000010100;
	198 :	0000000000000100;
	197 :	0000000000001000;
	196 :	1111111111111110;
	195 :	1111111111011110;
	194 :	1111111111110010;
	193 :	1111111111100001;
	192 :	1111111111110100;
	191 :	1111111111101010;
	190 :	0000000000101100;
	189 :	1111111111111100;
	188 :	0000000000010011;
	187 :	0000000000010011;
	186 :	1111111111101011;
	185 :	1111111111101110;
	184 :	0000000000011001;
	183 :	0000000000000110;
	182 :	1111111111111101;
	181 :	1111111111011010;
	180 :	1111111111100011;
	179 :	1111111111010011;
	178 :	0000000000010110;
	177 :	0000000000110111;
	176 :	0000000000101000;
	175 :	1111111111110111;
	174 :	1111111111010010;
	173 :	1111111111001111;
	172 :	0000000000000110;
	171 :	1111111111001001;
	170 :	1111111111100111;
	169 :	1111111111101100;
	168 :	0000000000000110;
	167 :	1111111111110001;
	166 :	0000000000010110;
	165 :	1111111111100000;
	164 :	0000000000000011;
	163 :	0000000000001010;
	162 :	1111111111101100;
	161 :	1111111111110111;
	160 :	1111111111110000;
	159 :	1111111111111010;
	158 :	1111111111011100;
	157 :	0000000000101110;
	156 :	1111111111110011;
	155 :	1111111111000100;
	154 :	0000000000000100;
	153 :	1111111111111101;
	152 :	0000000000000110;
	151 :	1111111111100111;
	150 :	0000000000101011;
	149 :	0000000000010100;
	148 :	0000000000011011;
	147 :	1111111110111001;
	146 :	1111111110110101;
	145 :	0000000000110100;
	144 :	0000000000100101;
	143 :	0000000000011111;
	142 :	0000000001001011;
	141 :	1111111111011100;
	140 :	0000000000011001;
	139 :	1111111111100000;
	138 :	1111111111110100;
	137 :	1111111111110001;
	136 :	1111111111011101;
	135 :	1111111111111110;
	134 :	0000000000000101;
	133 :	1111111111011000;
	132 :	1111111111100110;
	131 :	0000000000101001;
	130 :	1111111111110111;
	129 :	0000000000000100;
	128 :	1111111111110111;
	127 :	0000000000000100;
	126 :	1111111111110111;
	125 :	0000000000000000;
	124 :	0000000000011000;
	123 :	1111111111101001;
	122 :	0000000000110001;
	121 :	0000000000010011;
	120 :	1111111111110011;
	119 :	1111111111100111;
	118 :	0000000000100000;
	117 :	0000000000001001;
	116 :	1111111111111001;
	115 :	1111111111100111;
	114 :	1111111111011010;
	113 :	1111111111110010;
	112 :	0000000000010001;
	111 :	1111111111111001;
	110 :	1111111111111101;
	109 :	1111111111111110;
	108 :	1111111111110010;
	107 :	0000000000001011;
	106 :	0000000000010000;
	105 :	0000000000110101;
	104 :	0000000000000110;
	103 :	0000000001000100;
	102 :	1111111111101010;
	101 :	0000000000001010;
	100 :	0000000000011001;
	99 :	0000000000111110;
	98 :	0000000000011011;
	97 :	0000000000100010;
	96 :	0000000000101000;
	95 :	1111111111111011;
	94 :	1111111111001111;
	93 :	1111111111100101;
	92 :	1111111111111100;
	91 :	1111111111100100;
	90 :	0000000000001101;
	89 :	0000000000100101;
	88 :	0000000000100101;
	87 :	0000000000100100;
	86 :	1111111111111101;
	85 :	0000000000000001;
	84 :	0000000000010001;
	83 :	0000000000010000;
	82 :	1111111111100010;
	81 :	0000000000010101;
	80 :	0000000001000011;
	79 :	0000000000000000;
	78 :	0000000000011111;
	77 :	1111111111101111;
	76 :	0000000000001110;
	75 :	0000000000010001;
	74 :	0000000000000000;
	73 :	0000000000000110;
	72 :	1111111111001000;
	71 :	0000000000010100;
	70 :	0000000000110010;
	69 :	1111111111011010;
	68 :	1111111111011010;
	67 :	0000000000110110;
	66 :	1111111111111000;
	65 :	1111111111110110;
	64 :	0000000000001000;
	63 :	0000000000000001;
	62 :	0000000000010110;
	61 :	0000000000100111;
	60 :	0000000000011110;
	59 :	0000000000011101;
	58 :	0000000000010100;
	57 :	1111111111001000;
	56 :	0000000000110000;
	55 :	1111111111110000;
	54 :	1111111111110101;
	53 :	0000000000001011;
	52 :	0000000000000101;
	51 :	0000000000010010;
	50 :	0000000000110101;
	49 :	1111111111010110;
	48 :	1111111110111011;
	47 :	1111111111101101;
	46 :	0000000000001001;
	45 :	1111111111101101;
	44 :	0000000000001110;
	43 :	0000000000011011;
	42 :	0000000000100111;
	41 :	0000000000101111;
	40 :	1111111111101101;
	39 :	1111111111011000;
	38 :	1111111111111010;
	37 :	1111111111100110;
	36 :	1111111111111110;
	35 :	1111111111001101;
	34 :	0000000001010110;
	33 :	0000000000111001;
	32 :	0000000000000000;
	31 :	1111111111101100;
	30 :	0000000000000000;
	29 :	1111111111010011;
	28 :	0000000000100000;
	27 :	1111111111111101;
	26 :	0000000000010000;
	25 :	1111111111001000;
	24 :	0000000000011001;
	23 :	1111111111011110;
	22 :	0000000000110110;
	21 :	0000000000010110;
	20 :	1111111111011010;
	19 :	1111111111011111;
	18 :	0000000000010001;
	17 :	1111111111100110;
	16 :	1111111110110001;
	15 :	0000000000011110;
	14 :	1111111111101011;
	13 :	1111111111101101;
	12 :	1111111111101001;
	11 :	0000000000000011;
	10 :	1111111111111100;
	9 :	1111111111110100;
	8 :	1111111111010000;
	7 :	1111111111001010;
	6 :	1111111110111101;
	5 :	0000000000000110;
	4 :	0000000000000100;
	3 :	1111111111101011;
	2 :	0000000000001110;
	1 :	1111111111011100;
	0 :	1111111111100111;
END;
