-- begin_signature
-- Weight_Memory(numWeight
-- 10
-- neuronNo
-- 4
-- layerNo
-- 4
-- addressWidth
-- 4
-- dataWidth
-- 16
-- weightFile
-- "w_4_4.mif")
-- end_signature
WIDTH=16;
DEPTH=10;

ADDRESS_RADIX=UNS;
DATA_RADIX=BIN;

CONTENT BEGIN
	9 :	0000000001000010;
	8 :	1111111011101100;
	7 :	0000001101100110;
	6 :	1111100100100010;
	5 :	1111111110000100;
	4 :	1111010000001001;
	3 :	0000000101000111;
	2 :	0000100100100010;
	1 :	0000001010000011;
	0 :	0000011110010100;
END;
