-- begin_signature
-- Weight_Memory(numWeight
-- 30
-- neuronNo
-- 22
-- layerNo
-- 2
-- addressWidth
-- 5
-- dataWidth
-- 16
-- weightFile
-- "w_2_22.mif")
-- end_signature
WIDTH=16;
DEPTH=30;

ADDRESS_RADIX=UNS;
DATA_RADIX=BIN;

CONTENT BEGIN
	29 :	1111111111110100;
	28 :	1111110011010001;
	27 :	0000000010011001;
	26 :	1111011011101110;
	25 :	1111111101111010;
	24 :	1111101100010111;
	23 :	1111110100111101;
	22 :	0000010011101001;
	21 :	1111111101010100;
	20 :	1111111110110010;
	19 :	1111111101011110;
	18 :	1111111000101001;
	17 :	0000010010010100;
	16 :	0000011100001000;
	15 :	0000010011000000;
	14 :	1111101111111101;
	13 :	0000000010011010;
	12 :	0000001010101001;
	11 :	0000101000101100;
	10 :	1111111110101101;
	9 :	0000001011100010;
	8 :	0000010100101000;
	7 :	0000001110001101;
	6 :	0000001001110110;
	5 :	1111111000101000;
	4 :	0000000000001110;
	3 :	1111111111101101;
	2 :	1111111111110100;
	1 :	1111110101101011;
	0 :	1111111100100100;
END;
