-- begin_signature
-- Weight_Memory(numWeight
-- 784
-- neuronNo
-- 23
-- layerNo
-- 1
-- addressWidth
-- 10
-- dataWidth
-- 16
-- weightFile
-- "w_1_23.hex")
-- end_signature
WIDTH=16;
DEPTH=784;

ADDRESS_RADIX=UNS;
DATA_RADIX=BIN;

CONTENT BEGIN
	783 :	1111111111111001;
	782 :	1111111111110100;
	781 :	0000000001000000;
	780 :	0000000000011101;
	779 :	0000000000000011;
	778 :	1111111110110101;
	777 :	1111111111100011;
	776 :	1111111110111010;
	775 :	0000000000010111;
	774 :	1111111111101011;
	773 :	0000000000001110;
	772 :	0000000000011110;
	771 :	0000000000101010;
	770 :	0000000000000100;
	769 :	1111111111111000;
	768 :	0000000000011001;
	767 :	1111111111111101;
	766 :	0000000000000100;
	765 :	1111111111010010;
	764 :	1111111111110001;
	763 :	1111111111111001;
	762 :	1111111111100000;
	761 :	1111111111001100;
	760 :	0000000000011111;
	759 :	0000000000000111;
	758 :	0000000000101000;
	757 :	1111111111011000;
	756 :	0000000000000011;
	755 :	1111111111100101;
	754 :	1111111111101111;
	753 :	0000000000011110;
	752 :	1111111111110111;
	751 :	0000000000100010;
	750 :	0000000000001100;
	749 :	1111111101111011;
	748 :	1111111111101011;
	747 :	0000000000001100;
	746 :	1111111111010010;
	745 :	0000000000110010;
	744 :	1111111111101111;
	743 :	0000000001000010;
	742 :	0000000001101001;
	741 :	1111111111111010;
	740 :	1111111111111011;
	739 :	0000000000011000;
	738 :	0000000000001101;
	737 :	1111111111011010;
	736 :	1111111111101001;
	735 :	0000000000001011;
	734 :	1111111111101011;
	733 :	1111111111011010;
	732 :	0000000000010011;
	731 :	1111111111001010;
	730 :	1111111111101101;
	729 :	1111111111100001;
	728 :	0000000000000010;
	727 :	1111111111101001;
	726 :	0000000000100010;
	725 :	1111111111110101;
	724 :	1111111111010111;
	723 :	0000000000100110;
	722 :	1111111111101110;
	721 :	1111111111110111;
	720 :	1111111110011101;
	719 :	1111111110011110;
	718 :	1111111110111111;
	717 :	1111111111111001;
	716 :	1111111111101101;
	715 :	0000000001100101;
	714 :	1111111111110111;
	713 :	1111111110010001;
	712 :	0000000001101001;
	711 :	0000000001110011;
	710 :	0000000000110101;
	709 :	1111111111101010;
	708 :	1111111111001101;
	707 :	1111111111101110;
	706 :	1111111111110010;
	705 :	0000000000010011;
	704 :	0000000000101000;
	703 :	0000000000010010;
	702 :	0000000000010001;
	701 :	0000000000000111;
	700 :	0000000000010001;
	699 :	1111111111101101;
	698 :	0000000000010100;
	697 :	1111111110111110;
	696 :	1111111111111111;
	695 :	1111111111101100;
	694 :	1111111111011000;
	693 :	1111111100101001;
	692 :	1111111011100001;
	691 :	1111111010001110;
	690 :	1111111010010010;
	689 :	1111110110111011;
	688 :	1111110110011000;
	687 :	1111110000110101;
	686 :	1111110010100000;
	685 :	1111110100101100;
	684 :	1111111101010000;
	683 :	1111111100000000;
	682 :	0000000000001010;
	681 :	1111111011100010;
	680 :	1111111011001111;
	679 :	1111111101010100;
	678 :	1111111111000100;
	677 :	1111111111110000;
	676 :	0000000001001101;
	675 :	1111111111111001;
	674 :	0000000000001111;
	673 :	0000000000011111;
	672 :	1111111111001101;
	671 :	0000000000011001;
	670 :	1111111111111011;
	669 :	1111111110111010;
	668 :	1111111110100100;
	667 :	1111111011101010;
	666 :	1111111011100111;
	665 :	1111111100101000;
	664 :	1111111100001011;
	663 :	1111111010111101;
	662 :	1111111010110000;
	661 :	1111110011000000;
	660 :	1111110111001110;
	659 :	1111111010001100;
	658 :	1111111100000010;
	657 :	1111111000111100;
	656 :	1111110000011101;
	655 :	1111101110100111;
	654 :	1111111001011010;
	653 :	1111110000101000;
	652 :	1111110000100110;
	651 :	1111110101010101;
	650 :	1111111100111110;
	649 :	1111111111111011;
	648 :	0000000000011000;
	647 :	0000000000011010;
	646 :	0000000001001101;
	645 :	0000000000110001;
	644 :	0000000000000001;
	643 :	1111111111001011;
	642 :	1111111111001010;
	641 :	1111111110011100;
	640 :	1111111001010110;
	639 :	1111110100101111;
	638 :	1111110101010101;
	637 :	1111110111111010;
	636 :	1111111110001100;
	635 :	1111111100000001;
	634 :	1111111010101010;
	633 :	1111111010110010;
	632 :	0000000001001101;
	631 :	0000001001111001;
	630 :	1111111101110000;
	629 :	1111111111110010;
	628 :	1111111011101000;
	627 :	1111111011101110;
	626 :	0000001000001000;
	625 :	1111111101111101;
	624 :	1111110010100100;
	623 :	1111111000111000;
	622 :	1111110110100100;
	621 :	1111111100101000;
	620 :	1111111110010000;
	619 :	1111111111101011;
	618 :	1111111111110100;
	617 :	1111111111101001;
	616 :	0000000001000110;
	615 :	0000000001000100;
	614 :	1111111111110100;
	613 :	1111111110101000;
	612 :	1111110111111111;
	611 :	1111110110010111;
	610 :	1111111001001111;
	609 :	1111111010010101;
	608 :	0000000000001100;
	607 :	0000000010110010;
	606 :	0000001001000000;
	605 :	0000000000110010;
	604 :	1111111001101011;
	603 :	1111111111100000;
	602 :	0000001100000100;
	601 :	1111111111110101;
	600 :	0000000111010010;
	599 :	0000000011111001;
	598 :	0000000101110010;
	597 :	0000000011111100;
	596 :	1111111101101011;
	595 :	1111111101111000;
	594 :	1111111101101000;
	593 :	1111111011101111;
	592 :	1111111110001101;
	591 :	0000000000100001;
	590 :	1111111111111011;
	589 :	1111111111110011;
	588 :	0000000000101010;
	587 :	1111111111100001;
	586 :	0000000000001000;
	585 :	1111111101100101;
	584 :	1111110111100111;
	583 :	1111111100011100;
	582 :	1111111010011100;
	581 :	1111111110011101;
	580 :	0000000010000001;
	579 :	0000000010000110;
	578 :	0000001011011100;
	577 :	0000000101101000;
	576 :	1111111011010101;
	575 :	1111111111100011;
	574 :	0000001010111001;
	573 :	0000000011100001;
	572 :	0000000111110100;
	571 :	0000001011100110;
	570 :	0000001010011001;
	569 :	0000000000001101;
	568 :	1111110111100101;
	567 :	1111111101110011;
	566 :	1111111111100101;
	565 :	1111111110010010;
	564 :	1111111101011110;
	563 :	1111111111011010;
	562 :	1111111111101000;
	561 :	0000000000001100;
	560 :	0000000000000100;
	559 :	1111111111110101;
	558 :	1111111111101100;
	557 :	1111111111001010;
	556 :	1111111100010000;
	555 :	1111111101101101;
	554 :	1111111010110010;
	553 :	1111111010001101;
	552 :	1111111101001110;
	551 :	0000000001100000;
	550 :	1111111010111110;
	549 :	0000000001011010;
	548 :	0000000101101101;
	547 :	0000000010110110;
	546 :	0000000010011100;
	545 :	0000000100111110;
	544 :	0000010001011001;
	543 :	0000010100101000;
	542 :	0000001101011000;
	541 :	1111111110011001;
	540 :	0000000010100101;
	539 :	0000000010011111;
	538 :	1111111110100101;
	537 :	0000000010001001;
	536 :	1111111011101010;
	535 :	1111111110001000;
	534 :	1111111111111100;
	533 :	1111111111110100;
	532 :	0000000000000001;
	531 :	0000000000010011;
	530 :	0000000000011001;
	529 :	0000000001111100;
	528 :	0000000001111110;
	527 :	0000000100101010;
	526 :	1111111110000001;
	525 :	1111111101010001;
	524 :	1111110110110000;
	523 :	0000000101011000;
	522 :	0000000001011100;
	521 :	1111111111011001;
	520 :	0000000101110110;
	519 :	0000000001000100;
	518 :	0000000010010110;
	517 :	0000000110000001;
	516 :	0000001001100111;
	515 :	1111111101010101;
	514 :	0000000001011111;
	513 :	1111111110100110;
	512 :	0000001010001110;
	511 :	1111111110111000;
	510 :	1111111010010101;
	509 :	1111111110101100;
	508 :	1111111011011001;
	507 :	1111111101010110;
	506 :	0000000000010010;
	505 :	1111111111100010;
	504 :	1111111111101001;
	503 :	0000000001000001;
	502 :	0000000001101111;
	501 :	0000000101110110;
	500 :	0000000101000110;
	499 :	0000000110010000;
	498 :	0000000011101110;
	497 :	0000000111100100;
	496 :	0000000100010100;
	495 :	0000000110110010;
	494 :	0000000101000101;
	493 :	0000000011111111;
	492 :	1111110110000001;
	491 :	1111111000100011;
	490 :	0000000001010110;
	489 :	0000000110111011;
	488 :	1111111011011011;
	487 :	0000001101100100;
	486 :	0000001001011011;
	485 :	0000000000010001;
	484 :	0000001010011111;
	483 :	1111111101100011;
	482 :	0000000011110001;
	481 :	1111111010110010;
	480 :	1111111101110000;
	479 :	1111111011100101;
	478 :	0000000000010011;
	477 :	0000000000110100;
	476 :	1111111111101011;
	475 :	1111111111110010;
	474 :	0000000010111000;
	473 :	0000001000001000;
	472 :	0000000000110000;
	471 :	0000000110001000;
	470 :	1111111110110110;
	469 :	0000000001010100;
	468 :	1111111110011011;
	467 :	0000001100000000;
	466 :	0000000000100110;
	465 :	0000000110100100;
	464 :	0000000011000001;
	463 :	0000000001101110;
	462 :	0000000101110011;
	461 :	0000000000011101;
	460 :	1111111111010000;
	459 :	0000010001001010;
	458 :	0000001110111111;
	457 :	0000000100100111;
	456 :	1111111110111111;
	455 :	0000000010111010;
	454 :	0000001001110100;
	453 :	1111111011111110;
	452 :	1111111101001010;
	451 :	1111111110110011;
	450 :	0000000000000111;
	449 :	1111111111010010;
	448 :	0000000000101011;
	447 :	0000000000110111;
	446 :	1111111101101000;
	445 :	0000000110100110;
	444 :	1111111101010110;
	443 :	0000000010111100;
	442 :	0000000111011011;
	441 :	0000000101100001;
	440 :	0000001000100001;
	439 :	0000010000011100;
	438 :	0000000001101011;
	437 :	0000000101011111;
	436 :	0000000001010011;
	435 :	1111111101001100;
	434 :	1111111100111011;
	433 :	1111111100100011;
	432 :	0000001001010111;
	431 :	0000000110101100;
	430 :	0000000001001101;
	429 :	1111111111000110;
	428 :	0000000101001001;
	427 :	0000001000010000;
	426 :	0000000101111011;
	425 :	1111110101010011;
	424 :	1111111101001111;
	423 :	0000000001011000;
	422 :	1111111111101000;
	421 :	0000000000000001;
	420 :	0000000000010101;
	419 :	1111111111111011;
	418 :	1111111111111101;
	417 :	0000000010001000;
	416 :	1111111111100111;
	415 :	0000000111001100;
	414 :	0000001011101010;
	413 :	0000001010001001;
	412 :	0000000100001000;
	411 :	1111111010101111;
	410 :	0000001010101000;
	409 :	1111111010101010;
	408 :	0000001100011100;
	407 :	0000000111010101;
	406 :	1111110101110000;
	405 :	1111111110111011;
	404 :	0000000000100111;
	403 :	0000001001011101;
	402 :	0000000010100110;
	401 :	0000000000101001;
	400 :	1111111010101101;
	399 :	0000000010100010;
	398 :	0000001000110100;
	397 :	1111111011101010;
	396 :	1111111111111011;
	395 :	0000000011010100;
	394 :	1111111111100111;
	393 :	0000000000011110;
	392 :	0000000000111101;
	391 :	1111111111100010;
	390 :	1111111111011100;
	389 :	1111111111010001;
	388 :	0000001011110011;
	387 :	0000001010100001;
	386 :	0000000110110000;
	385 :	0000001010000100;
	384 :	0000000100110000;
	383 :	0000000001000100;
	382 :	0000000010100100;
	381 :	1111111010101001;
	380 :	0000000111110110;
	379 :	0000001000110010;
	378 :	1111110111011110;
	377 :	0000001101100100;
	376 :	0000000011101000;
	375 :	0000000101010010;
	374 :	1111111111111000;
	373 :	1111111101001110;
	372 :	1111111000011010;
	371 :	0000000000100010;
	370 :	0000000010101000;
	369 :	0000000000001000;
	368 :	0000001000010001;
	367 :	0000000011011011;
	366 :	1111111111111010;
	365 :	1111111111100010;
	364 :	1111111111111010;
	363 :	1111111111010110;
	362 :	1111111001101100;
	361 :	1111111100001100;
	360 :	0000000000010011;
	359 :	0000000101001101;
	358 :	0000000101000010;
	357 :	0000000101101000;
	356 :	0000000011000101;
	355 :	1111111111011110;
	354 :	0000000011100111;
	353 :	0000000100010101;
	352 :	0000000111000110;
	351 :	1111111110100000;
	350 :	1111111111011011;
	349 :	1111111001001000;
	348 :	1111111101101010;
	347 :	0000000100001110;
	346 :	1111111110110001;
	345 :	0000000001101000;
	344 :	0000000100001101;
	343 :	0000000001010111;
	342 :	1111111010111111;
	341 :	0000000001011111;
	340 :	0000001000111011;
	339 :	0000000001100010;
	338 :	1111111111011101;
	337 :	1111111111100000;
	336 :	0000000000010000;
	335 :	1111111111101100;
	334 :	1111111000101111;
	333 :	1111110011001111;
	332 :	1111110011111100;
	331 :	1111111110000100;
	330 :	0000000000111011;
	329 :	0000000010000111;
	328 :	1111111111100010;
	327 :	0000000101000000;
	326 :	0000000000010100;
	325 :	0000000010000001;
	324 :	0000000111010111;
	323 :	1111110100001110;
	322 :	1111110111111010;
	321 :	1111111111001101;
	320 :	1111111001111010;
	319 :	1111110110010100;
	318 :	1111111010110010;
	317 :	0000000001100011;
	316 :	1111111011110101;
	315 :	1111111100100011;
	314 :	1111111010011000;
	313 :	0000000001001101;
	312 :	0000000101101111;
	311 :	1111111011101110;
	310 :	0000000000000111;
	309 :	0000000000011001;
	308 :	0000000000000000;
	307 :	1111111111111100;
	306 :	1111111100000000;
	305 :	1111110011110010;
	304 :	1111110100010011;
	303 :	1111111010101001;
	302 :	1111111101011011;
	301 :	1111111101000010;
	300 :	1111110110111101;
	299 :	1111110110011011;
	298 :	1111111101000010;
	297 :	1111111001000100;
	296 :	1111110010101011;
	295 :	1111110110010000;
	294 :	1111111000111110;
	293 :	1111111011100111;
	292 :	1111110110011110;
	291 :	1111111011001010;
	290 :	1111111100101111;
	289 :	1111111100011101;
	288 :	0000000100110110;
	287 :	1111111101010000;
	286 :	1111111100110100;
	285 :	0000000010100111;
	284 :	0000000001010001;
	283 :	1111111100110101;
	282 :	0000000000010001;
	281 :	1111111111010110;
	280 :	0000000000010111;
	279 :	0000000000010110;
	278 :	1111111100000001;
	277 :	1111110101001110;
	276 :	1111110010110010;
	275 :	1111110100010111;
	274 :	1111110100011110;
	273 :	1111111011000010;
	272 :	1111111011110111;
	271 :	1111101111111010;
	270 :	1111100111111110;
	269 :	1111101010100110;
	268 :	1111100011110110;
	267 :	1111101100111101;
	266 :	1111111011110100;
	265 :	1111111001110000;
	264 :	0000000110010100;
	263 :	1111111110011100;
	262 :	1111111000000011;
	261 :	1111110110000010;
	260 :	1111111111001100;
	259 :	1111111010111111;
	258 :	1111110101010111;
	257 :	1111111010001110;
	256 :	0000000010101011;
	255 :	1111111101010011;
	254 :	1111111111110001;
	253 :	0000000000100111;
	252 :	0000000000100110;
	251 :	1111111101011001;
	250 :	1111111011111011;
	249 :	1111110111110111;
	248 :	1111110010011100;
	247 :	1111101010110111;
	246 :	1111101010111000;
	245 :	1111101001101011;
	244 :	1111101000111000;
	243 :	1111100001010101;
	242 :	1111011111110110;
	241 :	1111110010010001;
	240 :	1111110100010110;
	239 :	1111101111011001;
	238 :	1111111011101011;
	237 :	0000000100010000;
	236 :	1111111001010010;
	235 :	1111111111101001;
	234 :	1111111000000110;
	233 :	1111111000010001;
	232 :	1111110111110011;
	231 :	1111111001000100;
	230 :	1111110110011100;
	229 :	1111111001101000;
	228 :	1111111111111101;
	227 :	1111111100100001;
	226 :	0000000000010110;
	225 :	0000000000001100;
	224 :	0000000000100101;
	223 :	0000000000001110;
	222 :	1111111110001011;
	221 :	1111111110110111;
	220 :	1111111100000011;
	219 :	1111101001111100;
	218 :	1111101011011100;
	217 :	1111100111000100;
	216 :	1111100001100100;
	215 :	1111100010100011;
	214 :	1111110100011111;
	213 :	1111111011100000;
	212 :	1111111111000001;
	211 :	0000001001010101;
	210 :	0000000001010110;
	209 :	1111111001010101;
	208 :	1111111000101010;
	207 :	0000000011101001;
	206 :	1111111111110011;
	205 :	1111110110011000;
	204 :	1111110101001001;
	203 :	1111111111111001;
	202 :	1111111111100100;
	201 :	1111111101110010;
	200 :	0000000001101001;
	199 :	1111111010111101;
	198 :	1111111111101111;
	197 :	1111111111001111;
	196 :	0000000000001110;
	195 :	1111111111011010;
	194 :	1111111111000001;
	193 :	1111111111110110;
	192 :	1111111011101110;
	191 :	1111110100001101;
	190 :	1111111000000111;
	189 :	1111110100011001;
	188 :	1111110010111001;
	187 :	1111110111110111;
	186 :	1111111000110010;
	185 :	1111111100111001;
	184 :	1111111100011110;
	183 :	1111111010100011;
	182 :	1111111110010011;
	181 :	1111111110011010;
	180 :	1111110111110110;
	179 :	0000000100011001;
	178 :	1111111001010000;
	177 :	1111110111110111;
	176 :	1111110100100010;
	175 :	1111111100011110;
	174 :	1111111111011011;
	173 :	1111111011011000;
	172 :	0000000011110100;
	171 :	1111111110111111;
	170 :	0000000000001001;
	169 :	0000000000000110;
	168 :	1111111111010111;
	167 :	1111111111110000;
	166 :	1111111111110100;
	165 :	1111111101011001;
	164 :	1111111101011011;
	163 :	1111111111010011;
	162 :	0000000010011111;
	161 :	0000000111001000;
	160 :	0000000101011001;
	159 :	0000000101100010;
	158 :	0000000001101110;
	157 :	0000000110000000;
	156 :	1111111111011100;
	155 :	1111111101010000;
	154 :	1111111100100111;
	153 :	1111111011011111;
	152 :	0000000000010011;
	151 :	1111111011001110;
	150 :	0000000100111010;
	149 :	1111110111101001;
	148 :	1111110110110010;
	147 :	1111111011100000;
	146 :	1111111100110000;
	145 :	1111111011010011;
	144 :	0000000100001001;
	143 :	0000000000000011;
	142 :	1111111111111011;
	141 :	0000000001000110;
	140 :	0000000000101001;
	139 :	1111111111001001;
	138 :	1111111111101010;
	137 :	1111111101111100;
	136 :	1111111101011101;
	135 :	0000000001100010;
	134 :	0000000111000001;
	133 :	0000001010110111;
	132 :	0000000111011011;
	131 :	0000001101001100;
	130 :	0000000010110010;
	129 :	0000000011111101;
	128 :	0000000010101110;
	127 :	1111111100110111;
	126 :	0000000000101111;
	125 :	0000000001101011;
	124 :	1111111011001101;
	123 :	1111111001100011;
	122 :	0000000101010010;
	121 :	1111111001011100;
	120 :	1111111101010011;
	119 :	0000000011010101;
	118 :	0000000001000101;
	117 :	1111111110000100;
	116 :	0000000000010100;
	115 :	1111111111110111;
	114 :	0000000000001101;
	113 :	0000000000010010;
	112 :	0000000000000000;
	111 :	0000000000010010;
	110 :	1111111110111001;
	109 :	1111111110011011;
	108 :	1111111111110101;
	107 :	0000000100100111;
	106 :	0000000111010111;
	105 :	0000001000101110;
	104 :	0000000100100011;
	103 :	0000000110110000;
	102 :	0000000010110010;
	101 :	1111111111111010;
	100 :	0000000001000001;
	99 :	0000000000001000;
	98 :	0000000100111100;
	97 :	0000000101011101;
	96 :	1111111100111111;
	95 :	0000000001001100;
	94 :	0000000001100000;
	93 :	0000000111010001;
	92 :	0000000101011010;
	91 :	0000000111111010;
	90 :	0000000101100100;
	89 :	0000000000001111;
	88 :	1111111111101110;
	87 :	1111111111111011;
	86 :	1111111111101110;
	85 :	0000000000110010;
	84 :	1111111111111101;
	83 :	0000000000101010;
	82 :	0000000000000000;
	81 :	0000000000101100;
	80 :	0000000000101001;
	79 :	0000000001100011;
	78 :	0000000001110101;
	77 :	0000000010010011;
	76 :	1111111111111001;
	75 :	0000000000111011;
	74 :	0000000010101100;
	73 :	0000000101001010;
	72 :	0000000011111010;
	71 :	0000000011101011;
	70 :	0000001010100011;
	69 :	0000000100100000;
	68 :	0000000111101101;
	67 :	0000000100110000;
	66 :	0000001000001011;
	65 :	0000000110011011;
	64 :	0000000111110000;
	63 :	0000000101011010;
	62 :	0000000010001010;
	61 :	1111111111101101;
	60 :	0000000000000000;
	59 :	0000000000010000;
	58 :	1111111111110101;
	57 :	1111111111100111;
	56 :	0000000000001100;
	55 :	0000000000100100;
	54 :	0000000000000111;
	53 :	0000000000100100;
	52 :	1111111111011011;
	51 :	0000000000000101;
	50 :	0000000000001110;
	49 :	1111111111011010;
	48 :	0000000001010001;
	47 :	0000000001101100;
	46 :	0000000001001001;
	45 :	0000000000101110;
	44 :	0000000010001001;
	43 :	0000000000101000;
	42 :	0000000001011100;
	41 :	0000000010101001;
	40 :	0000000010011010;
	39 :	0000000000111110;
	38 :	0000000001100001;
	37 :	0000000001101011;
	36 :	0000000101000001;
	35 :	0000000011110001;
	34 :	0000000001111010;
	33 :	1111111111111110;
	32 :	1111111111110100;
	31 :	0000000000101111;
	30 :	0000000000001101;
	29 :	0000000000100111;
	28 :	0000000000101010;
	27 :	1111111111111110;
	26 :	0000000000001111;
	25 :	0000000000101110;
	24 :	1111111111100010;
	23 :	0000000000001011;
	22 :	1111111111011010;
	21 :	0000000000001010;
	20 :	1111111111100110;
	19 :	1111111111100001;
	18 :	0000000000010010;
	17 :	0000000000001000;
	16 :	0000000000100000;
	15 :	1111111111101000;
	14 :	1111111111101111;
	13 :	1111111111111010;
	12 :	1111111111100001;
	11 :	1111111111100010;
	10 :	1111111110110110;
	9 :	0000000000001110;
	8 :	0000000000010101;
	7 :	0000000000001011;
	6 :	0000000000000101;
	5 :	0000000000010010;
	4 :	1111111111111110;
	3 :	1111111111110111;
	2 :	0000000000001011;
	1 :	1111111111001010;
	0 :	0000000000001111;
END;
