-- begin_signature
-- Weight_Memory(numWeight
-- 784
-- neuronNo
-- 24
-- layerNo
-- 1
-- addressWidth
-- 10
-- dataWidth
-- 16
-- weightFile
-- "w_1_24.mif")
-- end_signature
WIDTH=16;
DEPTH=784;

ADDRESS_RADIX=UNS;
DATA_RADIX=BIN;

CONTENT BEGIN
	783 :	0000000000001111;
	782 :	1111111111000110;
	781 :	1111111111101000;
	780 :	1111111111111110;
	779 :	0000000000100001;
	778 :	1111111111110101;
	777 :	0000000000010010;
	776 :	1111111111100100;
	775 :	1111111111111001;
	774 :	1111111111110101;
	773 :	1111111110110110;
	772 :	0000000000100100;
	771 :	0000000000011010;
	770 :	0000000000000000;
	769 :	1111111111110101;
	768 :	0000000000100011;
	767 :	1111111111110001;
	766 :	0000000000011111;
	765 :	0000000000110001;
	764 :	0000000000010101;
	763 :	0000000000010110;
	762 :	1111111111100011;
	761 :	0000000001010100;
	760 :	0000000000001110;
	759 :	0000000001110000;
	758 :	1111111111110111;
	757 :	1111111110101110;
	756 :	0000000000000011;
	755 :	0000000000001101;
	754 :	0000000000111000;
	753 :	0000000000110100;
	752 :	0000000000001000;
	751 :	1111111111111110;
	750 :	1111111111001111;
	749 :	1111111101100110;
	748 :	1111111111010011;
	747 :	0000000001010010;
	746 :	0000000000001100;
	745 :	0000000000000010;
	744 :	1111111111001100;
	743 :	1111111110111001;
	742 :	1111111101111000;
	741 :	1111111101100000;
	740 :	1111111011110000;
	739 :	1111111011001111;
	738 :	1111111011111000;
	737 :	1111111111010101;
	736 :	0000000001000111;
	735 :	0000000000000001;
	734 :	0000000000101000;
	733 :	1111111111001110;
	732 :	1111111111111101;
	731 :	1111111111101100;
	730 :	0000000000101011;
	729 :	1111111111101100;
	728 :	0000000000000011;
	727 :	1111111111100101;
	726 :	1111111111001100;
	725 :	1111111111111100;
	724 :	0000000000001111;
	723 :	1111111111100111;
	722 :	0000000000111111;
	721 :	0000000000010101;
	720 :	1111111111100101;
	719 :	1111111111010000;
	718 :	1111111100000010;
	717 :	1111111100001000;
	716 :	0000000000110000;
	715 :	1111111110011010;
	714 :	1111111111001010;
	713 :	1111111110001110;
	712 :	0000000000100110;
	711 :	1111111101110010;
	710 :	0000000000110100;
	709 :	0000000000010101;
	708 :	0000000100110010;
	707 :	0000000100001001;
	706 :	0000000100000011;
	705 :	0000000010110010;
	704 :	0000000001000000;
	703 :	1111111111101000;
	702 :	1111111111101110;
	701 :	1111111111101001;
	700 :	1111111111111011;
	699 :	0000000000000000;
	698 :	0000000000101100;
	697 :	0000000000111011;
	696 :	1111111110100001;
	695 :	1111111101010110;
	694 :	1111111101110100;
	693 :	1111111100110000;
	692 :	1111111010000110;
	691 :	1111110110010111;
	690 :	1111110111010111;
	689 :	1111111011101111;
	688 :	1111110110101000;
	687 :	1111111100000110;
	686 :	0000000111011000;
	685 :	1111111011001101;
	684 :	1111110110101100;
	683 :	0000000000011010;
	682 :	0000000100011111;
	681 :	0000000101111000;
	680 :	0000000000101100;
	679 :	0000000011111011;
	678 :	0000001010000010;
	677 :	0000001001001110;
	676 :	0000000101000111;
	675 :	0000000001101011;
	674 :	0000000000000011;
	673 :	0000000001001000;
	672 :	0000000000001010;
	671 :	0000000000100001;
	670 :	1111111111011010;
	669 :	1111111111101101;
	668 :	1111111010110100;
	667 :	1111111001100100;
	666 :	1111111000111000;
	665 :	1111111001001101;
	664 :	1111111101000100;
	663 :	0000000000000000;
	662 :	0000000010001111;
	661 :	1111111010100001;
	660 :	0000000000101010;
	659 :	0000000111011111;
	658 :	1111111100100011;
	657 :	1111111100100100;
	656 :	1111111000111101;
	655 :	0000001001001000;
	654 :	0000000110101001;
	653 :	0000001001100000;
	652 :	0000000000101010;
	651 :	0000000110110000;
	650 :	0000000100001011;
	649 :	0000001010011001;
	648 :	0000000111111101;
	647 :	0000000101100010;
	646 :	0000000000011010;
	645 :	0000000000110100;
	644 :	0000000000000000;
	643 :	1111111111110101;
	642 :	0000000000010011;
	641 :	1111111111010101;
	640 :	1111111011111001;
	639 :	1111111000100100;
	638 :	0000000010110011;
	637 :	1111111111111111;
	636 :	0000000011010010;
	635 :	0000000000100100;
	634 :	1111111111111101;
	633 :	1111110110110111;
	632 :	1111111101010010;
	631 :	0000000001111110;
	630 :	0000000010101101;
	629 :	0000000110100100;
	628 :	1111111001000010;
	627 :	1111111010111100;
	626 :	0000000010000010;
	625 :	1111111110111001;
	624 :	1111111010110110;
	623 :	1111111110001100;
	622 :	1111111101100011;
	621 :	0000000110001101;
	620 :	0000000110011111;
	619 :	0000000000101011;
	618 :	1111111101011110;
	617 :	0000000000000000;
	616 :	1111111111110010;
	615 :	0000000000001100;
	614 :	0000000000100000;
	613 :	0000000000000000;
	612 :	1111111011000100;
	611 :	1111110101100110;
	610 :	1111111110001011;
	609 :	1111111111101100;
	608 :	1111110101010111;
	607 :	0000000011101000;
	606 :	1111111110110110;
	605 :	1111111111100010;
	604 :	0000000010000011;
	603 :	1111111100011011;
	602 :	1111111110110110;
	601 :	1111111111110111;
	600 :	1111111010011110;
	599 :	1111111000000111;
	598 :	1111111011000111;
	597 :	1111111000110110;
	596 :	0000000001011011;
	595 :	0000000101100010;
	594 :	0000000100001011;
	593 :	0000000011001101;
	592 :	0000000111000110;
	591 :	0000000001111100;
	590 :	1111111100100001;
	589 :	0000000001000010;
	588 :	0000000000010110;
	587 :	0000000000111000;
	586 :	1111111111111000;
	585 :	1111111111101100;
	584 :	0000000000000010;
	583 :	1111110110101110;
	582 :	0000000001001110;
	581 :	0000000001100100;
	580 :	1111111101000100;
	579 :	0000000010011111;
	578 :	0000000110001100;
	577 :	0000000110010010;
	576 :	0000000100010101;
	575 :	0000000100110000;
	574 :	1111111110001100;
	573 :	1111111111010001;
	572 :	1111111100101010;
	571 :	0000000010010111;
	570 :	0000001011001110;
	569 :	0000000111000101;
	568 :	0000000110000100;
	567 :	1111111001011001;
	566 :	0000000010001101;
	565 :	1111111011010011;
	564 :	0000000100000001;
	563 :	0000000110100101;
	562 :	1111111111011111;
	561 :	0000000000111100;
	560 :	1111111111110110;
	559 :	1111111111101000;
	558 :	0000000000001101;
	557 :	1111111110100100;
	556 :	1111111010010000;
	555 :	1111111101001001;
	554 :	1111111101111100;
	553 :	0000001000100111;
	552 :	0000000010101011;
	551 :	0000000011010100;
	550 :	1111111000111101;
	549 :	1111111000111011;
	548 :	0000000001100000;
	547 :	1111101101101010;
	546 :	1111111010011110;
	545 :	0000001001101000;
	544 :	0000001011110011;
	543 :	0000001010011101;
	542 :	0000001000001001;
	541 :	1111111111000100;
	540 :	1111111101110010;
	539 :	1111110101101100;
	538 :	0000000010110000;
	537 :	0000000110100000;
	536 :	0000000001101110;
	535 :	0000001011001010;
	534 :	0000000001100111;
	533 :	1111111111110100;
	532 :	0000000000110001;
	531 :	0000000000000100;
	530 :	1111111111001101;
	529 :	1111111101111000;
	528 :	1111110101001100;
	527 :	1111111011001001;
	526 :	0000000101011001;
	525 :	0000000110011110;
	524 :	0000000000110011;
	523 :	0000000111110100;
	522 :	0000000010101101;
	521 :	1111110111000001;
	520 :	1111111101000000;
	519 :	1111110011101000;
	518 :	1111101001100111;
	517 :	1111101101011101;
	516 :	1111101111110011;
	515 :	1111110011110100;
	514 :	1111110000111010;
	513 :	1111110011100000;
	512 :	1111111111000111;
	511 :	1111110110001010;
	510 :	0000000001001111;
	509 :	0000000000001001;
	508 :	0000000000101111;
	507 :	0000001111000111;
	506 :	0000000001111110;
	505 :	0000000000011011;
	504 :	1111111111111101;
	503 :	0000000000010111;
	502 :	1111111111111111;
	501 :	1111111010001010;
	500 :	1111110011101011;
	499 :	0000000000110011;
	498 :	0000000100011110;
	497 :	0000000011011000;
	496 :	0000000010000011;
	495 :	0000001000101001;
	494 :	1111111110101001;
	493 :	0000000111111111;
	492 :	0000000011101011;
	491 :	1111110001100010;
	490 :	1111010111101001;
	489 :	1111010001001100;
	488 :	1111001011110111;
	487 :	1111010110000000;
	486 :	1111001110101000;
	485 :	1111100011100000;
	484 :	1111101001011001;
	483 :	1111110010010100;
	482 :	1111101010101110;
	481 :	1111110010011100;
	480 :	1111111100100100;
	479 :	0000000101010110;
	478 :	0000000001111000;
	477 :	0000000000010101;
	476 :	1111111111101011;
	475 :	1111111111101001;
	474 :	1111111101111011;
	473 :	1111111011010001;
	472 :	1111111011001001;
	471 :	0000000110110001;
	470 :	0000010011010001;
	469 :	0000001011010100;
	468 :	0000000110001111;
	467 :	1111111101011000;
	466 :	0000000100110111;
	465 :	0000001000000011;
	464 :	0000000001110001;
	463 :	1111111110111100;
	462 :	1111111100010001;
	461 :	0000000010111110;
	460 :	1111110101011110;
	459 :	1111111100101111;
	458 :	1111111100111011;
	457 :	1111110101111101;
	456 :	1111101100000101;
	455 :	1111110000110000;
	454 :	1111101100111111;
	453 :	1111110110011100;
	452 :	1111111100010110;
	451 :	1111111100110001;
	450 :	0000000010000011;
	449 :	0000000000000101;
	448 :	1111111110110110;
	447 :	1111111111111011;
	446 :	1111111111111110;
	445 :	1111111110000011;
	444 :	1111111001010101;
	443 :	0000000011001011;
	442 :	0000010010111011;
	441 :	0000001111111010;
	440 :	0000000110111100;
	439 :	0000000101011001;
	438 :	0000000011110110;
	437 :	1111111101000100;
	436 :	1111111010101000;
	435 :	0000000111001000;
	434 :	0000001110010011;
	433 :	0000001000011011;
	432 :	1111111110010101;
	431 :	1111111110110101;
	430 :	0000000001101001;
	429 :	0000000000011110;
	428 :	1111111011100001;
	427 :	1111110000100001;
	426 :	1111110100100101;
	425 :	1111111101110111;
	424 :	1111111101101011;
	423 :	1111111010010001;
	422 :	0000000000011100;
	421 :	0000000000010010;
	420 :	1111111111010101;
	419 :	0000000000101001;
	418 :	1111111111001110;
	417 :	1111111110100101;
	416 :	1111111011000110;
	415 :	1111111010100011;
	414 :	0000000101010010;
	413 :	0000010010011101;
	412 :	0000000000000011;
	411 :	1111111111111110;
	410 :	1111111111001110;
	409 :	1111111000111010;
	408 :	1111111111000111;
	407 :	0000000110100111;
	406 :	0000000010000110;
	405 :	1111111111111001;
	404 :	0000000001011000;
	403 :	1111110110110111;
	402 :	1111110110000010;
	401 :	0000000000100000;
	400 :	0000000001011010;
	399 :	1111111001101001;
	398 :	1111110111110101;
	397 :	1111111110001111;
	396 :	1111111110100010;
	395 :	1111111010010001;
	394 :	0000000000000111;
	393 :	0000000000100100;
	392 :	0000000000010100;
	391 :	1111111111010111;
	390 :	1111111111101011;
	389 :	1111111110110001;
	388 :	1111111100111010;
	387 :	1111111000010011;
	386 :	1111110000001110;
	385 :	1111111100110111;
	384 :	1111111001111100;
	383 :	1111110100101011;
	382 :	1111111100001011;
	381 :	1111110011001111;
	380 :	0000000100101101;
	379 :	0000000101111010;
	378 :	0000001100101101;
	377 :	0000001100011110;
	376 :	1111111111111011;
	375 :	1111111010101000;
	374 :	0000001101010111;
	373 :	0000001101101110;
	372 :	0000000001011010;
	371 :	1111111110010110;
	370 :	1111111111001110;
	369 :	0000000101101001;
	368 :	0000000010011101;
	367 :	1111111111010011;
	366 :	1111111110111100;
	365 :	0000000000011111;
	364 :	1111111111101000;
	363 :	1111111111101110;
	362 :	0000000000001011;
	361 :	1111111111111111;
	360 :	1111111101110000;
	359 :	1111111010011111;
	358 :	1111101101100000;
	357 :	1111100111010001;
	356 :	1111101101110001;
	355 :	1111110010100101;
	354 :	0000000011001001;
	353 :	0000000100111100;
	352 :	0000000110000000;
	351 :	0000000101011000;
	350 :	0000001100100001;
	349 :	0000000010111001;
	348 :	0000001011000100;
	347 :	0000000000000110;
	346 :	0000001011110010;
	345 :	1111111101111010;
	344 :	1111101101111010;
	343 :	1111110011010010;
	342 :	1111110011010001;
	341 :	0000000011001010;
	340 :	0000000010101010;
	339 :	1111111100011011;
	338 :	1111111111100110;
	337 :	1111111111011010;
	336 :	0000000000011000;
	335 :	1111111111000011;
	334 :	1111111111010010;
	333 :	1111111111100000;
	332 :	1111111011110100;
	331 :	1111110101111010;
	330 :	1111101111101001;
	329 :	1111110001010100;
	328 :	1111111011010010;
	327 :	1111111101110111;
	326 :	1111111100100010;
	325 :	0000001011011101;
	324 :	1111110110111011;
	323 :	0000001010000101;
	322 :	0000000110011101;
	321 :	0000001101111010;
	320 :	0000011000001111;
	319 :	0000000001000010;
	318 :	1111110110011110;
	317 :	1111110101001101;
	316 :	1111100100100010;
	315 :	1111101000100000;
	314 :	1111110000011110;
	313 :	1111110101111110;
	312 :	0000000001001010;
	311 :	0000000000011100;
	310 :	0000000001000000;
	309 :	0000000000010000;
	308 :	0000000000011011;
	307 :	1111111111101100;
	306 :	0000000000100011;
	305 :	0000000000100110;
	304 :	1111111100111100;
	303 :	1111111000001010;
	302 :	1111111001101111;
	301 :	0000000011100000;
	300 :	1111111101101011;
	299 :	1111111010101011;
	298 :	1111110001011100;
	297 :	1111111011011101;
	296 :	0000000010000001;
	295 :	0000000011100100;
	294 :	0000001111011001;
	293 :	0000001010001001;
	292 :	1111110110000011;
	291 :	1111110001011100;
	290 :	1111100010000011;
	289 :	1111100011011010;
	288 :	1111100101111000;
	287 :	1111110011011101;
	286 :	1111111001010100;
	285 :	1111111011110010;
	284 :	0000000011111101;
	283 :	0000000100010010;
	282 :	0000000000101101;
	281 :	1111111111101111;
	280 :	0000000000001000;
	279 :	1111111111011011;
	278 :	1111111111011000;
	277 :	1111111111000111;
	276 :	1111111010100011;
	275 :	1111110100101101;
	274 :	1111111100110001;
	273 :	0000000101111101;
	272 :	0000000100011010;
	271 :	1111111110110101;
	270 :	0000000000011011;
	269 :	0000000010011100;
	268 :	0000000100011101;
	267 :	0000010001110111;
	266 :	0000000011011001;
	265 :	1111111110111011;
	264 :	1111100110011011;
	263 :	1111100101100111;
	262 :	1111110001000011;
	261 :	0000000000101100;
	260 :	0000000100100000;
	259 :	0000001001001000;
	258 :	0000000011111011;
	257 :	0000000110011111;
	256 :	0000010010010011;
	255 :	0000000100100000;
	254 :	1111111111010011;
	253 :	1111111111101011;
	252 :	0000000000010101;
	251 :	1111111111101000;
	250 :	0000000000100100;
	249 :	1111111110001111;
	248 :	1111111001111000;
	247 :	1111110001011011;
	246 :	1111111101001111;
	245 :	0000000001100011;
	244 :	0000000001101101;
	243 :	0000001001000111;
	242 :	0000000111101000;
	241 :	0000000100001110;
	240 :	0000000100100101;
	239 :	0000000010110011;
	238 :	1111111100101100;
	237 :	1111111011000101;
	236 :	0000000100011000;
	235 :	1111111110011111;
	234 :	0000000100001111;
	233 :	0000000110101110;
	232 :	0000000101101010;
	231 :	0000000011100100;
	230 :	1111111110100010;
	229 :	0000000111100101;
	228 :	0000001000101110;
	227 :	0000000001000010;
	226 :	0000000010010100;
	225 :	1111111111010000;
	224 :	1111111111100110;
	223 :	1111111111110011;
	222 :	0000000001001111;
	221 :	1111111111011111;
	220 :	1111111011110100;
	219 :	1111110100111001;
	218 :	1111110100101010;
	217 :	1111110111111101;
	216 :	1111111100011111;
	215 :	0000000010101110;
	214 :	0000000000101111;
	213 :	0000000000010100;
	212 :	0000000111101100;
	211 :	1111111100001000;
	210 :	1111111101001001;
	209 :	0000000001001111;
	208 :	0000000000010100;
	207 :	1111111111111001;
	206 :	0000000001011000;
	205 :	1111111111110001;
	204 :	1111111011010011;
	203 :	1111111111111101;
	202 :	0000000010101010;
	201 :	0000010000000110;
	200 :	0000001101000100;
	199 :	0000000001110011;
	198 :	1111111111111000;
	197 :	0000000000001000;
	196 :	0000000000101010;
	195 :	0000000000001010;
	194 :	0000000000000010;
	193 :	1111111111001101;
	192 :	1111111100100110;
	191 :	1111110101111110;
	190 :	1111110011000000;
	189 :	1111111110111000;
	188 :	1111111010010110;
	187 :	1111111110100000;
	186 :	1111111111101011;
	185 :	0000000000101110;
	184 :	0000001010011100;
	183 :	1111111100000010;
	182 :	1111111010111010;
	181 :	0000001111110100;
	180 :	0000000100010001;
	179 :	1111111101001111;
	178 :	1111111110101110;
	177 :	0000000110001111;
	176 :	0000000101001010;
	175 :	0000000011110101;
	174 :	0000001000100100;
	173 :	0000001010001000;
	172 :	0000001010000100;
	171 :	0000000010001010;
	170 :	0000000000000011;
	169 :	1111111111111001;
	168 :	1111111111101110;
	167 :	1111111111101010;
	166 :	0000000000010110;
	165 :	1111111111101001;
	164 :	1111111010111000;
	163 :	1111110111011000;
	162 :	1111111010101001;
	161 :	1111110110100100;
	160 :	1111111110001100;
	159 :	0000000110011101;
	158 :	0000000001101111;
	157 :	1111111110101011;
	156 :	0000000101000010;
	155 :	1111111101110001;
	154 :	1111111011111010;
	153 :	0000000001010100;
	152 :	1111111111100100;
	151 :	1111111110010110;
	150 :	1111111111101000;
	149 :	1111111110100111;
	148 :	0000000001010100;
	147 :	0000001110101101;
	146 :	0000001011101101;
	145 :	0000001100001111;
	144 :	0000001000010100;
	143 :	0000000001101010;
	142 :	1111111111101101;
	141 :	0000000000011001;
	140 :	0000000000001110;
	139 :	0000000000001100;
	138 :	0000000000001101;
	137 :	1111111111001010;
	136 :	1111111110001111;
	135 :	1111111001000111;
	134 :	1111111011010010;
	133 :	1111111010000011;
	132 :	1111110111101001;
	131 :	1111111100111010;
	130 :	0000000000000111;
	129 :	1111111110110101;
	128 :	0000000011001101;
	127 :	0000000001010000;
	126 :	1111111111111000;
	125 :	0000001000110011;
	124 :	0000001000111001;
	123 :	1111111111100000;
	122 :	1111111101100110;
	121 :	1111111100100000;
	120 :	0000000111000101;
	119 :	0000000010011101;
	118 :	0000000000111010;
	117 :	0000000011001101;
	116 :	0000000001011111;
	115 :	0000000000000001;
	114 :	1111111111111101;
	113 :	0000000000001011;
	112 :	0000000000100110;
	111 :	0000000000010010;
	110 :	0000000000000100;
	109 :	1111111111011101;
	108 :	1111111111111010;
	107 :	1111111111011001;
	106 :	1111111100100011;
	105 :	1111111011000111;
	104 :	1111111010001111;
	103 :	1111110110000010;
	102 :	1111111001001101;
	101 :	1111111110010001;
	100 :	1111111100111110;
	99 :	1111111010101011;
	98 :	0000000010010110;
	97 :	1111111111101100;
	96 :	1111111011001111;
	95 :	1111111010001010;
	94 :	1111111100001000;
	93 :	1111111101000110;
	92 :	0000000000100010;
	91 :	0000000000001001;
	90 :	0000000000011001;
	89 :	0000000001001110;
	88 :	1111111111001111;
	87 :	1111111111110101;
	86 :	1111111111101110;
	85 :	1111111111010100;
	84 :	1111111111101100;
	83 :	1111111111010100;
	82 :	1111111111101000;
	81 :	1111111111010110;
	80 :	0000000000000111;
	79 :	1111111111101011;
	78 :	1111111111111011;
	77 :	1111111111110111;
	76 :	1111111110111110;
	75 :	1111111101111100;
	74 :	1111111110000010;
	73 :	1111111111111011;
	72 :	1111111111110110;
	71 :	0000000010111010;
	70 :	1111111111010000;
	69 :	1111111111100010;
	68 :	1111111111010101;
	67 :	0000000000101101;
	66 :	1111111111011100;
	65 :	1111111111000101;
	64 :	1111111111111011;
	63 :	1111111111011110;
	62 :	1111111111101011;
	61 :	0000000000100101;
	60 :	0000000000001111;
	59 :	1111111111010101;
	58 :	0000000000010010;
	57 :	1111111111100101;
	56 :	1111111111101101;
	55 :	0000000000000101;
	54 :	0000000000100100;
	53 :	0000000000010101;
	52 :	0000000000010011;
	51 :	0000000000000011;
	50 :	0000000000001010;
	49 :	1111111111111000;
	48 :	1111111111011111;
	47 :	1111111111110100;
	46 :	0000000000011100;
	45 :	0000000001100110;
	44 :	0000000000100000;
	43 :	0000000000000110;
	42 :	1111111111000000;
	41 :	0000000000000000;
	40 :	1111111111111111;
	39 :	1111111111110101;
	38 :	1111111111110010;
	37 :	1111111111110101;
	36 :	1111111111000111;
	35 :	0000000000111001;
	34 :	0000000000011010;
	33 :	0000000000001000;
	32 :	1111111111110101;
	31 :	0000000000101110;
	30 :	1111111111100000;
	29 :	1111111111111110;
	28 :	1111111111001011;
	27 :	1111111111101000;
	26 :	0000000000010110;
	25 :	1111111111001001;
	24 :	1111111111111011;
	23 :	0000000000101100;
	22 :	1111111111010011;
	21 :	0000000000000010;
	20 :	1111111111101001;
	19 :	1111111111101000;
	18 :	1111111111011110;
	17 :	1111111111010011;
	16 :	1111111111111111;
	15 :	0000000000011110;
	14 :	1111111111110011;
	13 :	1111111111100011;
	12 :	0000000000010010;
	11 :	1111111111111000;
	10 :	1111111111111100;
	9 :	0000000001100110;
	8 :	0000000000001011;
	7 :	1111111111110111;
	6 :	1111111111011010;
	5 :	0000000000000111;
	4 :	0000000000100010;
	3 :	1111111111111000;
	2 :	0000000000010001;
	1 :	1111111111101001;
	0 :	1111111111011111;
END;
