-- begin_signature
-- Weight_Memory(numWeight
-- 784
-- neuronNo
-- 28
-- layerNo
-- 1
-- addressWidth
-- 10
-- dataWidth
-- 16
-- weightFile
-- "w_1_28.mif")
-- end_signature
WIDTH=16;
DEPTH=784;

ADDRESS_RADIX=UNS;
DATA_RADIX=BIN;

CONTENT BEGIN
	783 :	1111111111111111;
	782 :	1111111111000110;
	781 :	0000000000001110;
	780 :	0000000000001011;
	779 :	1111111111111100;
	778 :	1111111111111100;
	777 :	0000000000100010;
	776 :	1111111110001010;
	775 :	0000000000000100;
	774 :	0000000000110100;
	773 :	1111111111100110;
	772 :	1111111111010111;
	771 :	1111111101101101;
	770 :	1111111111101101;
	769 :	0000000000000111;
	768 :	1111111111101011;
	767 :	0000000000110101;
	766 :	1111111111111101;
	765 :	0000000000010010;
	764 :	0000000000000100;
	763 :	1111111111100011;
	762 :	0000000000100111;
	761 :	1111111111111111;
	760 :	1111111111011000;
	759 :	0000000000101001;
	758 :	1111111111110011;
	757 :	1111111111110101;
	756 :	1111111111011111;
	755 :	1111111111111111;
	754 :	0000000000101011;
	753 :	1111111111111110;
	752 :	0000000000100010;
	751 :	0000000000100000;
	750 :	1111111111001110;
	749 :	0000000000111000;
	748 :	1111111110100011;
	747 :	0000000000011100;
	746 :	1111111111110011;
	745 :	1111111101101001;
	744 :	1111111101011110;
	743 :	0000000000011101;
	742 :	0000000001001000;
	741 :	0000000000011111;
	740 :	0000000000010100;
	739 :	0000000001101110;
	738 :	1111111111000101;
	737 :	1111111110110010;
	736 :	1111111111101101;
	735 :	0000000000000000;
	734 :	0000000001010101;
	733 :	0000000001010011;
	732 :	0000000001000010;
	731 :	1111111111110011;
	730 :	1111111111101001;
	729 :	1111111111111010;
	728 :	1111111111010010;
	727 :	0000000000011011;
	726 :	0000000000100111;
	725 :	0000000000001000;
	724 :	0000000000011011;
	723 :	1111111111010000;
	722 :	1111111101001000;
	721 :	1111111110111111;
	720 :	1111111100011010;
	719 :	0000000001101100;
	718 :	0000000000101111;
	717 :	0000000011011110;
	716 :	1111111111111101;
	715 :	0000000011110001;
	714 :	0000000101000101;
	713 :	1111111110101100;
	712 :	1111111010001100;
	711 :	1111111010010110;
	710 :	1111111100101110;
	709 :	1111111101101000;
	708 :	1111111110110000;
	707 :	0000000000111010;
	706 :	0000000000101111;
	705 :	0000000000010011;
	704 :	1111111111111110;
	703 :	0000000000000010;
	702 :	1111111111100111;
	701 :	0000000000101010;
	700 :	0000000000000001;
	699 :	1111111110111100;
	698 :	0000000000111011;
	697 :	0000000001011100;
	696 :	1111111111111011;
	695 :	0000000000000000;
	694 :	1111111011001101;
	693 :	1111111000111000;
	692 :	1111111101111101;
	691 :	1111111111110101;
	690 :	1111111111010011;
	689 :	1111111111000111;
	688 :	1111111011100011;
	687 :	0000000000000000;
	686 :	1111111101100000;
	685 :	1111111010000110;
	684 :	1111111001000100;
	683 :	1111111010000110;
	682 :	1111111000010101;
	681 :	1111110110011011;
	680 :	1111111100011101;
	679 :	1111111010111011;
	678 :	1111111011100010;
	677 :	1111111110001110;
	676 :	1111111111100001;
	675 :	1111111111111100;
	674 :	0000000000101110;
	673 :	0000000000101110;
	672 :	1111111111101100;
	671 :	0000000000011100;
	670 :	1111111111110000;
	669 :	0000000001010101;
	668 :	0000000101100101;
	667 :	0000000100011001;
	666 :	1111111101010110;
	665 :	1111111001011010;
	664 :	1111111010110101;
	663 :	1111111100000000;
	662 :	1111111010101100;
	661 :	1111111001101100;
	660 :	1111110111101010;
	659 :	1111111001010101;
	658 :	1111110110100111;
	657 :	1111110010000100;
	656 :	1111110100101001;
	655 :	1111110011110110;
	654 :	1111101111101010;
	653 :	1111101111100101;
	652 :	1111110101010100;
	651 :	1111110100111101;
	650 :	1111110111100000;
	649 :	1111111011110011;
	648 :	1111111110111001;
	647 :	1111111111111111;
	646 :	0000000000100110;
	645 :	1111111111110101;
	644 :	1111111111011110;
	643 :	0000000000001101;
	642 :	1111111111011011;
	641 :	0000000001011000;
	640 :	0000000001001001;
	639 :	0000000011011010;
	638 :	0000000000010000;
	637 :	1111111010001010;
	636 :	1111111001100010;
	635 :	1111111010101011;
	634 :	1111110110101011;
	633 :	1111110010010000;
	632 :	1111101110011111;
	631 :	1111110100101001;
	630 :	1111110100110100;
	629 :	1111110100010100;
	628 :	1111110111110100;
	627 :	1111110011111111;
	626 :	1111101110001011;
	625 :	1111101100111000;
	624 :	1111110010000010;
	623 :	1111110000100100;
	622 :	1111111001011000;
	621 :	1111111011101000;
	620 :	1111111110101011;
	619 :	1111111111011011;
	618 :	1111111111111000;
	617 :	1111111111010111;
	616 :	1111111111011100;
	615 :	0000000000001110;
	614 :	0000000000000000;
	613 :	1111111111111101;
	612 :	1111111101001101;
	611 :	1111111111001011;
	610 :	1111111010110111;
	609 :	1111111000011101;
	608 :	1111110101001110;
	607 :	1111110101001000;
	606 :	1111110101100101;
	605 :	1111101110101101;
	604 :	1111101110100010;
	603 :	1111110001101100;
	602 :	1111101110001010;
	601 :	1111110100110001;
	600 :	1111111000010001;
	599 :	1111111101010101;
	598 :	1111111101111111;
	597 :	1111111001100001;
	596 :	1111111011111111;
	595 :	1111110111100010;
	594 :	1111111011011100;
	593 :	1111110111100011;
	592 :	1111111110000111;
	591 :	1111111101111101;
	590 :	1111111111110010;
	589 :	0000000000000101;
	588 :	0000000000100011;
	587 :	0000000000110100;
	586 :	0000000001000110;
	585 :	0000000000111110;
	584 :	0000000010010100;
	583 :	0000000011101100;
	582 :	0000000100000111;
	581 :	1111111101010000;
	580 :	1111110111010101;
	579 :	1111111000101101;
	578 :	1111111110010110;
	577 :	1111111010110000;
	576 :	1111111010000101;
	575 :	1111111001111111;
	574 :	1111110100110000;
	573 :	1111111010001001;
	572 :	0000000010100101;
	571 :	0000001101110000;
	570 :	0000000100011101;
	569 :	0000000001111011;
	568 :	0000000101110011;
	567 :	0000000010010010;
	566 :	1111111100101110;
	565 :	1111111000010011;
	564 :	1111111010011010;
	563 :	1111111100011100;
	562 :	1111111111100110;
	561 :	1111111111110010;
	560 :	1111111111011010;
	559 :	1111111111101101;
	558 :	0000000001010110;
	557 :	0000000100000011;
	556 :	0000001000001000;
	555 :	0000001101101011;
	554 :	0000001011011010;
	553 :	0000000100111111;
	552 :	1111111010101100;
	551 :	1111111100100010;
	550 :	0000000001010100;
	549 :	0000000100100110;
	548 :	1111111100100001;
	547 :	0000000000000000;
	546 :	1111111100000111;
	545 :	1111111001010110;
	544 :	0000000000110010;
	543 :	0000000111101100;
	542 :	0000000001111001;
	541 :	1111111100010000;
	540 :	1111111101010111;
	539 :	1111111110001011;
	538 :	1111111001110001;
	537 :	0000000011001011;
	536 :	1111111011010001;
	535 :	0000000000101011;
	534 :	1111111110101001;
	533 :	1111111111100100;
	532 :	1111111111011100;
	531 :	0000000000100100;
	530 :	0000000000011100;
	529 :	0000001000001100;
	528 :	0000000111101000;
	527 :	0000000011011110;
	526 :	0000000100001010;
	525 :	0000000111001010;
	524 :	1111111010011101;
	523 :	0000000011000000;
	522 :	1111111111100111;
	521 :	0000000000000101;
	520 :	1111111010011110;
	519 :	0000000110001111;
	518 :	0000000011010010;
	517 :	0000000011100011;
	516 :	1111111010111101;
	515 :	0000000000111110;
	514 :	0000001010011011;
	513 :	0000000101101101;
	512 :	0000000100111010;
	511 :	0000000011111100;
	510 :	0000001000101011;
	509 :	0000001101001101;
	508 :	0000000001101000;
	507 :	1111111100011000;
	506 :	0000000010110001;
	505 :	1111111111111000;
	504 :	1111111111111110;
	503 :	0000000001000001;
	502 :	0000000001010111;
	501 :	0000000101001010;
	500 :	1111111011001111;
	499 :	1111111111000110;
	498 :	1111111001100000;
	497 :	0000000010001001;
	496 :	0000000101100011;
	495 :	0000000010110011;
	494 :	1111111101111010;
	493 :	1111111101110000;
	492 :	1111111100000011;
	491 :	0000001011101111;
	490 :	0000000011101000;
	489 :	1111111100101000;
	488 :	0000000001100011;
	487 :	1111111101100100;
	486 :	0000000101010111;
	485 :	0000000011000111;
	484 :	1111110110111100;
	483 :	0000000110001110;
	482 :	0000000111111010;
	481 :	0000001000000111;
	480 :	0000001010000011;
	479 :	1111111100000010;
	478 :	0000000010010000;
	477 :	0000000000000110;
	476 :	0000000000010110;
	475 :	1111111111111010;
	474 :	0000000100101001;
	473 :	0000000110000111;
	472 :	1111111111111011;
	471 :	0000000000110001;
	470 :	0000000100011011;
	469 :	0000000111111111;
	468 :	0000000000110100;
	467 :	1111111100111001;
	466 :	1111111111101000;
	465 :	0000001000010010;
	464 :	0000000000100100;
	463 :	0000001011010000;
	462 :	0000000001110001;
	461 :	0000000000011011;
	460 :	0000000011010010;
	459 :	0000000000001100;
	458 :	1111111001011010;
	457 :	1111111100010100;
	456 :	1111111010100100;
	455 :	1111111101000011;
	454 :	1111111101000001;
	453 :	1111111100101001;
	452 :	0000000110101110;
	451 :	1111111100100100;
	450 :	0000000001111011;
	449 :	1111111110001110;
	448 :	0000000000101010;
	447 :	0000000000010101;
	446 :	0000000010010101;
	445 :	0000001001000010;
	444 :	0000000101010111;
	443 :	1111111011001101;
	442 :	1111111000100111;
	441 :	1111111111000001;
	440 :	0000000100000000;
	439 :	0000000111001110;
	438 :	0000000010110010;
	437 :	1111111111100110;
	436 :	1111111101010110;
	435 :	1111111001101110;
	434 :	1111111000011100;
	433 :	0000000110000110;
	432 :	0000001010000110;
	431 :	1111111100111101;
	430 :	1111111100011001;
	429 :	0000000001000101;
	428 :	1111111110001110;
	427 :	1111110111000110;
	426 :	1111110010001111;
	425 :	1111110011101000;
	424 :	0000000000000000;
	423 :	1111111110111010;
	422 :	0000000001000000;
	421 :	0000000000000001;
	420 :	1111111111101100;
	419 :	0000000000011110;
	418 :	0000000011011001;
	417 :	0000000110001011;
	416 :	1111111011001100;
	415 :	1111111011011101;
	414 :	1111111111110111;
	413 :	1111110100100101;
	412 :	1111110111110010;
	411 :	1111111110100001;
	410 :	1111111101101100;
	409 :	0000000011010011;
	408 :	0000001101110000;
	407 :	0000000000000100;
	406 :	1111110111111111;
	405 :	1111111111001000;
	404 :	1111111100001010;
	403 :	0000000010010000;
	402 :	1111111001100001;
	401 :	1111110110000110;
	400 :	1111110110110000;
	399 :	1111111010011001;
	398 :	1111111100001110;
	397 :	1111111001001100;
	396 :	0000000001011111;
	395 :	0000000010110000;
	394 :	1111111111111011;
	393 :	1111111111111101;
	392 :	1111111111011101;
	391 :	0000000001000000;
	390 :	0000000110001111;
	389 :	0000000110000101;
	388 :	1111111110001011;
	387 :	0000000000000010;
	386 :	1111111110010101;
	385 :	1111111011111010;
	384 :	1111111010110001;
	383 :	1111111101100110;
	382 :	1111111101011101;
	381 :	1111111010101111;
	380 :	1111111100010111;
	379 :	1111111100101100;
	378 :	1111111100011101;
	377 :	0000001000101111;
	376 :	0000000110110101;
	375 :	0000000111111101;
	374 :	1111111011011010;
	373 :	1111111100100000;
	372 :	0000000000000000;
	371 :	1111111111010011;
	370 :	1111111111000011;
	369 :	1111111110101111;
	368 :	0000000010101000;
	367 :	0000000010000111;
	366 :	1111111110101110;
	365 :	0000000000001000;
	364 :	1111111111101011;
	363 :	0000000000110000;
	362 :	0000000110100101;
	361 :	0000001001010111;
	360 :	1111111110101101;
	359 :	1111110101000001;
	358 :	1111111100100101;
	357 :	1111111100001011;
	356 :	0000000011101100;
	355 :	1111111111000100;
	354 :	0000000011001110;
	353 :	0000000010000000;
	352 :	0000000100110010;
	351 :	0000001010100110;
	350 :	0000001111111010;
	349 :	0000000110000000;
	348 :	0000000000010110;
	347 :	0000000100101110;
	346 :	1111111100011001;
	345 :	0000000110110100;
	344 :	0000000110001101;
	343 :	0000000000100001;
	342 :	0000000000000110;
	341 :	0000000000000111;
	340 :	0000000100111001;
	339 :	1111111110011011;
	338 :	1111111111110111;
	337 :	0000000000111101;
	336 :	0000000000100101;
	335 :	1111111111100101;
	334 :	1111111111111111;
	333 :	0000001000000010;
	332 :	0000000110011110;
	331 :	1111111111111100;
	330 :	0000000001101100;
	329 :	1111111110011111;
	328 :	0000000001010101;
	327 :	1111110100010000;
	326 :	1111111101110000;
	325 :	0000001011001011;
	324 :	0000001101001100;
	323 :	0000001001011010;
	322 :	0000000001100011;
	321 :	0000000000010111;
	320 :	0000000001011101;
	319 :	0000001000110010;
	318 :	0000000001100101;
	317 :	1111111010100010;
	316 :	0000000000101001;
	315 :	0000001001011110;
	314 :	0000000110001100;
	313 :	0000000100000010;
	312 :	0000000010111101;
	311 :	1111111100001110;
	310 :	1111111110111001;
	309 :	1111111110010111;
	308 :	0000000000010100;
	307 :	1111111111100100;
	306 :	0000000011110000;
	305 :	0000001000011000;
	304 :	0000000101110010;
	303 :	0000000000101111;
	302 :	1111111111010010;
	301 :	1111111110011011;
	300 :	0000000000101111;
	299 :	1111111000110011;
	298 :	0000000011010000;
	297 :	0000000001011011;
	296 :	0000000111111000;
	295 :	0000001010101101;
	294 :	0000000010100111;
	293 :	1111111100011111;
	292 :	0000000000101001;
	291 :	0000000100010010;
	290 :	0000000001001011;
	289 :	0000000010000100;
	288 :	0000000010001101;
	287 :	0000000100010111;
	286 :	0000001100000000;
	285 :	0000000110100001;
	284 :	1111111111110111;
	283 :	1111111110110000;
	282 :	1111111110100000;
	281 :	0000000000100100;
	280 :	1111111111111010;
	279 :	0000000010000100;
	278 :	0000000011111010;
	277 :	0000000001010000;
	276 :	1111111111100111;
	275 :	1111111111110100;
	274 :	1111111101001110;
	273 :	1111111001111111;
	272 :	1111111110101011;
	271 :	0000000011100111;
	270 :	0000000100100111;
	269 :	0000000011110101;
	268 :	1111111101101100;
	267 :	1111111110111110;
	266 :	0000001000000000;
	265 :	0000000100111110;
	264 :	1111111110111111;
	263 :	0000000101001111;
	262 :	0000000011111101;
	261 :	1111111101100101;
	260 :	1111111101000111;
	259 :	1111111111101011;
	258 :	1111111011110010;
	257 :	1111111111010010;
	256 :	0000000000010111;
	255 :	0000000000100001;
	254 :	1111111111011111;
	253 :	1111111111101101;
	252 :	1111111111111011;
	251 :	0000000000011011;
	250 :	0000000001001011;
	249 :	1111111101110000;
	248 :	0000000101110100;
	247 :	0000000101111110;
	246 :	1111111111100011;
	245 :	1111111101010000;
	244 :	1111111101010111;
	243 :	1111111010110001;
	242 :	1111111010110110;
	241 :	1111111001011010;
	240 :	1111111000110101;
	239 :	1111110111010100;
	238 :	0000000000000000;
	237 :	0000000101100100;
	236 :	0000000011010010;
	235 :	0000000111101000;
	234 :	0000000010111010;
	233 :	1111111001000101;
	232 :	1111111111101010;
	231 :	0000000010000000;
	230 :	1111111010010101;
	229 :	1111110110000111;
	228 :	1111111110111110;
	227 :	1111111111111001;
	226 :	0000000000110010;
	225 :	1111111111100101;
	224 :	1111111111011110;
	223 :	1111111110110001;
	222 :	1111111111000101;
	221 :	0000000010101111;
	220 :	1111111111000110;
	219 :	1111111011011000;
	218 :	1111110111110000;
	217 :	1111110100101001;
	216 :	1111111011001111;
	215 :	1111111000011100;
	214 :	1111111101100101;
	213 :	1111111100110100;
	212 :	1111111010001101;
	211 :	1111111011010100;
	210 :	1111111100111110;
	209 :	0000000010110010;
	208 :	1111111100101010;
	207 :	1111111110010110;
	206 :	1111111110101110;
	205 :	1111111110110111;
	204 :	0000000010011000;
	203 :	1111111100111010;
	202 :	1111111011100000;
	201 :	1111111000111011;
	200 :	1111111110110111;
	199 :	1111111111010000;
	198 :	1111111111110000;
	197 :	1111111111011000;
	196 :	0000000000010010;
	195 :	0000000000010010;
	194 :	0000000000011011;
	193 :	1111111111100100;
	192 :	1111111100001010;
	191 :	1111111100000110;
	190 :	1111110110001001;
	189 :	1111110100111001;
	188 :	1111110110000011;
	187 :	1111111011000100;
	186 :	1111111111000000;
	185 :	1111111100010110;
	184 :	1111111010011001;
	183 :	1111110110000101;
	182 :	1111110100010011;
	181 :	1111110100100001;
	180 :	1111110011110010;
	179 :	1111111011100110;
	178 :	1111111010110010;
	177 :	1111111100111000;
	176 :	1111111001010100;
	175 :	1111111010001011;
	174 :	1111111011100100;
	173 :	1111111100011000;
	172 :	1111111111110101;
	171 :	1111111111000000;
	170 :	1111111111110011;
	169 :	1111111110110110;
	168 :	0000000000101111;
	167 :	0000000000100000;
	166 :	0000000000101001;
	165 :	1111111111111111;
	164 :	1111111111010111;
	163 :	0000000010101001;
	162 :	1111111010001011;
	161 :	1111111001010001;
	160 :	1111111001000001;
	159 :	1111110110111001;
	158 :	1111111011110100;
	157 :	1111111011101011;
	156 :	1111110101111101;
	155 :	1111110100100000;
	154 :	1111110001011100;
	153 :	1111110110000000;
	152 :	1111110111001011;
	151 :	1111110110110110;
	150 :	1111110110001100;
	149 :	1111110110110001;
	148 :	1111111000110010;
	147 :	1111111010010001;
	146 :	1111111100000000;
	145 :	1111111110001111;
	144 :	0000000000001000;
	143 :	1111111110111100;
	142 :	0000000000010011;
	141 :	1111111111000101;
	140 :	0000000000000101;
	139 :	1111111111000010;
	138 :	1111111111111110;
	137 :	0000000010010010;
	136 :	0000000000000000;
	135 :	1111111111111111;
	134 :	1111111001110000;
	133 :	1111110111010011;
	132 :	1111110111010001;
	131 :	1111110100000100;
	130 :	1111111000000100;
	129 :	1111111111110101;
	128 :	1111111100010110;
	127 :	1111111010110010;
	126 :	1111111010010011;
	125 :	1111110111010010;
	124 :	1111111000011000;
	123 :	1111111100100110;
	122 :	1111111010111111;
	121 :	1111111010011110;
	120 :	1111111110010011;
	119 :	0000000000001100;
	118 :	1111111110011101;
	117 :	1111111111010001;
	116 :	1111111111110101;
	115 :	0000000000011010;
	114 :	0000000000000010;
	113 :	0000000000010011;
	112 :	0000000000010010;
	111 :	1111111111010100;
	110 :	1111111111111011;
	109 :	1111111111111011;
	108 :	1111111111100011;
	107 :	1111111110110100;
	106 :	1111111100010110;
	105 :	1111111011100010;
	104 :	1111111000000000;
	103 :	1111110101101011;
	102 :	1111110111111011;
	101 :	1111111110001001;
	100 :	1111111111010101;
	99 :	1111111100010110;
	98 :	1111111111001110;
	97 :	1111111110101001;
	96 :	1111111100010100;
	95 :	1111111101101110;
	94 :	1111111101001010;
	93 :	1111111110101000;
	92 :	1111111111101011;
	91 :	0000000000001100;
	90 :	1111111111111010;
	89 :	1111111111011100;
	88 :	0000000000000001;
	87 :	1111111111011100;
	86 :	0000000000100011;
	85 :	0000000000011101;
	84 :	1111111111111010;
	83 :	0000000001000101;
	82 :	0000000000000000;
	81 :	0000000000110000;
	80 :	1111111111110010;
	79 :	1111111111000110;
	78 :	1111111101111110;
	77 :	1111111100111101;
	76 :	1111111100101011;
	75 :	1111111011000110;
	74 :	1111111011001110;
	73 :	1111111110100010;
	72 :	1111111100011001;
	71 :	1111111011100011;
	70 :	1111111101100100;
	69 :	0000000000001110;
	68 :	1111111100111100;
	67 :	1111111100110111;
	66 :	1111111110111000;
	65 :	0000000000100111;
	64 :	1111111111010101;
	63 :	1111111111111010;
	62 :	0000000000000000;
	61 :	0000000000000111;
	60 :	0000000000000000;
	59 :	1111111111000110;
	58 :	1111111111111110;
	57 :	1111111111101001;
	56 :	0000000000000000;
	55 :	1111111111101000;
	54 :	0000000000001110;
	53 :	1111111111100101;
	52 :	0000000000011010;
	51 :	0000000000010110;
	50 :	1111111111010011;
	49 :	1111111111001001;
	48 :	1111111110100111;
	47 :	1111111111010100;
	46 :	1111111101111001;
	45 :	1111111110111001;
	44 :	1111111111100101;
	43 :	1111111110011010;
	42 :	1111111111100110;
	41 :	1111111110000010;
	40 :	1111111110000101;
	39 :	1111111111001100;
	38 :	1111111111010001;
	37 :	1111111111001011;
	36 :	1111111111011010;
	35 :	1111111111010011;
	34 :	1111111111111100;
	33 :	1111111111101100;
	32 :	0000000001001111;
	31 :	0000000000000000;
	30 :	0000000000000000;
	29 :	1111111111111000;
	28 :	0000000000111000;
	27 :	0000000000100001;
	26 :	0000000000000000;
	25 :	1111111110111110;
	24 :	0000000000011101;
	23 :	0000000000000100;
	22 :	1111111111101100;
	21 :	1111111111101000;
	20 :	0000000000000001;
	19 :	1111111111101111;
	18 :	0000000000001001;
	17 :	0000000000010011;
	16 :	0000000000011111;
	15 :	1111111111100111;
	14 :	0000000000011110;
	13 :	1111111110100011;
	12 :	1111111111100111;
	11 :	1111111111001110;
	10 :	0000000000100100;
	9 :	0000000000000000;
	8 :	0000000000001111;
	7 :	1111111110101011;
	6 :	1111111111111111;
	5 :	0000000000010011;
	4 :	1111111111111010;
	3 :	0000000000010111;
	2 :	1111111111010000;
	1 :	1111111111100110;
	0 :	1111111111101111;
END;
