-- begin_signature
-- Weight_Memory(numWeight
-- 30
-- neuronNo
-- 19
-- layerNo
-- 2
-- addressWidth
-- 5
-- dataWidth
-- 16
-- weightFile
-- "w_2_19.mif")
-- end_signature
WIDTH=16;
DEPTH=30;

ADDRESS_RADIX=UNS;
DATA_RADIX=BIN;

CONTENT BEGIN
	29 :	1111111010101101;
	28 :	0000000001111101;
	27 :	1111111110011110;
	26 :	1111111110111100;
	25 :	0000000001001000;
	24 :	0000000100000110;
	23 :	0000000001101100;
	22 :	0000000010011001;
	21 :	0000000010111101;
	20 :	0000000000011000;
	19 :	0000000000111000;
	18 :	1111111100100100;
	17 :	1111111101111010;
	16 :	0000000101010110;
	15 :	0000000000101010;
	14 :	1111111111100000;
	13 :	0000000001111001;
	12 :	1111111110011001;
	11 :	0000000011001100;
	10 :	0000000000011000;
	9 :	1111111110000001;
	8 :	1111111110010010;
	7 :	0000000010011101;
	6 :	0000000011000010;
	5 :	0000000001010011;
	4 :	0000000011010100;
	3 :	0000000001111100;
	2 :	1111111110101111;
	1 :	0000000000110111;
	0 :	1111111101100000;
END;
