-- begin_signature
-- Weight_Memory(numWeight
-- 784
-- neuronNo
-- 18
-- layerNo
-- 1
-- addressWidth
-- 10
-- dataWidth
-- 16
-- weightFile
-- "w_1_18.hex")
-- end_signature
WIDTH=16;
DEPTH=784;

ADDRESS_RADIX=UNS;
DATA_RADIX=BIN;

CONTENT BEGIN
	783 :	0000000000010001;
	782 :	0000000000011100;
	781 :	0000000000010001;
	780 :	0000000000011111;
	779 :	1111111111100001;
	778 :	0000000000000001;
	777 :	0000000000100100;
	776 :	0000000000000111;
	775 :	1111111111010001;
	774 :	1111111101110010;
	773 :	1111111110111010;
	772 :	1111111111000011;
	771 :	1111111110111010;
	770 :	1111111011111111;
	769 :	1111111111000001;
	768 :	1111111111001011;
	767 :	1111111110111010;
	766 :	1111111101110110;
	765 :	1111111111010110;
	764 :	1111111011111101;
	763 :	1111111011010000;
	762 :	1111111111010101;
	761 :	0000000000101100;
	760 :	1111111111011001;
	759 :	1111111111110001;
	758 :	0000000000000101;
	757 :	0000000000010101;
	756 :	1111111111110111;
	755 :	1111111111001001;
	754 :	1111111111001001;
	753 :	1111111111101011;
	752 :	1111111111001001;
	751 :	0000000000001000;
	750 :	1111111101101000;
	749 :	1111111010001000;
	748 :	1111111001110010;
	747 :	1111110100111000;
	746 :	1111101111101010;
	745 :	1111110110100010;
	744 :	1111101101001110;
	743 :	1111110000110000;
	742 :	1111101101011001;
	741 :	1111110000111000;
	740 :	1111110110100101;
	739 :	1111110000101111;
	738 :	1111110110101111;
	737 :	1111111101000111;
	736 :	1111111100000000;
	735 :	1111111101101111;
	734 :	1111111101110100;
	733 :	1111111110010100;
	732 :	0000000000100111;
	731 :	0000000000011100;
	730 :	0000000000011001;
	729 :	1111111111100110;
	728 :	1111111111010011;
	727 :	0000000000010101;
	726 :	1111111111111011;
	725 :	1111111111010001;
	724 :	1111111111001100;
	723 :	1111111101100000;
	722 :	1111111010010110;
	721 :	1111110110101101;
	720 :	1111110011011011;
	719 :	1111110001000010;
	718 :	1111110010011011;
	717 :	1111110011100011;
	716 :	1111111001000010;
	715 :	1111111011011010;
	714 :	1111111000101100;
	713 :	1111111010110101;
	712 :	1111110110101001;
	711 :	1111111111000001;
	710 :	1111111010100111;
	709 :	1111111101001100;
	708 :	1111111001101111;
	707 :	1111111001000000;
	706 :	1111111101001001;
	705 :	1111111110111101;
	704 :	0000000000000111;
	703 :	1111111111011010;
	702 :	1111111111101101;
	701 :	0000000000000110;
	700 :	0000000000011110;
	699 :	0000000000111001;
	698 :	1111111111110000;
	697 :	0000000000000111;
	696 :	1111111101000000;
	695 :	1111111010110010;
	694 :	1111111011100000;
	693 :	1111111101111010;
	692 :	1111110101110010;
	691 :	1111111010001100;
	690 :	0000000001100000;
	689 :	0000000011011011;
	688 :	0000000111011010;
	687 :	1111111001111111;
	686 :	1111111111100001;
	685 :	1111111101111101;
	684 :	1111111100011111;
	683 :	1111111000010100;
	682 :	1111110111001101;
	681 :	1111110111011010;
	680 :	1111110111000110;
	679 :	1111111100100111;
	678 :	1111111110001110;
	677 :	1111111111111011;
	676 :	1111111110101100;
	675 :	1111111111101011;
	674 :	0000000000000000;
	673 :	1111111111110111;
	672 :	0000000000011110;
	671 :	1111111111110111;
	670 :	0000000000101111;
	669 :	0000000000100101;
	668 :	1111111000011101;
	667 :	1111110110100011;
	666 :	1111111001111001;
	665 :	0000000000011001;
	664 :	1111111110110101;
	663 :	1111111110101011;
	662 :	0000000100101000;
	661 :	1111111101101100;
	660 :	1111111010110101;
	659 :	1111111001011110;
	658 :	0000000100010111;
	657 :	0000000001101001;
	656 :	1111111010111000;
	655 :	1111110011000011;
	654 :	1111111010011010;
	653 :	1111110110111101;
	652 :	1111110111001010;
	651 :	1111111110111111;
	650 :	1111111110101110;
	649 :	1111111110001111;
	648 :	1111111111101001;
	647 :	0000000000000001;
	646 :	0000000000100000;
	645 :	0000000000011000;
	644 :	0000000000101000;
	643 :	0000000000101101;
	642 :	0000000000101111;
	641 :	0000000001100000;
	640 :	1111111100111000;
	639 :	1111110111101110;
	638 :	1111111011011010;
	637 :	0000000101101111;
	636 :	0000000010100001;
	635 :	0000000101010000;
	634 :	0000000010000001;
	633 :	1111110110000011;
	632 :	1111111011000101;
	631 :	0000000100101011;
	630 :	1111111001011101;
	629 :	0000000110000111;
	628 :	1111111001010111;
	627 :	1111111010100001;
	626 :	1111111000100010;
	625 :	1111110100010111;
	624 :	1111110111110110;
	623 :	1111111011110011;
	622 :	1111111101001000;
	621 :	1111111110101100;
	620 :	1111111111011010;
	619 :	1111111111110000;
	618 :	1111111111110011;
	617 :	1111111111110011;
	616 :	0000000000101011;
	615 :	1111111111101100;
	614 :	0000000000001001;
	613 :	0000000000011000;
	612 :	0000000000010100;
	611 :	1111111011000101;
	610 :	1111111000101110;
	609 :	1111110111101001;
	608 :	1111111010010111;
	607 :	1111110101100010;
	606 :	1111111011001100;
	605 :	1111111101010001;
	604 :	0000000011100001;
	603 :	1111110101110001;
	602 :	1111110101111000;
	601 :	1111111010000001;
	600 :	1111110100111000;
	599 :	1111111100000001;
	598 :	1111110001001001;
	597 :	1111110110001001;
	596 :	1111111010001011;
	595 :	1111110100100010;
	594 :	1111110111100010;
	593 :	1111111100000000;
	592 :	1111111110101010;
	591 :	0000000000000001;
	590 :	0000000000010010;
	589 :	0000000000001010;
	588 :	1111111111011100;
	587 :	1111111111100100;
	586 :	1111111111101100;
	585 :	1111111110011100;
	584 :	1111111110000111;
	583 :	1111110110110010;
	582 :	1111110000000011;
	581 :	1111110111110001;
	580 :	1111111010111000;
	579 :	1111101110111000;
	578 :	1111111100000111;
	577 :	1111110111111110;
	576 :	1111111100011110;
	575 :	1111111011101001;
	574 :	1111110011100000;
	573 :	1111111010001101;
	572 :	1111111011001100;
	571 :	1111111010011100;
	570 :	1111110010111001;
	569 :	1111110101111000;
	568 :	1111110110111100;
	567 :	1111110100011010;
	566 :	1111110111000001;
	565 :	1111111001000111;
	564 :	1111111100011101;
	563 :	0000000001011100;
	562 :	0000000000111111;
	561 :	1111111111101100;
	560 :	0000000000001011;
	559 :	0000000000100011;
	558 :	0000000000000000;
	557 :	1111111110001010;
	556 :	1111111110000001;
	555 :	1111111000101100;
	554 :	1111110011111010;
	553 :	1111110110010101;
	552 :	0000000001010101;
	551 :	1111110011011011;
	550 :	1111110011101011;
	549 :	1111110101100000;
	548 :	1111111010111001;
	547 :	0000000000111100;
	546 :	1111111110100000;
	545 :	0000000101110011;
	544 :	1111111110011100;
	543 :	1111110010111111;
	542 :	1111101100011111;
	541 :	1111110111111110;
	540 :	1111111011011101;
	539 :	1111111010011000;
	538 :	1111111111011001;
	537 :	1111111100101010;
	536 :	1111111100101110;
	535 :	0000000011001111;
	534 :	0000000000111111;
	533 :	0000000000000100;
	532 :	1111111111100111;
	531 :	0000000000011011;
	530 :	0000000000100010;
	529 :	1111111101011001;
	528 :	1111111111111001;
	527 :	1111111100101111;
	526 :	1111110111001011;
	525 :	1111111100001100;
	524 :	1111111010001110;
	523 :	1111110110000110;
	522 :	1111111011100101;
	521 :	1111111110101100;
	520 :	0000000001001100;
	519 :	0000000000100000;
	518 :	0000000101101101;
	517 :	0000000001111010;
	516 :	0000000111100001;
	515 :	1111110101110001;
	514 :	1111110010001000;
	513 :	0000000001001000;
	512 :	1111111101000101;
	511 :	0000000010101000;
	510 :	0000000010111111;
	509 :	0000000011100010;
	508 :	0000000100000100;
	507 :	0000000010010011;
	506 :	0000000000010011;
	505 :	0000000000000111;
	504 :	1111111111101101;
	503 :	0000000000110001;
	502 :	1111111111110011;
	501 :	0000000000111001;
	500 :	0000000010100101;
	499 :	0000000001000000;
	498 :	0000000000111010;
	497 :	0000000100000000;
	496 :	1111111110110110;
	495 :	1111111110111110;
	494 :	0000001100010011;
	493 :	0000000101111101;
	492 :	1111111111111110;
	491 :	0000001010101100;
	490 :	0000001011110110;
	489 :	1111111011011110;
	488 :	1111110100001110;
	487 :	1111111001101111;
	486 :	0000000001010010;
	485 :	0000000110110011;
	484 :	0000000001110110;
	483 :	0000000100001100;
	482 :	0000000011101101;
	481 :	0000000010000001;
	480 :	0000000010111110;
	479 :	0000000000000000;
	478 :	0000000000010000;
	477 :	1111111111010001;
	476 :	0000000000101001;
	475 :	0000000000001001;
	474 :	0000000001100010;
	473 :	0000000000101010;
	472 :	0000000010010000;
	471 :	0000000100100101;
	470 :	0000000110010111;
	469 :	0000001101000001;
	468 :	0000010101100111;
	467 :	0000010010010101;
	466 :	0000010001100000;
	465 :	0000000011100001;
	464 :	0000000110110000;
	463 :	0000010010111110;
	462 :	0000001011111000;
	461 :	0000000111100001;
	460 :	1111111001110110;
	459 :	1111111010100000;
	458 :	0000000000000000;
	457 :	0000000001100000;
	456 :	0000000100010011;
	455 :	0000010000101100;
	454 :	0000000011001001;
	453 :	1111111010110110;
	452 :	1111111011011010;
	451 :	0000000001111010;
	450 :	0000000000011011;
	449 :	0000000000010011;
	448 :	1111111111101001;
	447 :	0000000000001010;
	446 :	0000000010011011;
	445 :	1111111111111100;
	444 :	1111111110011101;
	443 :	0000001000101110;
	442 :	0000001111010100;
	441 :	0000000100100000;
	440 :	0000000000000000;
	439 :	0000000011110001;
	438 :	1111111110100101;
	437 :	0000001110111010;
	436 :	0000001100111010;
	435 :	0000000010000100;
	434 :	1111111110101100;
	433 :	0000000110100100;
	432 :	0000000110110101;
	431 :	1111111111001011;
	430 :	0000000010000011;
	429 :	0000000100111000;
	428 :	0000000110100001;
	427 :	0000001110010111;
	426 :	0000000110011010;
	425 :	1111111110110000;
	424 :	0000000011100000;
	423 :	0000000100101010;
	422 :	0000000001001111;
	421 :	0000000000110101;
	420 :	0000000000100000;
	419 :	1111111111111111;
	418 :	0000000001000011;
	417 :	0000000001110000;
	416 :	0000001000110101;
	415 :	0000000111100000;
	414 :	0000001000111111;
	413 :	0000000110001010;
	412 :	1111111111100000;
	411 :	0000001011011110;
	410 :	0000001001111001;
	409 :	0000001100111111;
	408 :	0000000000000001;
	407 :	1111111101101011;
	406 :	1111110111100001;
	405 :	1111110011101011;
	404 :	0000001001101110;
	403 :	0000010010100011;
	402 :	0000001000000101;
	401 :	0000010011000000;
	400 :	0000000110010111;
	399 :	0000000111001001;
	398 :	0000000001100010;
	397 :	0000001011111110;
	396 :	0000001001000000;
	395 :	0000000001001011;
	394 :	0000000000000110;
	393 :	0000000000000101;
	392 :	0000000000000011;
	391 :	0000000000001110;
	390 :	1111111111110000;
	389 :	0000000001011100;
	388 :	0000000100010010;
	387 :	0000000011000100;
	386 :	0000000100001100;
	385 :	0000000111111101;
	384 :	0000000001000010;
	383 :	1111111111111001;
	382 :	0000000011011001;
	381 :	0000000111101010;
	380 :	0000000100010110;
	379 :	1111111111110001;
	378 :	1111110110100101;
	377 :	1111101101100010;
	376 :	0000001100000011;
	375 :	0000010011010101;
	374 :	0000001100100110;
	373 :	0000001010011000;
	372 :	0000000111101001;
	371 :	0000000001000000;
	370 :	0000001010001101;
	369 :	0000000011110000;
	368 :	0000000011001110;
	367 :	0000000001011100;
	366 :	0000000000111010;
	365 :	0000000000001000;
	364 :	0000000000001100;
	363 :	0000000000001001;
	362 :	1111111111101110;
	361 :	1111111101110011;
	360 :	1111111100101001;
	359 :	1111110001111011;
	358 :	1111111011110001;
	357 :	0000000000110101;
	356 :	1111111101111110;
	355 :	1111111111000011;
	354 :	1111111011000001;
	353 :	0000000001000111;
	352 :	0000000110110100;
	351 :	0000001000000011;
	350 :	1111110011100100;
	349 :	1111111000001101;
	348 :	0000011000001101;
	347 :	0000011001100100;
	346 :	0000001101101011;
	345 :	1111111111100110;
	344 :	0000000011111100;
	343 :	0000000010001011;
	342 :	0000001000110111;
	341 :	0000000001011010;
	340 :	1111111010100001;
	339 :	0000000000100111;
	338 :	0000000000000111;
	337 :	1111111111100110;
	336 :	0000000000100111;
	335 :	0000000000010001;
	334 :	1111111111010011;
	333 :	1111111111111001;
	332 :	1111110101101101;
	331 :	1111101100101001;
	330 :	1111110011110001;
	329 :	1111110101100110;
	328 :	0000000001010101;
	327 :	1111111100010000;
	326 :	0000000000000001;
	325 :	0000000110100101;
	324 :	0000001010100000;
	323 :	0000001010001000;
	322 :	1111100001001001;
	321 :	1111100010010111;
	320 :	0000000110000100;
	319 :	0000001000001101;
	318 :	0000000101000110;
	317 :	0000000001111000;
	316 :	0000000001010010;
	315 :	1111111101011101;
	314 :	1111111010111001;
	313 :	1111111110111110;
	312 :	1111111101000101;
	311 :	1111111101111001;
	310 :	1111111110100110;
	309 :	1111111111111110;
	308 :	0000000000001011;
	307 :	1111111111111011;
	306 :	1111111111000011;
	305 :	1111111111100111;
	304 :	1111111010001101;
	303 :	1111101011111101;
	302 :	1111110110100111;
	301 :	1111111100000010;
	300 :	1111111110001000;
	299 :	1111111111001000;
	298 :	0000000001100011;
	297 :	0000001001011101;
	296 :	0000000011100110;
	295 :	1111111101010100;
	294 :	1111001011001100;
	293 :	1111101101001000;
	292 :	0000000111111101;
	291 :	0000001100111111;
	290 :	1111111000000000;
	289 :	0000000010001110;
	288 :	0000000011110100;
	287 :	1111111111001011;
	286 :	1111110000101010;
	285 :	1111111111011100;
	284 :	1111111111111010;
	283 :	1111111011110110;
	282 :	1111111111100111;
	281 :	0000000000001100;
	280 :	1111111111110000;
	279 :	0000000000010010;
	278 :	1111111110000111;
	277 :	0000000001100011;
	276 :	1111111101011110;
	275 :	1111110111010000;
	274 :	1111111001100100;
	273 :	0000000011111001;
	272 :	0000000010011100;
	271 :	0000000001111001;
	270 :	1111111000011001;
	269 :	0000000011011111;
	268 :	0000000101001101;
	267 :	1111110110110010;
	266 :	1111011010001010;
	265 :	1111110011010110;
	264 :	0000000110111011;
	263 :	0000000001100011;
	262 :	0000000000000101;
	261 :	0000000001111111;
	260 :	1111111010101110;
	259 :	1111110000100110;
	258 :	1111110111110111;
	257 :	1111111111011111;
	256 :	0000000000001010;
	255 :	1111111111010000;
	254 :	0000000000100111;
	253 :	0000000000111011;
	252 :	1111111111100111;
	251 :	0000000000100110;
	250 :	1111111110011110;
	249 :	0000000001100010;
	248 :	0000000000100001;
	247 :	1111111011100011;
	246 :	1111111011100100;
	245 :	1111111011111011;
	244 :	1111111000100110;
	243 :	1111111011011111;
	242 :	0000000010101100;
	241 :	0000000100100001;
	240 :	1111111001011110;
	239 :	1111110000111110;
	238 :	1111011111010010;
	237 :	1111110010010101;
	236 :	0000000000110000;
	235 :	0000000001001111;
	234 :	0000000001111110;
	233 :	0000000001011010;
	232 :	1111111100101110;
	231 :	1111111110111011;
	230 :	1111111001110101;
	229 :	0000000001010010;
	228 :	1111111111011000;
	227 :	1111111111010110;
	226 :	1111111111101111;
	225 :	1111111111011010;
	224 :	0000000000001011;
	223 :	0000000000000101;
	222 :	1111111110011101;
	221 :	1111111101100011;
	220 :	0000000010000111;
	219 :	0000000001110111;
	218 :	0000000111011001;
	217 :	1111111100010101;
	216 :	1111111101000111;
	215 :	0000000011111001;
	214 :	0000000011010100;
	213 :	1111111101000101;
	212 :	1111110100111100;
	211 :	1111011110110001;
	210 :	1111010100100000;
	209 :	1111101100001100;
	208 :	0000000000100010;
	207 :	0000000110010110;
	206 :	0000000001110101;
	205 :	0000000101000111;
	204 :	0000001010000010;
	203 :	0000000001110101;
	202 :	1111111101000001;
	201 :	0000000100111000;
	200 :	0000000010100100;
	199 :	0000000000011110;
	198 :	1111111111010101;
	197 :	0000000000000110;
	196 :	1111111111100110;
	195 :	1111111111110011;
	194 :	1111111111100010;
	193 :	1111111011000101;
	192 :	1111111100001010;
	191 :	0000001000101011;
	190 :	0000000010101000;
	189 :	0000000000100110;
	188 :	1111111010100001;
	187 :	0000000000111000;
	186 :	1111111010001011;
	185 :	1111111110011100;
	184 :	1111110101100111;
	183 :	1111011011101011;
	182 :	1111011111111010;
	181 :	1111101101111111;
	180 :	1111111000001001;
	179 :	1111111011100111;
	178 :	1111111111000000;
	177 :	0000001011101101;
	176 :	0000000111101010;
	175 :	0000000110100111;
	174 :	0000000101011111;
	173 :	0000000011001111;
	172 :	0000000000100110;
	171 :	0000000000001000;
	170 :	1111111111111111;
	169 :	1111111111011010;
	168 :	1111111111011100;
	167 :	1111111111100011;
	166 :	1111111110011100;
	165 :	1111111111001001;
	164 :	0000000000111010;
	163 :	0000000100110101;
	162 :	0000000000100111;
	161 :	1111111111101100;
	160 :	1111111100111100;
	159 :	0000001001111011;
	158 :	0000000101010010;
	157 :	0000000011011110;
	156 :	0000000100000100;
	155 :	1111110010000100;
	154 :	1111100111010011;
	153 :	1111100111100101;
	152 :	0000000101010000;
	151 :	0000000000011000;
	150 :	0000000011111101;
	149 :	0000000000000101;
	148 :	1111111101100010;
	147 :	1111111101000000;
	146 :	0000000000100101;
	145 :	0000000000110000;
	144 :	0000000000000100;
	143 :	0000000000011001;
	142 :	0000000000010111;
	141 :	1111111111111000;
	140 :	0000000000010000;
	139 :	0000000000010100;
	138 :	1111111111111010;
	137 :	1111111111111111;
	136 :	1111111111110100;
	135 :	0000000010001111;
	134 :	0000001001010011;
	133 :	0000001000001011;
	132 :	0000000010011010;
	131 :	0000000010111101;
	130 :	1111111101011110;
	129 :	1111111010000101;
	128 :	1111111101001111;
	127 :	1111110111110001;
	126 :	1111111100001010;
	125 :	1111111001110000;
	124 :	1111111011110111;
	123 :	1111111010010000;
	122 :	1111111011001110;
	121 :	1111111011110100;
	120 :	1111111001001000;
	119 :	1111111000111101;
	118 :	1111111100100000;
	117 :	0000000001010100;
	116 :	1111111111111110;
	115 :	1111111111111111;
	114 :	0000000000010101;
	113 :	0000000000100101;
	112 :	1111111111110000;
	111 :	1111111111111000;
	110 :	1111111111110100;
	109 :	1111111111000100;
	108 :	1111111110010100;
	107 :	0000000001011100;
	106 :	0000000100010011;
	105 :	0000000101110110;
	104 :	0000000010101100;
	103 :	0000000011110010;
	102 :	1111111011001011;
	101 :	1111111000100100;
	100 :	1111111011000110;
	99 :	1111110110101101;
	98 :	1111110000111100;
	97 :	1111101101010000;
	96 :	1111110011001110;
	95 :	1111111001110010;
	94 :	1111111011111100;
	93 :	1111111010011111;
	92 :	1111111001100101;
	91 :	1111111011100010;
	90 :	1111111110100010;
	89 :	1111111111111001;
	88 :	0000000000000110;
	87 :	1111111111000100;
	86 :	0000000000110101;
	85 :	1111111111101100;
	84 :	0000000000111011;
	83 :	1111111111110101;
	82 :	0000000000000100;
	81 :	0000000000011001;
	80 :	1111111111101110;
	79 :	1111111110111111;
	78 :	1111111111000001;
	77 :	1111111111110101;
	76 :	1111111111110000;
	75 :	1111111111110111;
	74 :	1111111110010111;
	73 :	1111111101001101;
	72 :	1111111100010100;
	71 :	1111111011111010;
	70 :	1111111010111111;
	69 :	1111111010011001;
	68 :	1111111011010010;
	67 :	1111111100010100;
	66 :	1111111100111110;
	65 :	1111111110000011;
	64 :	1111111100110011;
	63 :	1111111101101000;
	62 :	1111111111110010;
	61 :	1111111111110010;
	60 :	1111111111111001;
	59 :	0000000000011101;
	58 :	0000000000101011;
	57 :	1111111111101000;
	56 :	1111111111000111;
	55 :	0000000000101111;
	54 :	0000000000011001;
	53 :	1111111111101100;
	52 :	1111111111100110;
	51 :	1111111111001000;
	50 :	0000000000000000;
	49 :	1111111111001110;
	48 :	0000000000001110;
	47 :	1111111111100001;
	46 :	1111111111000110;
	45 :	0000000000011011;
	44 :	1111111111010000;
	43 :	1111111111010111;
	42 :	1111111110100111;
	41 :	1111111110110101;
	40 :	1111111110100000;
	39 :	1111111111100001;
	38 :	1111111110110000;
	37 :	1111111111000011;
	36 :	1111111101111010;
	35 :	1111111110011100;
	34 :	1111111110111011;
	33 :	1111111111101001;
	32 :	1111111111110011;
	31 :	1111111111011111;
	30 :	0000000000000000;
	29 :	0000000000011011;
	28 :	0000000000001011;
	27 :	1111111111101011;
	26 :	1111111111101111;
	25 :	0000000000110000;
	24 :	0000000000001011;
	23 :	0000000000001011;
	22 :	0000000000111100;
	21 :	1111111111010101;
	20 :	1111111111100000;
	19 :	1111111111110110;
	18 :	0000000000000110;
	17 :	1111111111010010;
	16 :	1111111111100010;
	15 :	0000000000101010;
	14 :	1111111111011010;
	13 :	0000000000011110;
	12 :	1111111111100011;
	11 :	0000000000000000;
	10 :	0000000000001010;
	9 :	0000000000101000;
	8 :	1111111111110110;
	7 :	0000000000001101;
	6 :	1111111111111111;
	5 :	1111111111001010;
	4 :	1111111111010111;
	3 :	1111111111011011;
	2 :	1111111111110111;
	1 :	0000000000010100;
	0 :	1111111111100111;
END;
