-- begin_signature
-- Weight_Memory(numWeight
-- 784
-- neuronNo
-- 20
-- layerNo
-- 1
-- addressWidth
-- 10
-- dataWidth
-- 16
-- weightFile
-- "w_1_20.hex")
-- end_signature
WIDTH=16;
DEPTH=784;

ADDRESS_RADIX=UNS;
DATA_RADIX=BIN;

CONTENT BEGIN
	783 :	0000000000111001;
	782 :	0000000000000111;
	781 :	0000000000001001;
	780 :	1111111111101000;
	779 :	0000000000111110;
	778 :	0000000000101110;
	777 :	0000000000110101;
	776 :	0000000000101111;
	775 :	1111111110100111;
	774 :	1111111111110001;
	773 :	1111111111000010;
	772 :	1111111110011100;
	771 :	0000000000001101;
	770 :	0000000010010000;
	769 :	0000000000001010;
	768 :	0000000000000000;
	767 :	1111111111101101;
	766 :	1111111111011101;
	765 :	0000000001001001;
	764 :	0000000010000100;
	763 :	0000000000010100;
	762 :	0000000000000010;
	761 :	0000000000011101;
	760 :	1111111111111011;
	759 :	1111111111000110;
	758 :	1111111111011001;
	757 :	0000000000100001;
	756 :	0000000000000101;
	755 :	0000000000110111;
	754 :	0000000000110010;
	753 :	0000000000110110;
	752 :	1111111111011101;
	751 :	0000000000100010;
	750 :	0000000001110010;
	749 :	0000000101011011;
	748 :	0000000011010000;
	747 :	1111111010101000;
	746 :	1111111001100101;
	745 :	1111111010111000;
	744 :	1111111010101001;
	743 :	1111111101001000;
	742 :	0000000110100011;
	741 :	0000000100001110;
	740 :	0000000000000110;
	739 :	0000000000010100;
	738 :	0000000000001010;
	737 :	0000000000101110;
	736 :	0000000000111101;
	735 :	0000000000101110;
	734 :	1111111111110011;
	733 :	1111111111000101;
	732 :	0000000000101101;
	731 :	1111111111001110;
	730 :	0000000000110011;
	729 :	0000000000011000;
	728 :	1111111111010011;
	727 :	1111111111101111;
	726 :	1111111111110110;
	725 :	1111111111010111;
	724 :	1111111101011011;
	723 :	1111111111011110;
	722 :	0000000001000111;
	721 :	0000000101110010;
	720 :	0000001001111110;
	719 :	1111111110101111;
	718 :	1111111100001101;
	717 :	1111110101000110;
	716 :	1111110100011110;
	715 :	1111111110001101;
	714 :	0000000011011101;
	713 :	0000000000000101;
	712 :	1111111111111100;
	711 :	1111111111110101;
	710 :	0000000000101100;
	709 :	1111111111011000;
	708 :	1111111110110001;
	707 :	1111111111010100;
	706 :	0000000000100110;
	705 :	1111111111101010;
	704 :	1111111111101010;
	703 :	1111111111011000;
	702 :	1111111111011111;
	701 :	1111111111100101;
	700 :	1111111111110010;
	699 :	0000000000010000;
	698 :	0000000000001100;
	697 :	1111111110111011;
	696 :	1111111101011001;
	695 :	0000000110010110;
	694 :	0000000110010111;
	693 :	0000000101111101;
	692 :	0000001100100011;
	691 :	0000000110101000;
	690 :	0000000001111101;
	689 :	1111111010100010;
	688 :	1111111000110011;
	687 :	1111110111001011;
	686 :	1111111100100010;
	685 :	1111110111010010;
	684 :	1111110011111101;
	683 :	1111111000100111;
	682 :	1111111101001001;
	681 :	1111111100110011;
	680 :	1111111101000111;
	679 :	1111111110000010;
	678 :	1111111101110110;
	677 :	1111111100001010;
	676 :	1111111100011101;
	675 :	1111111110111111;
	674 :	0000000000001010;
	673 :	1111111111011010;
	672 :	1111111111100111;
	671 :	0000000000011110;
	670 :	1111111111110110;
	669 :	1111111111000001;
	668 :	0000000001011000;
	667 :	0000000011000000;
	666 :	0000000011100010;
	665 :	0000000001000100;
	664 :	0000000111000000;
	663 :	0000000000001110;
	662 :	1111111010010000;
	661 :	1111111001111110;
	660 :	1111111101110111;
	659 :	0000000001101101;
	658 :	1111110110110110;
	657 :	1111101111000100;
	656 :	1111101101010110;
	655 :	1111110011101011;
	654 :	1111110110000101;
	653 :	1111111000110110;
	652 :	1111111000110000;
	651 :	1111111011101111;
	650 :	1111111101011100;
	649 :	1111111011100111;
	648 :	1111111101011110;
	647 :	1111111111111000;
	646 :	1111111111010001;
	645 :	0000000000001001;
	644 :	0000000000100101;
	643 :	1111111111111011;
	642 :	0000000000000011;
	641 :	0000000000110111;
	640 :	0000000110000111;
	639 :	0000001001001011;
	638 :	0000001010101100;
	637 :	0000000001100010;
	636 :	0000000110010100;
	635 :	0000000100100111;
	634 :	1111111111110101;
	633 :	0000000101001111;
	632 :	1111111101011101;
	631 :	1111111101101001;
	630 :	1111101111000111;
	629 :	1111101011001110;
	628 :	1111101110110000;
	627 :	1111110011101111;
	626 :	1111111000100001;
	625 :	1111111011111011;
	624 :	1111110110111111;
	623 :	1111111010101001;
	622 :	1111111100110000;
	621 :	1111111001100101;
	620 :	1111111100001010;
	619 :	0000000000001100;
	618 :	0000000000101100;
	617 :	1111111111001110;
	616 :	0000000000000000;
	615 :	1111111111011101;
	614 :	0000000000000100;
	613 :	1111111111110100;
	612 :	0000001000000001;
	611 :	0000000110100111;
	610 :	0000000110011001;
	609 :	0000000001101010;
	608 :	0000000101100100;
	607 :	0000001101101010;
	606 :	0000001010001010;
	605 :	0000000011101010;
	604 :	0000000010010111;
	603 :	1111111001111111;
	602 :	1111110101010011;
	601 :	1111110110101101;
	600 :	1111111000010011;
	599 :	1111111011001101;
	598 :	1111111010001110;
	597 :	1111111010110110;
	596 :	1111111100101100;
	595 :	0000000001101010;
	594 :	1111111110111101;
	593 :	1111111100001111;
	592 :	1111111011111001;
	591 :	0000000000101111;
	590 :	0000000000000000;
	589 :	1111111111001011;
	588 :	1111111111101100;
	587 :	0000000000000110;
	586 :	0000000000001000;
	585 :	0000000001100111;
	584 :	0000001001000011;
	583 :	0000000101011010;
	582 :	0000000001011111;
	581 :	1111111111010010;
	580 :	0000000011100110;
	579 :	0000000110110111;
	578 :	0000001000010000;
	577 :	0000000100100001;
	576 :	1111111011010101;
	575 :	1111110010000011;
	574 :	1111110010110000;
	573 :	1111110110000011;
	572 :	1111111000011010;
	571 :	1111111110011000;
	570 :	1111111010000011;
	569 :	1111111111011111;
	568 :	1111111010110000;
	567 :	1111111101110110;
	566 :	0000000001001010;
	565 :	1111111110100000;
	564 :	1111111110101011;
	563 :	0000000001000001;
	562 :	1111111111011111;
	561 :	1111111111111110;
	560 :	0000000000001011;
	559 :	1111111110111000;
	558 :	1111111111100011;
	557 :	1111111111111010;
	556 :	0000000010110100;
	555 :	0000000001010111;
	554 :	1111111001110011;
	553 :	1111111101101100;
	552 :	1111111011101110;
	551 :	0000000001000011;
	550 :	0000001001101000;
	549 :	0000000001110101;
	548 :	1111111110011111;
	547 :	1111110011100101;
	546 :	1111111010011010;
	545 :	1111111010101100;
	544 :	1111111110101100;
	543 :	0000000011111011;
	542 :	1111111111101110;
	541 :	0000000000011101;
	540 :	0000000000000111;
	539 :	1111111111010011;
	538 :	0000000100001001;
	537 :	0000000001100100;
	536 :	0000000001111100;
	535 :	0000000100010110;
	534 :	1111111110101001;
	533 :	0000000000000000;
	532 :	0000000000010001;
	531 :	1111111111101011;
	530 :	0000000000011011;
	529 :	1111111110110011;
	528 :	1111111101001001;
	527 :	1111111110100010;
	526 :	1111111010001111;
	525 :	0000000101000101;
	524 :	1111111010101101;
	523 :	0000000010011000;
	522 :	0000010100010000;
	521 :	0000001010000100;
	520 :	1111110111111110;
	519 :	1111110110100110;
	518 :	1111110111001100;
	517 :	1111111000111101;
	516 :	0000000011011100;
	515 :	0000000100110101;
	514 :	0000000001010011;
	513 :	1111111101101001;
	512 :	0000000000000000;
	511 :	0000000011100010;
	510 :	0000000011110111;
	509 :	1111111110100000;
	508 :	0000000011011110;
	507 :	1111111111101010;
	506 :	1111111111010001;
	505 :	1111111111110101;
	504 :	0000000000001000;
	503 :	1111111110101100;
	502 :	0000000001000011;
	501 :	1111111111100011;
	500 :	1111111100001111;
	499 :	1111111001111000;
	498 :	0000000000100110;
	497 :	0000000001110001;
	496 :	0000000100000111;
	495 :	0000000111010011;
	494 :	0000010000100011;
	493 :	0000000011111000;
	492 :	1111110111111110;
	491 :	0000000000101010;
	490 :	1111111101111100;
	489 :	1111111111111100;
	488 :	0000000111100010;
	487 :	0000000011011001;
	486 :	0000000000011010;
	485 :	0000000011100011;
	484 :	1111111010000101;
	483 :	0000000011001001;
	482 :	0000000101101110;
	481 :	1111111011001011;
	480 :	1111111111100111;
	479 :	1111111111010000;
	478 :	0000000000001101;
	477 :	1111111111111010;
	476 :	1111111111011001;
	475 :	0000000000110011;
	474 :	0000000000011100;
	473 :	0000000000111001;
	472 :	1111111010011111;
	471 :	1111110100001011;
	470 :	1111111111000010;
	469 :	0000000001110010;
	468 :	0000001100111100;
	467 :	0000000111110011;
	466 :	0000001110100100;
	465 :	1111111100011011;
	464 :	1111110101000101;
	463 :	1111111000011010;
	462 :	0000000000100100;
	461 :	0000000111110000;
	460 :	0000000001101000;
	459 :	1111111111111111;
	458 :	0000000000000000;
	457 :	1111111100100001;
	456 :	1111111111111000;
	455 :	0000000000111100;
	454 :	0000000010010110;
	453 :	1111111111101110;
	452 :	0000000001101001;
	451 :	1111111101100101;
	450 :	1111111111011100;
	449 :	1111111111011100;
	448 :	0000000000011001;
	447 :	1111111111101001;
	446 :	0000000001001111;
	445 :	1111111110000010;
	444 :	1111110110001110;
	443 :	1111110010101101;
	442 :	0000000000101110;
	441 :	1111111100101101;
	440 :	0000001000011010;
	439 :	0000001110011110;
	438 :	0000001011111001;
	437 :	1111110101111010;
	436 :	1111110010101110;
	435 :	1111110111110101;
	434 :	1111111011101101;
	433 :	1111111011000010;
	432 :	1111111100100001;
	431 :	1111111110001010;
	430 :	0000000010000101;
	429 :	1111111101110101;
	428 :	0000000110100010;
	427 :	1111111111000111;
	426 :	0000000101110000;
	425 :	1111111111011010;
	424 :	1111111111000111;
	423 :	1111111100010101;
	422 :	1111111110101110;
	421 :	0000000000000010;
	420 :	0000000000011010;
	419 :	0000000000101101;
	418 :	0000000000101000;
	417 :	1111111110101101;
	416 :	1111110100101010;
	415 :	1111111010001010;
	414 :	0000000100100010;
	413 :	0000000101010011;
	412 :	0000001001100000;
	411 :	0000001001110011;
	410 :	0000000110010110;
	409 :	1111111011110000;
	408 :	1111111010001011;
	407 :	1111111010000001;
	406 :	1111111000011111;
	405 :	1111110101011000;
	404 :	1111111010111001;
	403 :	1111111111110010;
	402 :	0000000010001010;
	401 :	0000000011001110;
	400 :	0000001001001000;
	399 :	1111111100100011;
	398 :	1111111110010001;
	397 :	1111111111111101;
	396 :	0000000001000110;
	395 :	1111111100101010;
	394 :	1111111111000111;
	393 :	1111111111000010;
	392 :	0000000000001111;
	391 :	0000000000000011;
	390 :	1111111111110100;
	389 :	1111111111000101;
	388 :	1111110110111100;
	387 :	1111111011010010;
	386 :	0000000010011101;
	385 :	0000000110111011;
	384 :	0000001000111001;
	383 :	0000000111111010;
	382 :	0000000001100111;
	381 :	0000000011010000;
	380 :	1111111101110001;
	379 :	1111111001000000;
	378 :	1111111000010010;
	377 :	1111111010101011;
	376 :	1111111011011100;
	375 :	1111110110001100;
	374 :	1111110110101100;
	373 :	1111111100100010;
	372 :	1111111110100111;
	371 :	0000000010010001;
	370 :	1111111110011011;
	369 :	0000001000110100;
	368 :	0000000101010100;
	367 :	1111111100100011;
	366 :	0000000000001111;
	365 :	0000000000001000;
	364 :	0000000000010001;
	363 :	0000000001010000;
	362 :	0000000000001011;
	361 :	1111111110000111;
	360 :	1111111000100001;
	359 :	1111111101001110;
	358 :	1111111111000110;
	357 :	1111111111100101;
	356 :	1111111100100110;
	355 :	0000000100010101;
	354 :	1111110111001101;
	353 :	0000000010000000;
	352 :	1111111111000011;
	351 :	1111111101001101;
	350 :	1111111010101110;
	349 :	1111111101001100;
	348 :	1111111101000000;
	347 :	1111110110110110;
	346 :	1111111000101000;
	345 :	0000000001010011;
	344 :	0000000001110011;
	343 :	0000000100001010;
	342 :	0000000101001110;
	341 :	0000000111110011;
	340 :	0000000110100000;
	339 :	1111111110001110;
	338 :	1111111110101100;
	337 :	1111111111010011;
	336 :	1111111110110110;
	335 :	0000000000101101;
	334 :	0000000000101111;
	333 :	1111111101111000;
	332 :	1111111000000011;
	331 :	1111111100011101;
	330 :	1111111000010101;
	329 :	1111111111001000;
	328 :	1111111010101000;
	327 :	0000000100010001;
	326 :	1111111010010110;
	325 :	0000000100000110;
	324 :	0000000011111000;
	323 :	0000000010100010;
	322 :	0000000100001011;
	321 :	0000001000111111;
	320 :	0000000001000100;
	319 :	1111110100001011;
	318 :	1111111111001101;
	317 :	1111111100011010;
	316 :	0000001010010110;
	315 :	0000000110000111;
	314 :	0000000110100110;
	313 :	0000000010111111;
	312 :	0000000100101110;
	311 :	1111111111011000;
	310 :	1111111110111101;
	309 :	1111111110110101;
	308 :	0000000000010010;
	307 :	0000000000100110;
	306 :	0000000000011011;
	305 :	1111111111110000;
	304 :	1111111010110111;
	303 :	1111111001011001;
	302 :	1111110100001101;
	301 :	1111111011101101;
	300 :	1111111101100111;
	299 :	0000000101000101;
	298 :	0000000011100101;
	297 :	0000000000111001;
	296 :	0000000010001111;
	295 :	1111111111011011;
	294 :	1111111110110011;
	293 :	1111111110001010;
	292 :	1111111001011110;
	291 :	1111111111110100;
	290 :	1111111101011100;
	289 :	0000000011100000;
	288 :	0000000000100010;
	287 :	0000000111001110;
	286 :	0000000101011011;
	285 :	1111111111001010;
	284 :	0000000000001101;
	283 :	0000000000011010;
	282 :	1111111101010101;
	281 :	1111111111011100;
	280 :	0000000000100100;
	279 :	1111111111011000;
	278 :	0000000001000011;
	277 :	1111111110010110;
	276 :	1111111010000001;
	275 :	1111111010001010;
	274 :	1111111100010010;
	273 :	0000000011110000;
	272 :	1111111111010011;
	271 :	0000000001011110;
	270 :	0000000110000111;
	269 :	0000000100101001;
	268 :	1111111000101111;
	267 :	1111110011110110;
	266 :	1111110111010111;
	265 :	1111111001100111;
	264 :	1111111110110010;
	263 :	0000000110000101;
	262 :	1111111101110001;
	261 :	0000000001111100;
	260 :	1111111011001011;
	259 :	1111111110100100;
	258 :	1111111110110110;
	257 :	0000000001010001;
	256 :	1111111100110010;
	255 :	0000000000010110;
	254 :	1111111110101011;
	253 :	1111111111101011;
	252 :	0000000000000001;
	251 :	1111111111001111;
	250 :	0000000000010111;
	249 :	1111111111010011;
	248 :	1111111010001100;
	247 :	1111111111101110;
	246 :	1111111111100110;
	245 :	1111111111000000;
	244 :	1111111111010000;
	243 :	1111111001011011;
	242 :	1111110101011011;
	241 :	0000000001010001;
	240 :	1111111010100100;
	239 :	1111111000001001;
	238 :	1111111010110010;
	237 :	1111111101111011;
	236 :	0000000101000100;
	235 :	0000000110100101;
	234 :	1111111101011110;
	233 :	1111111100100111;
	232 :	1111110010000001;
	231 :	1111110111100100;
	230 :	1111111111110100;
	229 :	0000000001110011;
	228 :	1111111011110011;
	227 :	1111111101111010;
	226 :	1111111110100011;
	225 :	1111111110110000;
	224 :	0000000000000000;
	223 :	0000000000000001;
	222 :	0000000000110100;
	221 :	1111111110011111;
	220 :	1111111110100101;
	219 :	0000000011011011;
	218 :	0000000000000000;
	217 :	1111111100000000;
	216 :	1111111110100010;
	215 :	1111111011000001;
	214 :	1111110011111100;
	213 :	1111111110011101;
	212 :	1111111011010000;
	211 :	1111111000101000;
	210 :	1111111110001101;
	209 :	0000001001101000;
	208 :	0000000111110100;
	207 :	0000000100011110;
	206 :	1111111001001001;
	205 :	0000000001010101;
	204 :	1111111110000000;
	203 :	1111111001100000;
	202 :	0000000100011001;
	201 :	1111111111111001;
	200 :	1111111100101000;
	199 :	0000000000010110;
	198 :	1111111111101001;
	197 :	0000000000010101;
	196 :	1111111111001010;
	195 :	0000000000101111;
	194 :	1111111111000110;
	193 :	0000000000000000;
	192 :	1111111110011101;
	191 :	0000000001100110;
	190 :	1111111011000100;
	189 :	1111111001001000;
	188 :	0000000100111010;
	187 :	0000000001111001;
	186 :	1111111101001001;
	185 :	0000000000100110;
	184 :	1111111001100111;
	183 :	1111111001010000;
	182 :	1111111100001000;
	181 :	0000000101110001;
	180 :	0000000001001101;
	179 :	1111110111010010;
	178 :	1111111110100001;
	177 :	0000000011101001;
	176 :	1111111111011010;
	175 :	0000000000111100;
	174 :	0000000011001010;
	173 :	0000000000001000;
	172 :	1111111110010111;
	171 :	0000000000001100;
	170 :	1111111111011010;
	169 :	1111111111100110;
	168 :	0000000000011100;
	167 :	1111111111000111;
	166 :	0000000000001001;
	165 :	1111111111010010;
	164 :	0000000000000100;
	163 :	0000000100000010;
	162 :	0000000010010011;
	161 :	1111111100001010;
	160 :	1111111111010100;
	159 :	0000000001111000;
	158 :	0000000000100000;
	157 :	0000000001010010;
	156 :	1111110111010010;
	155 :	1111110111000001;
	154 :	1111110111011001;
	153 :	1111111111000100;
	152 :	1111110111111011;
	151 :	1111110111001011;
	150 :	1111111000001011;
	149 :	1111111010111000;
	148 :	0000000000000110;
	147 :	1111111111011100;
	146 :	0000000010001111;
	145 :	0000000011010001;
	144 :	1111111110110111;
	143 :	1111111111101011;
	142 :	1111111111110110;
	141 :	1111111111100110;
	140 :	0000000000111000;
	139 :	0000000000101101;
	138 :	1111111110101111;
	137 :	0000000000001011;
	136 :	1111111111010110;
	135 :	0000000100101000;
	134 :	0000000100011001;
	133 :	0000000011011101;
	132 :	0000000011001100;
	131 :	0000000000010100;
	130 :	0000000000011111;
	129 :	0000000010001110;
	128 :	1111111011110011;
	127 :	1111111000110100;
	126 :	1111111000010100;
	125 :	1111111011111100;
	124 :	1111111000111000;
	123 :	1111110101011001;
	122 :	1111110101011110;
	121 :	1111111100110011;
	120 :	1111111100110111;
	119 :	1111111101010001;
	118 :	1111111101010111;
	117 :	0000000000100101;
	116 :	1111111111011011;
	115 :	0000000000010001;
	114 :	1111111111110011;
	113 :	1111111111010100;
	112 :	0000000000010000;
	111 :	0000000000000000;
	110 :	1111111111111010;
	109 :	0000000000010110;
	108 :	0000000000110001;
	107 :	1111111111110101;
	106 :	1111111110111110;
	105 :	0000000001111001;
	104 :	0000000101010101;
	103 :	0000000010010011;
	102 :	1111111101011001;
	101 :	1111111101110111;
	100 :	1111111101001111;
	99 :	1111111100110011;
	98 :	1111111100000100;
	97 :	1111111011100110;
	96 :	1111111100101011;
	95 :	1111111001110000;
	94 :	1111111011000100;
	93 :	1111111010110001;
	92 :	1111111110010000;
	91 :	1111111101110011;
	90 :	1111111100001110;
	89 :	0000000000100000;
	88 :	0000000000000101;
	87 :	1111111111101100;
	86 :	0000000000100000;
	85 :	1111111111111001;
	84 :	0000000000101011;
	83 :	0000000000010110;
	82 :	0000000000011010;
	81 :	1111111111000001;
	80 :	0000000000000010;
	79 :	0000000000001100;
	78 :	1111111111101101;
	77 :	1111111111001000;
	76 :	1111111110111000;
	75 :	1111111110110111;
	74 :	1111111101000110;
	73 :	1111111100001001;
	72 :	1111111101011010;
	71 :	1111111111011010;
	70 :	1111111110110100;
	69 :	1111111101110010;
	68 :	1111111101010110;
	67 :	1111111010111110;
	66 :	1111111101110100;
	65 :	1111111101010101;
	64 :	1111111010100001;
	63 :	1111111010110101;
	62 :	1111111101111011;
	61 :	0000000000100110;
	60 :	1111111111011010;
	59 :	1111111111101001;
	58 :	1111111111001101;
	57 :	0000000000000001;
	56 :	0000000000001000;
	55 :	1111111110110101;
	54 :	1111111111101100;
	53 :	1111111111100011;
	52 :	0000000000100101;
	51 :	0000000000111101;
	50 :	1111111111101001;
	49 :	1111111111101101;
	48 :	0000000000001001;
	47 :	0000000000001111;
	46 :	1111111111011111;
	45 :	1111111110111001;
	44 :	1111111110101001;
	43 :	1111111110101001;
	42 :	1111111110001011;
	41 :	1111111111111001;
	40 :	1111111101111110;
	39 :	1111111111010010;
	38 :	1111111111101011;
	37 :	1111111111100111;
	36 :	1111111101101100;
	35 :	1111111100101101;
	34 :	1111111110010101;
	33 :	0000000000000010;
	32 :	1111111111011010;
	31 :	0000000000011010;
	30 :	0000000000001010;
	29 :	0000000000010010;
	28 :	1111111111100101;
	27 :	0000000000011000;
	26 :	0000000000001000;
	25 :	0000000000000110;
	24 :	1111111111110110;
	23 :	0000000000010011;
	22 :	1111111111100000;
	21 :	0000000000001000;
	20 :	1111111111110001;
	19 :	1111111111010011;
	18 :	1111111111101101;
	17 :	1111111111101011;
	16 :	0000000000001001;
	15 :	0000000000010101;
	14 :	1111111111000101;
	13 :	0000000000000011;
	12 :	0000000000010001;
	11 :	1111111111101000;
	10 :	0000000001010011;
	9 :	1111111110101111;
	8 :	0000000001001010;
	7 :	0000000000001010;
	6 :	0000000000010001;
	5 :	1111111111110111;
	4 :	0000000000001110;
	3 :	0000000000010001;
	2 :	0000000000001110;
	1 :	0000000000000000;
	0 :	0000000000100110;
END;
