-- begin_signature
-- Weight_Memory(numWeight
-- 784
-- neuronNo
-- 19
-- layerNo
-- 1
-- addressWidth
-- 10
-- dataWidth
-- 16
-- weightFile
-- "w_1_19.mif")
-- end_signature
WIDTH=16;
DEPTH=784;

ADDRESS_RADIX=UNS;
DATA_RADIX=BIN;

CONTENT BEGIN
	783 :	0000000000010100;
	782 :	0000000000000100;
	781 :	0000000000001100;
	780 :	1111111111111110;
	779 :	0000000000010000;
	778 :	0000000000011101;
	777 :	1111111111111011;
	776 :	0000000001001001;
	775 :	0000000000010001;
	774 :	0000000000100001;
	773 :	0000000001001101;
	772 :	0000000000100011;
	771 :	0000000001011001;
	770 :	0000000001010111;
	769 :	0000000000011101;
	768 :	0000000000001011;
	767 :	0000000000100011;
	766 :	1111111111101110;
	765 :	1111111111111111;
	764 :	0000000000101100;
	763 :	0000000000110110;
	762 :	1111111111100000;
	761 :	0000000000010101;
	760 :	1111111111100011;
	759 :	0000000000001101;
	758 :	0000000000000111;
	757 :	0000000000011000;
	756 :	1111111111110001;
	755 :	1111111111111001;
	754 :	1111111111110011;
	753 :	0000000000001010;
	752 :	1111111111111011;
	751 :	1111111111111110;
	750 :	0000000000111100;
	749 :	0000000101010011;
	748 :	0000000101100100;
	747 :	0000000100110111;
	746 :	0000000111011101;
	745 :	0000001000100111;
	744 :	0000000111100110;
	743 :	0000000111110111;
	742 :	0000001001000111;
	741 :	0000000101011001;
	740 :	0000000100101001;
	739 :	0000000010011001;
	738 :	0000000010110000;
	737 :	0000000011000100;
	736 :	0000000010000010;
	735 :	0000000100011111;
	734 :	0000000010111110;
	733 :	0000000010010110;
	732 :	0000000001100100;
	731 :	0000000000100000;
	730 :	1111111111101010;
	729 :	0000000000100010;
	728 :	0000000000000101;
	727 :	0000000000100010;
	726 :	1111111111010111;
	725 :	1111111111011111;
	724 :	1111111111011011;
	723 :	1111111111011001;
	722 :	0000000000100000;
	721 :	0000000011000101;
	720 :	0000001001110000;
	719 :	0000001011100101;
	718 :	0000000110100011;
	717 :	0000000110110110;
	716 :	0000000110101000;
	715 :	1111111110001100;
	714 :	0000000111101000;
	713 :	0000001000111010;
	712 :	0000000110110100;
	711 :	0000000011110101;
	710 :	0000001000111001;
	709 :	0000000110001000;
	708 :	0000000111100101;
	707 :	0000001000010001;
	706 :	0000000011111100;
	705 :	0000000001110001;
	704 :	1111111111110101;
	703 :	0000000000000010;
	702 :	0000000000001100;
	701 :	1111111111110000;
	700 :	1111111111010010;
	699 :	1111111110111101;
	698 :	1111111111101011;
	697 :	1111111101100001;
	696 :	1111111100111110;
	695 :	0000000000001011;
	694 :	1111111101110101;
	693 :	1111111110001011;
	692 :	0000000111111010;
	691 :	0000000100000100;
	690 :	1111111010110010;
	689 :	1111110101001011;
	688 :	1111111011101001;
	687 :	1111110111111011;
	686 :	0000000000100101;
	685 :	0000000110011000;
	684 :	0000000100110110;
	683 :	1111111111101110;
	682 :	0000000101100011;
	681 :	1111111011011001;
	680 :	0000000011000011;
	679 :	1111111110110110;
	678 :	1111111100101011;
	677 :	1111111101100101;
	676 :	0000000001000001;
	675 :	0000000000000101;
	674 :	0000000000000100;
	673 :	1111111111011110;
	672 :	0000000000000000;
	671 :	0000000000111111;
	670 :	0000000000001000;
	669 :	1111111101110100;
	668 :	1111111110001010;
	667 :	1111111111011101;
	666 :	1111111111010101;
	665 :	1111111101010001;
	664 :	1111111101111111;
	663 :	0000000010010001;
	662 :	0000000000100110;
	661 :	1111111100110000;
	660 :	0000000111011101;
	659 :	0000000011001101;
	658 :	1111111011111011;
	657 :	0000001000011011;
	656 :	0000000001101111;
	655 :	1111111100111000;
	654 :	1111111000101011;
	653 :	1111111011000100;
	652 :	0000001000110001;
	651 :	1111111011000111;
	650 :	1111111000110101;
	649 :	1111110110100000;
	648 :	1111111110000010;
	647 :	1111111110110011;
	646 :	0000000000001110;
	645 :	0000000000000000;
	644 :	1111111111101110;
	643 :	0000000000010000;
	642 :	0000000000001000;
	641 :	1111111110100010;
	640 :	1111111101110011;
	639 :	0000000000001101;
	638 :	1111111100110010;
	637 :	1111111001010100;
	636 :	1111111110111001;
	635 :	1111111110010101;
	634 :	0000000111001000;
	633 :	0000000101010011;
	632 :	1111111101000111;
	631 :	1111111000111100;
	630 :	0000000011101100;
	629 :	0000000000010101;
	628 :	1111111101000100;
	627 :	0000000111001011;
	626 :	0000000001101010;
	625 :	1111111010100110;
	624 :	1111111101110011;
	623 :	0000000011101001;
	622 :	0000000011010110;
	621 :	1111111100100101;
	620 :	1111111110111111;
	619 :	1111111110001101;
	618 :	1111111110100100;
	617 :	1111111111100101;
	616 :	0000000000000100;
	615 :	1111111111010110;
	614 :	1111111111011111;
	613 :	1111111111010111;
	612 :	1111111111000101;
	611 :	1111111010001100;
	610 :	1111111001101111;
	609 :	1111111011011100;
	608 :	0000000100101010;
	607 :	1111111100010101;
	606 :	1111111011101111;
	605 :	0000000010011110;
	604 :	0000000001100000;
	603 :	0000000100001111;
	602 :	1111111100011001;
	601 :	1111111001001000;
	600 :	0000000100011101;
	599 :	0000000011100000;
	598 :	0000000000001100;
	597 :	0000000101000001;
	596 :	0000000010001010;
	595 :	0000000101100101;
	594 :	0000000101100011;
	593 :	0000000100111000;
	592 :	0000000001010001;
	591 :	0000000000000010;
	590 :	1111111111111001;
	589 :	1111111111111110;
	588 :	0000000000000001;
	587 :	0000000000010000;
	586 :	1111111111000011;
	585 :	1111111111010110;
	584 :	1111111101001100;
	583 :	1111111011001000;
	582 :	0000000011010101;
	581 :	0000000011001000;
	580 :	0000000100111001;
	579 :	1111111111101011;
	578 :	1111111010000110;
	577 :	1111110111011110;
	576 :	1111111010100000;
	575 :	1111111011110000;
	574 :	1111111000011001;
	573 :	0000000100101100;
	572 :	1111110101110111;
	571 :	0000000011111001;
	570 :	1111111010100011;
	569 :	1111111110001101;
	568 :	0000000000001111;
	567 :	1111110111100101;
	566 :	1111111110101101;
	565 :	0000000000010001;
	564 :	1111111010001001;
	563 :	1111111011110001;
	562 :	0000000000100100;
	561 :	0000000000011101;
	560 :	1111111111100100;
	559 :	1111111111111001;
	558 :	1111111111010110;
	557 :	0000000010100001;
	556 :	1111111111110010;
	555 :	1111111011001100;
	554 :	1111110101010011;
	553 :	1111111000101011;
	552 :	1111110110111000;
	551 :	1111110011110000;
	550 :	1111110001000111;
	549 :	1111110101100111;
	548 :	1111110111001011;
	547 :	1111101110010010;
	546 :	1111101111101101;
	545 :	1111101101001011;
	544 :	1111101001011111;
	543 :	1111100111001000;
	542 :	1111110110001111;
	541 :	1111111010010001;
	540 :	1111111001101011;
	539 :	1111110110110000;
	538 :	1111110111110101;
	537 :	1111111010000101;
	536 :	1111110111010011;
	535 :	1111111010011010;
	534 :	0000000000111100;
	533 :	1111111111010111;
	532 :	0000000000100101;
	531 :	1111111111111011;
	530 :	1111111111011000;
	529 :	1111111100110101;
	528 :	1111111100010110;
	527 :	1111111000010001;
	526 :	1111110111100010;
	525 :	1111110111111001;
	524 :	1111111011110101;
	523 :	1111110001011100;
	522 :	1111101111000010;
	521 :	1111110100010101;
	520 :	1111101101100010;
	519 :	1111110010010111;
	518 :	1111111010100101;
	517 :	0000000001010011;
	516 :	1111111101110110;
	515 :	1111111100100011;
	514 :	1111110100101000;
	513 :	1111111000100110;
	512 :	1111101101010110;
	511 :	1111111000100101;
	510 :	1111110111000101;
	509 :	1111111011101110;
	508 :	1111110110011010;
	507 :	1111111110110110;
	506 :	0000000001010010;
	505 :	0000000000000111;
	504 :	1111111111011111;
	503 :	0000000000011110;
	502 :	1111111110010100;
	501 :	1111111001000100;
	500 :	1111111100011010;
	499 :	1111111100000101;
	498 :	1111110111001101;
	497 :	1111111111001100;
	496 :	1111111111111000;
	495 :	1111110110010010;
	494 :	1111110101100110;
	493 :	1111110001100101;
	492 :	0000000000010000;
	491 :	1111111011111011;
	490 :	0000000100101100;
	489 :	0000001100011010;
	488 :	0000000101101101;
	487 :	0000000011010111;
	486 :	1111110010110010;
	485 :	1111111001110011;
	484 :	1111110100111111;
	483 :	1111110110100000;
	482 :	1111111100011001;
	481 :	1111110110110010;
	480 :	1111110110100001;
	479 :	1111111110000111;
	478 :	0000000000010100;
	477 :	0000000000001110;
	476 :	1111111111100111;
	475 :	0000000000100010;
	474 :	1111111011100110;
	473 :	1111110101011100;
	472 :	1111111000100000;
	471 :	1111111010010111;
	470 :	1111111000101010;
	469 :	1111110110001001;
	468 :	1111110010010100;
	467 :	1111101110011110;
	466 :	1111111100110000;
	465 :	1111110111001011;
	464 :	1111111111111100;
	463 :	0000000011101100;
	462 :	0000000110011010;
	461 :	0000000110101001;
	460 :	0000000111011001;
	459 :	0000000010100111;
	458 :	0000000111000111;
	457 :	0000000110110100;
	456 :	1111111111111101;
	455 :	1111110101101000;
	454 :	1111111101101000;
	453 :	1111111010000101;
	452 :	1111111001110101;
	451 :	1111111100011101;
	450 :	0000000000010001;
	449 :	0000000000000110;
	448 :	1111111111011100;
	447 :	0000000000000000;
	446 :	1111111101001111;
	445 :	1111111000110110;
	444 :	1111111010010101;
	443 :	1111110111110000;
	442 :	1111111001001101;
	441 :	1111110110000110;
	440 :	1111110010111000;
	439 :	1111111001000100;
	438 :	0000000111101010;
	437 :	1111111011010110;
	436 :	0000001000110010;
	435 :	0000000010100000;
	434 :	0000000100000000;
	433 :	0000000100001011;
	432 :	0000001001010010;
	431 :	0000000101110000;
	430 :	0000000011011110;
	429 :	1111111011111101;
	428 :	1111111110011010;
	427 :	1111111101011010;
	426 :	1111110110010000;
	425 :	1111111101010001;
	424 :	1111111001111011;
	423 :	1111111011111111;
	422 :	1111111110100000;
	421 :	0000000000111001;
	420 :	0000000000001000;
	419 :	1111111110111110;
	418 :	1111111101000110;
	417 :	1111111011001001;
	416 :	1111111011110001;
	415 :	1111111000111011;
	414 :	1111110110101110;
	413 :	1111111101011011;
	412 :	1111111000000010;
	411 :	1111111110010010;
	410 :	0000000000101111;
	409 :	0000000011001110;
	408 :	0000000111111100;
	407 :	0000000011101011;
	406 :	0000000111100001;
	405 :	0000001001011011;
	404 :	0000000000001100;
	403 :	1111111110000110;
	402 :	1111111101001101;
	401 :	1111111011001001;
	400 :	0000000010001010;
	399 :	1111111101100101;
	398 :	1111111010111001;
	397 :	1111111011101100;
	396 :	1111111111010111;
	395 :	1111111110001101;
	394 :	1111111111010111;
	393 :	1111111111110011;
	392 :	0000000000000100;
	391 :	0000000000010011;
	390 :	0000000000000010;
	389 :	0000000010110101;
	388 :	0000000000100100;
	387 :	1111111111011101;
	386 :	0000000101000110;
	385 :	0000000110100101;
	384 :	0000001001001110;
	383 :	0000000111000100;
	382 :	0000000000100110;
	381 :	0000000010011111;
	380 :	0000000011110000;
	379 :	0000001011101001;
	378 :	0000001101001101;
	377 :	0000001100001110;
	376 :	0000001100001010;
	375 :	0000001101001001;
	374 :	1111111111111011;
	373 :	0000001000000101;
	372 :	0000000000000101;
	371 :	0000000000000100;
	370 :	0000000000010111;
	369 :	0000000100010010;
	368 :	0000001011001110;
	367 :	0000000100100000;
	366 :	1111111111001000;
	365 :	1111111111011101;
	364 :	1111111111101000;
	363 :	1111111111101001;
	362 :	0000000011100111;
	361 :	0000000011000011;
	360 :	0000000111011011;
	359 :	0000000111111001;
	358 :	0000000010010110;
	357 :	0000001000101110;
	356 :	0000001001101011;
	355 :	0000000110110111;
	354 :	0000000010000001;
	353 :	0000001011100101;
	352 :	1111111111101100;
	351 :	0000000001010101;
	350 :	0000001010100010;
	349 :	0000000000100101;
	348 :	1111111110011111;
	347 :	1111111111100010;
	346 :	0000000101111000;
	345 :	0000000001100000;
	344 :	1111111100110000;
	343 :	0000000110101010;
	342 :	0000000100011100;
	341 :	0000001110001111;
	340 :	0000001100100111;
	339 :	0000000011000110;
	338 :	1111111110101100;
	337 :	1111111111101101;
	336 :	0000000000100111;
	335 :	0000000000100011;
	334 :	0000000111100111;
	333 :	0000001000011111;
	332 :	0000001100000010;
	331 :	0000001010101100;
	330 :	0000000110011111;
	329 :	0000001000010010;
	328 :	0000000111110000;
	327 :	1111111100110111;
	326 :	0000000101101010;
	325 :	0000000111101100;
	324 :	0000000101111011;
	323 :	0000001000110010;
	322 :	0000001001111001;
	321 :	0000000100011001;
	320 :	1111111100010011;
	319 :	0000000001110000;
	318 :	0000000101001001;
	317 :	0000000101001101;
	316 :	0000001100100010;
	315 :	0000000110100100;
	314 :	0000000010000101;
	313 :	0000001010000101;
	312 :	0000001000000101;
	311 :	0000000000100110;
	310 :	1111111111001010;
	309 :	0000000000011010;
	308 :	0000000000001101;
	307 :	1111111111100111;
	306 :	0000000010100110;
	305 :	0000000101011001;
	304 :	0000000001111101;
	303 :	0000001100001010;
	302 :	0000000101101100;
	301 :	1111111110011111;
	300 :	0000000001101100;
	299 :	0000000001011110;
	298 :	0000000010110100;
	297 :	1111111010110111;
	296 :	0000000101100101;
	295 :	1111111010110100;
	294 :	1111111010101101;
	293 :	0000000011001001;
	292 :	0000000110000111;
	291 :	0000000100101101;
	290 :	0000000101011001;
	289 :	1111111111001001;
	288 :	0000000011001110;
	287 :	1111111100110100;
	286 :	1111111101110111;
	285 :	0000000100100001;
	284 :	0000000011010001;
	283 :	1111111111010010;
	282 :	0000000000000011;
	281 :	1111111111111010;
	280 :	0000000000001100;
	279 :	1111111111000101;
	278 :	0000000100000010;
	277 :	0000000111111011;
	276 :	0000000111111001;
	275 :	0000000110101101;
	274 :	0000000101001101;
	273 :	0000000111110010;
	272 :	0000000100011010;
	271 :	0000000010101111;
	270 :	1111110110101111;
	269 :	0000000101011000;
	268 :	1111111001101010;
	267 :	1111110000110101;
	266 :	0000000000000110;
	265 :	1111111101100000;
	264 :	1111110111110011;
	263 :	0000000010011100;
	262 :	1111111111001010;
	261 :	1111111110110000;
	260 :	1111111101110010;
	259 :	0000000011000111;
	258 :	0000000111001010;
	257 :	1111111111110101;
	256 :	1111111101001110;
	255 :	0000000000010000;
	254 :	0000000000001010;
	253 :	1111111111000010;
	252 :	0000000000000000;
	251 :	0000000000101000;
	250 :	0000000011010110;
	249 :	0000000110110001;
	248 :	0000000111110011;
	247 :	0000000011111100;
	246 :	1111111101000111;
	245 :	1111111101110110;
	244 :	1111111100001000;
	243 :	0000001100001001;
	242 :	0000000111111100;
	241 :	1111111111011010;
	240 :	0000000101001111;
	239 :	0000000010000101;
	238 :	0000000001011010;
	237 :	0000000011110000;
	236 :	0000000100111101;
	235 :	0000000110010001;
	234 :	0000000101100111;
	233 :	0000000111100000;
	232 :	0000000101011000;
	231 :	0000000101100010;
	230 :	0000000111100010;
	229 :	1111111011111010;
	228 :	1111111001110010;
	227 :	1111111110001000;
	226 :	0000000001111111;
	225 :	1111111111110010;
	224 :	1111111111110110;
	223 :	1111111111011011;
	222 :	0000000000001101;
	221 :	0000000011110111;
	220 :	0000000001001011;
	219 :	0000000000000110;
	218 :	1111111010000100;
	217 :	0000000010010011;
	216 :	0000000100011101;
	215 :	0000000101000111;
	214 :	1111111110111101;
	213 :	0000000011001111;
	212 :	0000000111100101;
	211 :	0000000100011111;
	210 :	1111111101010011;
	209 :	0000000110000000;
	208 :	0000000110001111;
	207 :	0000000011101111;
	206 :	0000001011010001;
	205 :	0000000011100101;
	204 :	0000001001010000;
	203 :	0000000011001001;
	202 :	0000000100101111;
	201 :	1111111100110010;
	200 :	1111111110101101;
	199 :	1111111101010011;
	198 :	0000000000100000;
	197 :	0000000000000011;
	196 :	1111111111101100;
	195 :	1111111110110011;
	194 :	1111111101111011;
	193 :	0000000001111110;
	192 :	0000001001010110;
	191 :	0000001001111110;
	190 :	0000000100111111;
	189 :	0000000010000110;
	188 :	0000000100010110;
	187 :	0000000101010111;
	186 :	0000000100000110;
	185 :	0000000100001000;
	184 :	0000000001010111;
	183 :	0000000001001111;
	182 :	0000000000010011;
	181 :	0000000101101101;
	180 :	0000001000111001;
	179 :	0000001010110001;
	178 :	0000000100100010;
	177 :	0000001000001001;
	176 :	0000000111111100;
	175 :	0000000110011011;
	174 :	0000000011011110;
	173 :	0000000000001101;
	172 :	0000000001001100;
	171 :	1111111111100101;
	170 :	0000000000111100;
	169 :	1111111110100100;
	168 :	0000000000010010;
	167 :	0000000000001111;
	166 :	0000000000011100;
	165 :	0000000011100111;
	164 :	1111111111111100;
	163 :	0000000010111000;
	162 :	0000000101101101;
	161 :	0000000001100111;
	160 :	0000000100000010;
	159 :	1111111111011101;
	158 :	1111111100011110;
	157 :	0000001011000001;
	156 :	0000000010101100;
	155 :	1111111010110000;
	154 :	1111111110010000;
	153 :	0000000110010110;
	152 :	0000000100110110;
	151 :	0000001110101110;
	150 :	0000000000010011;
	149 :	0000000011010100;
	148 :	1111111111101101;
	147 :	0000000011001000;
	146 :	0000000100011001;
	145 :	0000000001011101;
	144 :	1111111111111011;
	143 :	0000000000000000;
	142 :	1111111111011000;
	141 :	0000000000001011;
	140 :	1111111111110000;
	139 :	0000000001001010;
	138 :	0000000000101000;
	137 :	0000000001011001;
	136 :	1111111111101110;
	135 :	0000000001001100;
	134 :	1111111101010111;
	133 :	1111111110001011;
	132 :	0000000001111111;
	131 :	1111111111010010;
	130 :	0000000110011011;
	129 :	0000000001010110;
	128 :	0000000101100010;
	127 :	0000000000000100;
	126 :	1111111011010010;
	125 :	1111111111111110;
	124 :	0000000001010001;
	123 :	0000000110100000;
	122 :	1111111100111110;
	121 :	1111111001011100;
	120 :	1111111100101000;
	119 :	0000000001110101;
	118 :	0000000011000000;
	117 :	0000000000001110;
	116 :	1111111111111011;
	115 :	1111111111101111;
	114 :	1111111111001010;
	113 :	1111111111100011;
	112 :	1111111111100011;
	111 :	0000000000000111;
	110 :	1111111111100101;
	109 :	1111111111101001;
	108 :	1111111011111010;
	107 :	1111111101000010;
	106 :	1111111011100001;
	105 :	1111111011111110;
	104 :	1111111011001101;
	103 :	1111111100000100;
	102 :	1111111110111101;
	101 :	1111111011100011;
	100 :	1111111010001000;
	99 :	1111111100111000;
	98 :	1111110100000001;
	97 :	1111110110010000;
	96 :	1111110111111001;
	95 :	1111111000100110;
	94 :	1111110110111110;
	93 :	1111111010100011;
	92 :	1111111111100110;
	91 :	0000000001001000;
	90 :	1111111110111011;
	89 :	0000000000110110;
	88 :	1111111111100000;
	87 :	1111111111011110;
	86 :	0000000000011111;
	85 :	0000000000011000;
	84 :	0000000000001011;
	83 :	0000000000010100;
	82 :	0000000000101011;
	81 :	0000000000010010;
	80 :	0000000000101000;
	79 :	0000000000000111;
	78 :	1111111111011101;
	77 :	0000000000100101;
	76 :	0000000000101110;
	75 :	0000000001000010;
	74 :	0000000001011001;
	73 :	1111111101010100;
	72 :	1111111100110110;
	71 :	1111111101010000;
	70 :	1111111001110001;
	69 :	1111111011111010;
	68 :	1111111101001001;
	67 :	1111111110001100;
	66 :	1111111101110111;
	65 :	1111111101011000;
	64 :	1111111110111110;
	63 :	0000000000011000;
	62 :	1111111111101001;
	61 :	0000000000101111;
	60 :	1111111111110000;
	59 :	0000000000110001;
	58 :	0000000001000111;
	57 :	1111111111100001;
	56 :	0000000000011010;
	55 :	1111111111111010;
	54 :	0000000000100001;
	53 :	0000000000010110;
	52 :	0000000000000100;
	51 :	0000000000001000;
	50 :	0000000000110111;
	49 :	1111111110110111;
	48 :	1111111111101101;
	47 :	0000000000001101;
	46 :	0000000000010111;
	45 :	0000000000000011;
	44 :	1111111111100001;
	43 :	0000000000111111;
	42 :	1111111111111100;
	41 :	1111111110111001;
	40 :	1111111111010001;
	39 :	0000000000011010;
	38 :	1111111111100000;
	37 :	1111111111111100;
	36 :	1111111111011111;
	35 :	0000000000010000;
	34 :	1111111111111001;
	33 :	0000000000110001;
	32 :	0000000000001101;
	31 :	0000000000001101;
	30 :	1111111110110010;
	29 :	1111111111101010;
	28 :	1111111111110011;
	27 :	0000000000110110;
	26 :	0000000000011100;
	25 :	1111111111101100;
	24 :	0000000000011100;
	23 :	0000000000011000;
	22 :	0000000000010000;
	21 :	0000000000010110;
	20 :	0000000000000111;
	19 :	1111111110101011;
	18 :	0000000000001001;
	17 :	0000000000100001;
	16 :	0000000001100011;
	15 :	1111111111011011;
	14 :	1111111111010010;
	13 :	1111111111100010;
	12 :	1111111111101001;
	11 :	0000000000001011;
	10 :	1111111111011110;
	9 :	0000000000000000;
	8 :	0000000000010011;
	7 :	1111111111111100;
	6 :	0000000000101011;
	5 :	1111111111110100;
	4 :	0000000000010100;
	3 :	0000000000011010;
	2 :	1111111111111000;
	1 :	0000000000000101;
	0 :	0000000000011001;
END;
