-- begin_signature
-- Weight_Memory(numWeight
-- 30
-- neuronNo
-- 17
-- layerNo
-- 2
-- addressWidth
-- 5
-- dataWidth
-- 16
-- weightFile
-- "w_2_17.hex")
-- end_signature
WIDTH=16;
DEPTH=30;

ADDRESS_RADIX=UNS;
DATA_RADIX=BIN;

CONTENT BEGIN
	29 :	0000000000110101;
	28 :	1111111010011100;
	27 :	0000000001001111;
	26 :	1111110101100111;
	25 :	0000010010000110;
	24 :	1111101011000111;
	23 :	1111101010000000;
	22 :	0000010000000000;
	21 :	0000000010001011;
	20 :	0000011010110000;
	19 :	1111111111100100;
	18 :	0000000111101010;
	17 :	1111111000010111;
	16 :	1111111000011100;
	15 :	1111101100001100;
	14 :	1111100111001110;
	13 :	1111111101100110;
	12 :	1111100011110110;
	11 :	0000010001111011;
	10 :	1111111110100011;
	9 :	1111101101100101;
	8 :	0000001010010001;
	7 :	1111110010101111;
	6 :	0000000010000110;
	5 :	1111011110111001;
	4 :	0000000011101000;
	3 :	0000000010101100;
	2 :	1111110001000110;
	1 :	0000010001011011;
	0 :	1111111111100010;
END;
