-- begin_signature
-- Weight_Memory(numWeight
-- 30
-- neuronNo
-- 7
-- layerNo
-- 3
-- addressWidth
-- 5
-- dataWidth
-- 16
-- weightFile
-- "w_3_7.hex")
-- end_signature
WIDTH=16;
DEPTH=30;

ADDRESS_RADIX=UNS;
DATA_RADIX=BIN;

CONTENT BEGIN
	29 :	0000000100000000;
	28 :	1111111100111011;
	27 :	1111111110000100;
	26 :	0000001110100101;
	25 :	1111110011000100;
	24 :	0000000010001010;
	23 :	1111101000111101;
	22 :	1111111111101011;
	21 :	0000001100000010;
	20 :	1111111010000000;
	19 :	0000000000011110;
	18 :	0000000001110111;
	17 :	1111111011111011;
	16 :	1111110101101100;
	15 :	0000000010000011;
	14 :	0000010110101001;
	13 :	1111111110001110;
	12 :	1111111111010010;
	11 :	0000000010111111;
	10 :	1110111010110000;
	9 :	0000000010110110;
	8 :	1111111001110100;
	7 :	1111111001001110;
	6 :	1111111110101011;
	5 :	1111000111011000;
	4 :	0000000000011011;
	3 :	0000000010000010;
	2 :	0000000101100101;
	1 :	1110111110001000;
	0 :	1111111001000111;
END;
