-- begin_signature
-- Weight_Memory(numWeight
-- 30
-- neuronNo
-- 12
-- layerNo
-- 2
-- addressWidth
-- 5
-- dataWidth
-- 16
-- weightFile
-- "w_2_12.hex")
-- end_signature
WIDTH=16;
DEPTH=30;

ADDRESS_RADIX=UNS;
DATA_RADIX=BIN;

CONTENT BEGIN
	29 :	1111111100000101;
	28 :	0000000001000011;
	27 :	0000000000011111;
	26 :	0000000000011100;
	25 :	1111111110001011;
	24 :	0000000010001110;
	23 :	1111111011111011;
	22 :	1111111101110001;
	21 :	0000000001001010;
	20 :	1111111011100001;
	19 :	0000000000000101;
	18 :	1111111101001001;
	17 :	0000000101000100;
	16 :	0000000110011110;
	15 :	1111111101010100;
	14 :	1111111011011100;
	13 :	0000000001001111;
	12 :	1111111111111000;
	11 :	1111111111100111;
	10 :	1111111100110110;
	9 :	0000000011011000;
	8 :	0000000000110001;
	7 :	0000000001011111;
	6 :	1111111111010110;
	5 :	1111111100000011;
	4 :	0000000010000101;
	3 :	0000000000010000;
	2 :	0000000010100100;
	1 :	1111111101001110;
	0 :	1111111111011110;
END;
