-- begin_signature
-- Weight_Memory(numWeight
-- 784
-- neuronNo
-- 22
-- layerNo
-- 1
-- addressWidth
-- 10
-- dataWidth
-- 16
-- weightFile
-- "w_1_22.hex")
-- end_signature
WIDTH=16;
DEPTH=784;

ADDRESS_RADIX=UNS;
DATA_RADIX=BIN;

CONTENT BEGIN
	783 :	1111111111000101;
	782 :	1111111111100001;
	781 :	0000000000100001;
	780 :	1111111111100000;
	779 :	0000000000110101;
	778 :	1111111111111111;
	777 :	0000000000111000;
	776 :	0000000000001101;
	775 :	0000000000011010;
	774 :	0000000000011010;
	773 :	1111111111101001;
	772 :	0000000000011000;
	771 :	1111111111000010;
	770 :	0000000000001100;
	769 :	1111111111110011;
	768 :	0000000000001101;
	767 :	1111111111110110;
	766 :	0000000000010011;
	765 :	0000000000000011;
	764 :	1111111111110010;
	763 :	0000000000010010;
	762 :	1111111111100000;
	761 :	0000000000001011;
	760 :	0000000000001010;
	759 :	0000000000001101;
	758 :	1111111111101000;
	757 :	0000000000011101;
	756 :	1111111111111111;
	755 :	1111111111010101;
	754 :	0000000000110000;
	753 :	1111111111111000;
	752 :	0000000000000111;
	751 :	0000000000100101;
	750 :	1111111111100010;
	749 :	1111111110111100;
	748 :	1111111110111101;
	747 :	0000000010101111;
	746 :	0000000010110101;
	745 :	1111111111111010;
	744 :	1111111010111110;
	743 :	0000000000001100;
	742 :	1111111110001111;
	741 :	1111111110111111;
	740 :	1111111110011001;
	739 :	1111111110001110;
	738 :	1111111111010110;
	737 :	1111111110110000;
	736 :	0000000000001111;
	735 :	0000000000000101;
	734 :	1111111101110100;
	733 :	1111111111110010;
	732 :	0000000000100100;
	731 :	1111111111101111;
	730 :	0000000000010100;
	729 :	0000000000000100;
	728 :	0000000000001110;
	727 :	0000000000010000;
	726 :	1111111111110001;
	725 :	1111111111110001;
	724 :	1111111111110101;
	723 :	1111111101010010;
	722 :	1111111111001110;
	721 :	1111111101111111;
	720 :	1111111010011111;
	719 :	1111111100011111;
	718 :	1111111101111111;
	717 :	1111111011101010;
	716 :	1111110110111011;
	715 :	1111111001111011;
	714 :	1111111100001100;
	713 :	1111111001101101;
	712 :	1111110101101101;
	711 :	1111110110101100;
	710 :	1111110111100000;
	709 :	1111111111000010;
	708 :	1111111110110010;
	707 :	1111111101001010;
	706 :	1111111101010011;
	705 :	0000000000110011;
	704 :	1111111111100100;
	703 :	1111111111110001;
	702 :	1111111111100001;
	701 :	0000000000000101;
	700 :	1111111111010111;
	699 :	0000000000000000;
	698 :	0000000000001110;
	697 :	1111111111110110;
	696 :	0000000000001111;
	695 :	1111111101101110;
	694 :	1111111110101011;
	693 :	1111111110000000;
	692 :	1111110110110110;
	691 :	1111110111101010;
	690 :	1111111000110111;
	689 :	1111110101100011;
	688 :	1111111001011100;
	687 :	0000000101100100;
	686 :	0000000001111000;
	685 :	0000000000101001;
	684 :	0000000111010011;
	683 :	1111111000100100;
	682 :	1111111110100011;
	681 :	0000000011110100;
	680 :	1111111101110011;
	679 :	1111111110011111;
	678 :	1111111110010000;
	677 :	0000000010010100;
	676 :	0000000001000101;
	675 :	0000000000000001;
	674 :	1111111111111111;
	673 :	1111111111010000;
	672 :	1111111111111101;
	671 :	1111111111110100;
	670 :	0000000000000000;
	669 :	0000000001011001;
	668 :	0000000000011011;
	667 :	1111111101111011;
	666 :	1111111110110000;
	665 :	1111111100101100;
	664 :	1111110101111011;
	663 :	1111110101010110;
	662 :	1111111010011100;
	661 :	0000000100001111;
	660 :	1111111100001111;
	659 :	0000000100101100;
	658 :	0000000101010011;
	657 :	1111111111000110;
	656 :	0000000000011100;
	655 :	0000000101011001;
	654 :	0000001000100010;
	653 :	0000000000111100;
	652 :	0000000000101101;
	651 :	0000000111011100;
	650 :	0000000000011111;
	649 :	1111111000000101;
	648 :	1111111011010110;
	647 :	0000000000001001;
	646 :	0000000000001101;
	645 :	1111111111101110;
	644 :	1111111111100111;
	643 :	1111111111111100;
	642 :	1111111111101001;
	641 :	0000000000010011;
	640 :	1111111101111000;
	639 :	1111111101000101;
	638 :	1111111101101101;
	637 :	1111111110111101;
	636 :	1111111000110111;
	635 :	1111111011110010;
	634 :	1111111110011011;
	633 :	1111111110110011;
	632 :	0000000000101111;
	631 :	0000001110001011;
	630 :	1111111111111001;
	629 :	0000001001101001;
	628 :	1111111111000110;
	627 :	1111111001000111;
	626 :	1111111000100110;
	625 :	1111111011110001;
	624 :	1111111010110100;
	623 :	1111111110011000;
	622 :	0000000111000111;
	621 :	1111111001110010;
	620 :	1111101111101101;
	619 :	1111111101110100;
	618 :	1111111110000111;
	617 :	0000000000101110;
	616 :	0000000001011000;
	615 :	1111111111000110;
	614 :	1111111111101010;
	613 :	1111111111101001;
	612 :	1111111011101111;
	611 :	1111111010001001;
	610 :	1111111011000001;
	609 :	1111111010001000;
	608 :	1111111100001001;
	607 :	1111111010111011;
	606 :	1111111100101110;
	605 :	1111110101101111;
	604 :	1111111101001110;
	603 :	1111111101011110;
	602 :	1111111100100101;
	601 :	0000000110100011;
	600 :	0000001011100101;
	599 :	0000000111101001;
	598 :	1111111011111101;
	597 :	1111111010100101;
	596 :	1111111110010011;
	595 :	1111111100110110;
	594 :	0000000010110100;
	593 :	0000000100110100;
	592 :	1111111000011111;
	591 :	1111111011110001;
	590 :	1111111110001100;
	589 :	1111111111011110;
	588 :	1111111111111011;
	587 :	1111111111010110;
	586 :	1111111111110000;
	585 :	1111111101101011;
	584 :	1111111010010100;
	583 :	1111110101110011;
	582 :	1111111000101101;
	581 :	1111111101000111;
	580 :	1111111110001100;
	579 :	1111111111101101;
	578 :	1111111010000001;
	577 :	1111110110010101;
	576 :	1111110010011110;
	575 :	1111111001100111;
	574 :	1111111000101100;
	573 :	0000000011011000;
	572 :	0000001101010110;
	571 :	0000000101111010;
	570 :	0000001010000011;
	569 :	1111111000011011;
	568 :	0000000000010110;
	567 :	1111111010100010;
	566 :	1111111100011010;
	565 :	0000001011011111;
	564 :	0000000101100011;
	563 :	1111111010010110;
	562 :	1111111110110101;
	561 :	0000000000010110;
	560 :	1111111111110011;
	559 :	1111111111111110;
	558 :	1111111111111100;
	557 :	1111111100100010;
	556 :	1111111101000000;
	555 :	1111110110100011;
	554 :	0000000010110001;
	553 :	0000001001001000;
	552 :	0000000000100100;
	551 :	1111111010100011;
	550 :	0000000001011100;
	549 :	1111111100001101;
	548 :	1111111011011101;
	547 :	0000000000000011;
	546 :	0000000000010011;
	545 :	1111110001001011;
	544 :	0000000011000100;
	543 :	1111111011010101;
	542 :	1111111110010100;
	541 :	1111111101100110;
	540 :	0000001001010110;
	539 :	1111110011111001;
	538 :	0000000001111101;
	537 :	0000000100010000;
	536 :	0000000011001101;
	535 :	1111111100101101;
	534 :	1111111110110011;
	533 :	1111111111111100;
	532 :	0000000000010011;
	531 :	1111111111011000;
	530 :	1111111111110111;
	529 :	1111111100110010;
	528 :	1111111001011110;
	527 :	1111110100110001;
	526 :	0000000111011100;
	525 :	0000000100101010;
	524 :	1111111111011101;
	523 :	1111111010110110;
	522 :	0000001101001001;
	521 :	0000000010110100;
	520 :	0000010100101101;
	519 :	0000001000100010;
	518 :	1111101101100100;
	517 :	1111101001100100;
	516 :	1111101101111000;
	515 :	0000000010001000;
	514 :	0000000011101100;
	513 :	1111111110010101;
	512 :	0000001001010001;
	511 :	1111110111111000;
	510 :	0000000011000101;
	509 :	1111111001100011;
	508 :	0000000001000000;
	507 :	1111111010011011;
	506 :	1111111111001101;
	505 :	0000000000000111;
	504 :	0000000000011010;
	503 :	1111111111101111;
	502 :	1111111111010110;
	501 :	1111111100010111;
	500 :	1111111011110101;
	499 :	0000000000011100;
	498 :	0000000101111111;
	497 :	1111111001011101;
	496 :	0000000011100000;
	495 :	0000000110110010;
	494 :	0000000111100101;
	493 :	0000001100000100;
	492 :	0000000101001100;
	491 :	1111110001100100;
	490 :	1111110000000000;
	489 :	1111101010100110;
	488 :	1111111000010101;
	487 :	0000000010100111;
	486 :	0000001111101010;
	485 :	1111111110011101;
	484 :	0000000110011010;
	483 :	0000000011010111;
	482 :	0000000000011111;
	481 :	0000000011101001;
	480 :	1111111110101100;
	479 :	1111111110100111;
	478 :	1111111111010110;
	477 :	0000000000000000;
	476 :	0000000000010110;
	475 :	1111111110111011;
	474 :	1111111111000000;
	473 :	1111111100110111;
	472 :	0000000001101101;
	471 :	0000000001011000;
	470 :	1111111101011101;
	469 :	1111111101011011;
	468 :	0000000011001011;
	467 :	1111111110011101;
	466 :	0000000111010011;
	465 :	0000000100001111;
	464 :	0000000001000101;
	463 :	0000000000000111;
	462 :	1111100101001001;
	461 :	1111100011000100;
	460 :	1111111110111011;
	459 :	0000001100100001;
	458 :	0000001010010011;
	457 :	0000000110101110;
	456 :	0000001000100100;
	455 :	0000000100010000;
	454 :	1111111111011010;
	453 :	0000000111011001;
	452 :	0000000010010001;
	451 :	1111111110001000;
	450 :	0000000001100011;
	449 :	0000000000011111;
	448 :	0000000000000001;
	447 :	1111111111010010;
	446 :	1111111111001111;
	445 :	1111111111110010;
	444 :	0000000101111101;
	443 :	0000000101111010;
	442 :	0000000011001001;
	441 :	1111111111011111;
	440 :	1111111100000101;
	439 :	0000000001100000;
	438 :	1111111101110100;
	437 :	1111111011110110;
	436 :	1111111111101110;
	435 :	1111101101101000;
	434 :	1111011010101111;
	433 :	1111110011110000;
	432 :	0000001000111001;
	431 :	0000000010011101;
	430 :	0000001010001000;
	429 :	1111111110100011;
	428 :	0000000000000010;
	427 :	0000011001111111;
	426 :	0000000000010111;
	425 :	0000001000101100;
	424 :	1111111111011100;
	423 :	1111111111011101;
	422 :	0000000001010010;
	421 :	1111111111001110;
	420 :	0000000000000110;
	419 :	1111111111000110;
	418 :	0000000000001000;
	417 :	1111111101101110;
	416 :	0000000101001110;
	415 :	0000000011110010;
	414 :	0000000101011111;
	413 :	1111111111101010;
	412 :	1111111101000001;
	411 :	1111111110011110;
	410 :	1111111010001111;
	409 :	1111111101100001;
	408 :	1111110010100001;
	407 :	1111101010111100;
	406 :	1111100100111000;
	405 :	1111111010000000;
	404 :	0000001011101111;
	403 :	0000000001101000;
	402 :	0000001000011000;
	401 :	0000000010101010;
	400 :	0000000010010111;
	399 :	0000001011110110;
	398 :	0000001101111101;
	397 :	0000001001110110;
	396 :	1111111001101001;
	395 :	0000000001011100;
	394 :	0000000000101000;
	393 :	0000000001000111;
	392 :	1111111111111001;
	391 :	1111111111111111;
	390 :	1111111111101001;
	389 :	1111111110010101;
	388 :	1111111111100001;
	387 :	0000000010011110;
	386 :	0000000111101010;
	385 :	1111111101101000;
	384 :	1111111101100110;
	383 :	0000000011100110;
	382 :	1111111011011000;
	381 :	0000000010101101;
	380 :	1111111010010100;
	379 :	1111011111111100;
	378 :	1111101000111000;
	377 :	1111111001010001;
	376 :	0000000111010001;
	375 :	0000000110101001;
	374 :	0000010101110100;
	373 :	0000000011011110;
	372 :	1111111110000101;
	371 :	0000000110010000;
	370 :	0000000001001110;
	369 :	1111111101001110;
	368 :	1111111111101111;
	367 :	0000000011001111;
	366 :	0000000000010011;
	365 :	1111111111001000;
	364 :	1111111111010110;
	363 :	1111111111101010;
	362 :	0000000000000100;
	361 :	1111111010111001;
	360 :	1111111110111011;
	359 :	1111111111100110;
	358 :	0000001010111011;
	357 :	0000000011011001;
	356 :	0000000100111010;
	355 :	1111111011001010;
	354 :	1111111101000001;
	353 :	1111111010110001;
	352 :	1111110110101010;
	351 :	1111100010000000;
	350 :	1111110000110001;
	349 :	0000000000111001;
	348 :	0000001110000001;
	347 :	0000001100101101;
	346 :	0000010010111110;
	345 :	1111110110100010;
	344 :	1111110100100110;
	343 :	0000000010011001;
	342 :	1111111100110000;
	341 :	1111111111111111;
	340 :	1111111111010011;
	339 :	0000000010111001;
	338 :	0000000000000001;
	337 :	0000000001001110;
	336 :	0000000000110001;
	335 :	1111111111010100;
	334 :	1111111101100010;
	333 :	1111110101110111;
	332 :	1111111110100010;
	331 :	1111111110000000;
	330 :	0000000011100100;
	329 :	0000000110101110;
	328 :	0000000000100011;
	327 :	0000000100011000;
	326 :	0000000011001001;
	325 :	1111111101111110;
	324 :	1111110110110110;
	323 :	1111110001110111;
	322 :	1111101111000000;
	321 :	0000000011011100;
	320 :	0000000101001100;
	319 :	0000000001001011;
	318 :	0000000011000110;
	317 :	1111111010100010;
	316 :	1111111001111101;
	315 :	1111111111011100;
	314 :	1111111010100100;
	313 :	0000000010001101;
	312 :	1111111111100110;
	311 :	0000000010110011;
	310 :	0000000000001001;
	309 :	0000000000001111;
	308 :	1111111111111110;
	307 :	0000000000010100;
	306 :	1111111100100000;
	305 :	1111110111001010;
	304 :	1111111110010010;
	303 :	0000000001110000;
	302 :	0000000001110011;
	301 :	0000000101000001;
	300 :	1111111110011111;
	299 :	1111111101101011;
	298 :	0000000011100000;
	297 :	0000010010110010;
	296 :	0000000110111000;
	295 :	1111111010110110;
	294 :	1111111111001000;
	293 :	1111111101001110;
	292 :	1111111111111110;
	291 :	0000001000101000;
	290 :	1111110111111100;
	289 :	1111111010011001;
	288 :	1111111010111010;
	287 :	1111111111011011;
	286 :	1111110111100011;
	285 :	1111111101100000;
	284 :	1111111100010100;
	283 :	1111111111111011;
	282 :	1111111111110100;
	281 :	1111111111100100;
	280 :	0000000000000000;
	279 :	1111111111110100;
	278 :	1111111011100111;
	277 :	1111110111000111;
	276 :	1111111011011100;
	275 :	0000000110110011;
	274 :	1111111001101011;
	273 :	1111111010110000;
	272 :	0000000111100010;
	271 :	0000001001110001;
	270 :	1111111100110000;
	269 :	0000000011100110;
	268 :	0000000001111000;
	267 :	1111111001011111;
	266 :	1111111010101110;
	265 :	1111111110100111;
	264 :	1111111110111011;
	263 :	1111111000101101;
	262 :	0000000011001010;
	261 :	0000000000010010;
	260 :	1111111000110111;
	259 :	0000000000011100;
	258 :	1111111110000001;
	257 :	1111111101100000;
	256 :	1111111100011001;
	255 :	0000000000000101;
	254 :	0000000000011011;
	253 :	1111111111011000;
	252 :	0000000000001101;
	251 :	1111111111110000;
	250 :	1111111011011010;
	249 :	1111110101110010;
	248 :	1111110110110011;
	247 :	0000000000100011;
	246 :	0000000001010011;
	245 :	1111111111010101;
	244 :	1111111011110011;
	243 :	1111110101110100;
	242 :	0000000110100111;
	241 :	0000000111100000;
	240 :	0000001110011111;
	239 :	0000000010111100;
	238 :	0000001010100011;
	237 :	1111110111111001;
	236 :	0000001000110001;
	235 :	1111110111101110;
	234 :	1111111111110100;
	233 :	1111111000010010;
	232 :	1111111110010110;
	231 :	1111111100111101;
	230 :	0000000000010110;
	229 :	1111111101100000;
	228 :	1111111101101001;
	227 :	0000000000001001;
	226 :	1111111111111101;
	225 :	0000000000101010;
	224 :	1111111111100111;
	223 :	1111111111101111;
	222 :	1111111001100110;
	221 :	1111110110011110;
	220 :	1111110111011111;
	219 :	1111111101110101;
	218 :	0000000111000101;
	217 :	0000000011010010;
	216 :	1111111111011011;
	215 :	0000001000001110;
	214 :	0000000101010111;
	213 :	0000001011011000;
	212 :	0000000010110100;
	211 :	0000000100110010;
	210 :	0000001011110000;
	209 :	0000001000100010;
	208 :	0000000010000010;
	207 :	0000000101000111;
	206 :	1111110101100100;
	205 :	1111111001110101;
	204 :	1111110101011110;
	203 :	1111111100110110;
	202 :	1111111101101101;
	201 :	1111111101011000;
	200 :	1111111110001001;
	199 :	1111111111100110;
	198 :	1111111111110101;
	197 :	1111111111101000;
	196 :	1111111111111010;
	195 :	1111111110101101;
	194 :	1111111101010110;
	193 :	1111111000000000;
	192 :	1111110111000100;
	191 :	1111111001000110;
	190 :	0000000100101010;
	189 :	0000001000110000;
	188 :	1111110110001100;
	187 :	1111111000101111;
	186 :	1111111001110110;
	185 :	1111111101110100;
	184 :	1111111100010100;
	183 :	1111110111011001;
	182 :	1111111100001111;
	181 :	0000001011000011;
	180 :	1111111111110100;
	179 :	0000000000111110;
	178 :	0000001001100011;
	177 :	1111110011101000;
	176 :	1111110110010100;
	175 :	1111111001111101;
	174 :	1111111100000100;
	173 :	1111111100011110;
	172 :	1111111111101000;
	171 :	0000000000000111;
	170 :	1111111111011100;
	169 :	1111111111111111;
	168 :	0000000000000001;
	167 :	1111111111110001;
	166 :	1111111111011000;
	165 :	1111111100000010;
	164 :	1111111110100000;
	163 :	1111111111101100;
	162 :	1111111111001101;
	161 :	1111111011110010;
	160 :	1111111111011010;
	159 :	0000001111001110;
	158 :	0000001110001110;
	157 :	0000000001001011;
	156 :	0000000000111001;
	155 :	0000000010000111;
	154 :	1111111111010011;
	153 :	1111111110101010;
	152 :	1111110110000000;
	151 :	1111111100101101;
	150 :	0000000011011000;
	149 :	1111111011011000;
	148 :	1111110111111110;
	147 :	1111111001111011;
	146 :	1111111100000100;
	145 :	1111111110010101;
	144 :	1111111111010110;
	143 :	1111111111111110;
	142 :	0000000000100110;
	141 :	1111111111111100;
	140 :	1111111111111010;
	139 :	1111111111110000;
	138 :	1111111111100110;
	137 :	1111111110000101;
	136 :	1111111101011001;
	135 :	1111111111101011;
	134 :	0000000010110101;
	133 :	1111111110010111;
	132 :	1111111111011100;
	131 :	1111111111100011;
	130 :	0000000001101100;
	129 :	0000000010100111;
	128 :	0000000000001001;
	127 :	0000000001101110;
	126 :	1111110111011110;
	125 :	1111111000100001;
	124 :	1111111101100001;
	123 :	0000000001010000;
	122 :	1111111101001111;
	121 :	1111111011011101;
	120 :	1111111101110011;
	119 :	1111111100111011;
	118 :	1111111110001111;
	117 :	1111111110111000;
	116 :	0000000000010010;
	115 :	0000000000100111;
	114 :	0000000000000011;
	113 :	1111111111111011;
	112 :	1111111111101010;
	111 :	1111111111111110;
	110 :	1111111111011110;
	109 :	1111111111101111;
	108 :	0000000000000100;
	107 :	1111111111001011;
	106 :	1111111100010111;
	105 :	1111111001100000;
	104 :	1111111010110110;
	103 :	1111110111111111;
	102 :	1111111010101100;
	101 :	0000000011011010;
	100 :	0000000110010111;
	99 :	0000000001001001;
	98 :	1111111110000001;
	97 :	1111111001110011;
	96 :	1111111010011110;
	95 :	1111110101101001;
	94 :	1111110101011010;
	93 :	1111111011101011;
	92 :	1111111111100111;
	91 :	1111111111010011;
	90 :	1111111111000110;
	89 :	1111111111100110;
	88 :	0000000000010111;
	87 :	0000000000111001;
	86 :	1111111111110111;
	85 :	0000000000001010;
	84 :	1111111111101010;
	83 :	1111111111011011;
	82 :	0000000000110111;
	81 :	1111111111111000;
	80 :	0000000000111001;
	79 :	1111111111110101;
	78 :	1111111111101101;
	77 :	1111111111001001;
	76 :	1111111101001100;
	75 :	1111111101101111;
	74 :	1111111101101101;
	73 :	1111111101100011;
	72 :	1111111101011011;
	71 :	1111111011101001;
	70 :	1111111011000100;
	69 :	1111111100011010;
	68 :	1111111100101011;
	67 :	1111111101000111;
	66 :	1111111111011010;
	65 :	1111111111010011;
	64 :	1111111110111010;
	63 :	0000000000110011;
	62 :	0000000000100001;
	61 :	0000000000011001;
	60 :	0000000000000011;
	59 :	1111111111011010;
	58 :	1111111111110110;
	57 :	0000000000010010;
	56 :	0000000000010000;
	55 :	1111111111111001;
	54 :	0000000000000111;
	53 :	0000000000011010;
	52 :	0000000000011101;
	51 :	1111111111111111;
	50 :	1111111111010010;
	49 :	0000000000100101;
	48 :	0000000000100100;
	47 :	1111111111111100;
	46 :	1111111111010010;
	45 :	0000000000000100;
	44 :	0000000000100111;
	43 :	0000000000100100;
	42 :	0000000000111111;
	41 :	0000000000000101;
	40 :	0000000010010011;
	39 :	0000000001111000;
	38 :	1111111111110100;
	37 :	0000000000001110;
	36 :	1111111111101100;
	35 :	0000000000100100;
	34 :	0000000000001010;
	33 :	0000000000010000;
	32 :	0000000000011010;
	31 :	1111111111010111;
	30 :	1111111111011110;
	29 :	1111111111110011;
	28 :	0000000000011110;
	27 :	1111111111101101;
	26 :	1111111111011010;
	25 :	1111111110101001;
	24 :	0000000000010101;
	23 :	1111111111010110;
	22 :	1111111111101110;
	21 :	1111111111011101;
	20 :	1111111111011010;
	19 :	0000000000001101;
	18 :	0000000000001001;
	17 :	1111111111111011;
	16 :	1111111111111110;
	15 :	1111111111011001;
	14 :	1111111110111101;
	13 :	1111111111101110;
	12 :	0000000000111000;
	11 :	0000000000110001;
	10 :	0000000000000001;
	9 :	1111111111111110;
	8 :	0000000000101010;
	7 :	0000000000101010;
	6 :	1111111111111000;
	5 :	0000000000101010;
	4 :	1111111111110101;
	3 :	0000000000000100;
	2 :	0000000000110000;
	1 :	1111111111011100;
	0 :	0000000000100100;
END;
