-- begin_signature
-- Weight_Memory(numWeight
-- 30
-- neuronNo
-- 11
-- layerNo
-- 2
-- addressWidth
-- 5
-- dataWidth
-- 16
-- weightFile
-- "w_2_11.hex")
-- end_signature
WIDTH=16;
DEPTH=30;

ADDRESS_RADIX=UNS;
DATA_RADIX=BIN;

CONTENT BEGIN
	29 :	0000000010100010;
	28 :	0000000100111110;
	27 :	1111111111111110;
	26 :	0000001011101110;
	25 :	0000000100001000;
	24 :	1111101110110100;
	23 :	1111101100011011;
	22 :	1111101111010011;
	21 :	1111110001001110;
	20 :	0000000001100101;
	19 :	1111101011010011;
	18 :	1111011111010101;
	17 :	1111111110010110;
	16 :	1111110101100001;
	15 :	1111110111001111;
	14 :	1111110001011011;
	13 :	0000000011110000;
	12 :	1111101110101100;
	11 :	0000000000100010;
	10 :	1111111100000001;
	9 :	1111111111000011;
	8 :	1111110000100000;
	7 :	1111111101001001;
	6 :	1111110100100001;
	5 :	1111110111000011;
	4 :	0000000000010000;
	3 :	1111111101111000;
	2 :	0000000110000100;
	1 :	0000011010101010;
	0 :	0000000010001001;
END;
