-- begin_signature
-- Weight_Memory(numWeight
-- 10
-- neuronNo
-- 9
-- layerNo
-- 4
-- addressWidth
-- 4
-- dataWidth
-- 16
-- weightFile
-- "w_4_9.mif")
-- end_signature
WIDTH=16;
DEPTH=10;

ADDRESS_RADIX=UNS;
DATA_RADIX=BIN;

CONTENT BEGIN
	9 :	0000001000101000;
	8 :	1111111001010110;
	7 :	0000011001111100;
	6 :	1111001101001111;
	5 :	0000000101100100;
	4 :	1111110100110101;
	3 :	1111111011100101;
	2 :	1111010110000010;
	1 :	0000000000101100;
	0 :	1111011111011001;
END;
