-- begin_signature
-- Weight_Memory(numWeight
-- 30
-- neuronNo
-- 2
-- layerNo
-- 3
-- addressWidth
-- 5
-- dataWidth
-- 16
-- weightFile
-- "w_3_2.hex")
-- end_signature
WIDTH=16;
DEPTH=30;

ADDRESS_RADIX=UNS;
DATA_RADIX=BIN;

CONTENT BEGIN
	29 :	1111111001010010;
	28 :	1111001000011111;
	27 :	0000000101011110;
	26 :	1111111011110010;
	25 :	0000000011101001;
	24 :	1111111000010000;
	23 :	0000000000101010;
	22 :	1111111011011100;
	21 :	0000001110111010;
	20 :	1111111001110000;
	19 :	1111111101000001;
	18 :	1111111101101001;
	17 :	1111111110100110;
	16 :	1111111100101000;
	15 :	1111000011000010;
	14 :	0000000110011001;
	13 :	1111111110001010;
	12 :	1111111100110110;
	11 :	0000010000001010;
	10 :	1111111000000100;
	9 :	1111110111000010;
	8 :	1111111101101001;
	7 :	0000000110010000;
	6 :	1111101101110010;
	5 :	1111110110010110;
	4 :	1111111111010001;
	3 :	1111111101001011;
	2 :	1111011100101100;
	1 :	1111101110011101;
	0 :	0000011110111010;
END;
