-- begin_signature
-- Weight_Memory(numWeight
-- 30
-- neuronNo
-- 3
-- layerNo
-- 2
-- addressWidth
-- 5
-- dataWidth
-- 16
-- weightFile
-- "w_2_3.mif")
-- end_signature
WIDTH=16;
DEPTH=30;

ADDRESS_RADIX=UNS;
DATA_RADIX=BIN;

CONTENT BEGIN
	29 :	0000000000010101;
	28 :	0000000000001110;
	27 :	0000000011110011;
	26 :	0000000001001100;
	25 :	0000000000101001;
	24 :	0000000000001000;
	23 :	1111111100010111;
	22 :	1111111101000001;
	21 :	1111111000111111;
	20 :	1111111101110100;
	19 :	0000000001100001;
	18 :	1111111110000001;
	17 :	1111111110010010;
	16 :	1111111011010001;
	15 :	0000000001100101;
	14 :	1111111110110001;
	13 :	1111111101110111;
	12 :	0000000000010010;
	11 :	0000000000000011;
	10 :	0000000101000001;
	9 :	0000000000110100;
	8 :	0000000001000101;
	7 :	0000000000011100;
	6 :	1111111010011011;
	5 :	1111111100011100;
	4 :	0000000000010000;
	3 :	1111111101101110;
	2 :	0000000000000011;
	1 :	0000000001100110;
	0 :	0000000000100001;
END;
