-- begin_signature
-- Weight_Memory(numWeight
-- 30
-- neuronNo
-- 0
-- layerNo
-- 2
-- addressWidth
-- 5
-- dataWidth
-- 16
-- weightFile
-- "w_2_0.hex")
-- end_signature
WIDTH=16;
DEPTH=30;

ADDRESS_RADIX=UNS;
DATA_RADIX=BIN;

CONTENT BEGIN
	29 :	1111111100010000;
	28 :	1111111100110110;
	27 :	0000000010111011;
	26 :	1111010101101110;
	25 :	1111101110101111;
	24 :	1111101010111100;
	23 :	0000100001111001;
	22 :	1111111010101101;
	21 :	1111111111101100;
	20 :	1111110111000101;
	19 :	1111100000011010;
	18 :	1111110100000101;
	17 :	1111100101000111;
	16 :	1111110111011111;
	15 :	1111111000010100;
	14 :	0000000110111110;
	13 :	0000000000010111;
	12 :	0000000011101110;
	11 :	1111101100111000;
	10 :	1111111110110100;
	9 :	0000000011110001;
	8 :	1111111101001001;
	7 :	1111111001010100;
	6 :	1111111010001000;
	5 :	1111111011101100;
	4 :	0000000011110001;
	3 :	1111111000100000;
	2 :	0000010000010100;
	1 :	1111111010000101;
	0 :	1111111110011000;
END;
