-- begin_signature
-- Weight_Memory(numWeight
-- 30
-- neuronNo
-- 5
-- layerNo
-- 2
-- addressWidth
-- 5
-- dataWidth
-- 16
-- weightFile
-- "w_2_5.mif")
-- end_signature
WIDTH=16;
DEPTH=30;

ADDRESS_RADIX=UNS;
DATA_RADIX=BIN;

CONTENT BEGIN
	29 :	1111111100010001;
	28 :	0000010100100100;
	27 :	1111111100101101;
	26 :	1111111111100001;
	25 :	1111101010010101;
	24 :	1111101001100011;
	23 :	0000001101101010;
	22 :	1111110110010100;
	21 :	1111011001110011;
	20 :	1111100010010110;
	19 :	1111111111100110;
	18 :	1111111010010000;
	17 :	1111110010000001;
	16 :	1111110101110100;
	15 :	0000010000000000;
	14 :	0000100111101001;
	13 :	0000000010101111;
	12 :	0000100011110011;
	11 :	0000000010001010;
	10 :	1111111111010110;
	9 :	1111110011001100;
	8 :	1111010011110110;
	7 :	1111111100011100;
	6 :	1111110111010001;
	5 :	1111110100110110;
	4 :	0000000100100010;
	3 :	0000000001010101;
	2 :	0000000001011110;
	1 :	1111110010000110;
	0 :	1111111110001111;
END;
