-- begin_signature
-- Weight_Memory(numWeight
-- 30
-- neuronNo
-- 9
-- layerNo
-- 2
-- addressWidth
-- 5
-- dataWidth
-- 16
-- weightFile
-- "w_2_9.hex")
-- end_signature
WIDTH=16;
DEPTH=30;

ADDRESS_RADIX=UNS;
DATA_RADIX=BIN;

CONTENT BEGIN
	29 :	0000000000011010;
	28 :	0000001100101101;
	27 :	1111111111000001;
	26 :	0000010000110010;
	25 :	1111110011101000;
	24 :	0000010101001101;
	23 :	0000000000010010;
	22 :	1111111010100110;
	21 :	1111101111101001;
	20 :	1111111110010110;
	19 :	0000001010100110;
	18 :	1111111111000001;
	17 :	1111111010011111;
	16 :	1111110000110011;
	15 :	0000001100001001;
	14 :	0000001111000101;
	13 :	0000000001001000;
	12 :	0000010100101101;
	11 :	1111101010111000;
	10 :	0000000010000100;
	9 :	1111110001111110;
	8 :	1111110001010110;
	7 :	1111111010000010;
	6 :	1111110011001101;
	5 :	0000010011100010;
	4 :	0000000001011011;
	3 :	0000000011001001;
	2 :	0000000100001100;
	1 :	1111101011001111;
	0 :	0000000010010000;
END;
