-- begin_signature
-- Weight_Memory(numWeight
-- 30
-- neuronNo
-- 4
-- layerNo
-- 3
-- addressWidth
-- 5
-- dataWidth
-- 16
-- weightFile
-- "w_3_4.hex")
-- end_signature
WIDTH=16;
DEPTH=30;

ADDRESS_RADIX=UNS;
DATA_RADIX=BIN;

CONTENT BEGIN
	29 :	1111110101111110;
	28 :	1111111100101101;
	27 :	1111100100000100;
	26 :	0000000010001010;
	25 :	0000011001000010;
	24 :	1111111000101101;
	23 :	1111101001101110;
	22 :	1111111000100111;
	21 :	0000000101011110;
	20 :	1111001000010100;
	19 :	1111111100011100;
	18 :	0000000010110111;
	17 :	1111000111110100;
	16 :	1111111011111011;
	15 :	0000001111010101;
	14 :	1111110000000001;
	13 :	0000000000100111;
	12 :	1111111111001000;
	11 :	0000001010111001;
	10 :	0000000000000011;
	9 :	1111101010100101;
	8 :	0000000110100010;
	7 :	1111110001000000;
	6 :	0000000101111000;
	5 :	0000010001001111;
	4 :	0000000100001101;
	3 :	0000000011100101;
	2 :	1111101100000010;
	1 :	1111110110011000;
	0 :	0000001000011100;
END;
