-- begin_signature
-- Weight_Memory(numWeight
-- 30
-- neuronNo
-- 20
-- layerNo
-- 2
-- addressWidth
-- 5
-- dataWidth
-- 16
-- weightFile
-- "w_2_20.mif")
-- end_signature
WIDTH=16;
DEPTH=30;

ADDRESS_RADIX=UNS;
DATA_RADIX=BIN;

CONTENT BEGIN
	29 :	0000000000101100;
	28 :	0000001011001000;
	27 :	1111111110111000;
	26 :	1111100000001101;
	25 :	1111110110001101;
	24 :	1111110000000101;
	23 :	1111110010010010;
	22 :	1111101110101100;
	21 :	1111111001001101;
	20 :	1111110011100110;
	19 :	1111001101111101;
	18 :	1111111010011011;
	17 :	0000010000101010;
	16 :	0000001111010100;
	15 :	1111100111011100;
	14 :	1111100001111011;
	13 :	1111111111111101;
	12 :	1111101010100010;
	11 :	0000001111001001;
	10 :	1111111111011111;
	9 :	1111111100110001;
	8 :	0000000110110001;
	7 :	1111110101011011;
	6 :	1111100110111010;
	5 :	1111101111111011;
	4 :	1111111010110001;
	3 :	1111111111101100;
	2 :	1111101111100011;
	1 :	1111101111010101;
	0 :	1111111110100110;
END;
