-- begin_signature
-- Weight_Memory(numWeight
-- 784
-- neuronNo
-- 4
-- layerNo
-- 1
-- addressWidth
-- 10
-- dataWidth
-- 16
-- weightFile
-- "w_1_4.hex")
-- end_signature
WIDTH=16;
DEPTH=784;

ADDRESS_RADIX=UNS;
DATA_RADIX=BIN;

CONTENT BEGIN
	783 :	0000000000011010;
	782 :	1111111111110011;
	781 :	1111111111100010;
	780 :	1111111111100110;
	779 :	1111111111010010;
	778 :	0000000000010010;
	777 :	1111111111110000;
	776 :	1111111111111000;
	775 :	0000000000100101;
	774 :	0000000000001011;
	773 :	1111111111100001;
	772 :	1111111111110001;
	771 :	1111111111101100;
	770 :	1111111111110100;
	769 :	1111111111111101;
	768 :	0000000000101010;
	767 :	0000000000010001;
	766 :	1111111110111110;
	765 :	0000000000101110;
	764 :	0000000000001011;
	763 :	1111111111101111;
	762 :	0000000000100111;
	761 :	1111111111101000;
	760 :	1111111111110000;
	759 :	0000000000000011;
	758 :	0000000000000011;
	757 :	1111111111011110;
	756 :	0000000000101110;
	755 :	1111111110111010;
	754 :	1111111111011110;
	753 :	1111111111001111;
	752 :	0000000000000111;
	751 :	0000000000110001;
	750 :	1111111111011110;
	749 :	0000000000001011;
	748 :	1111111111100111;
	747 :	0000000001001001;
	746 :	0000000000011011;
	745 :	1111111111101111;
	744 :	1111111111101010;
	743 :	0000000000011111;
	742 :	1111111111000001;
	741 :	0000000000010101;
	740 :	1111111111101011;
	739 :	1111111111001011;
	738 :	1111111111011001;
	737 :	1111111111011100;
	736 :	0000000000111111;
	735 :	0000000000111111;
	734 :	1111111111101010;
	733 :	1111111111011011;
	732 :	1111111111001111;
	731 :	0000000000010100;
	730 :	0000000000010001;
	729 :	0000000000001101;
	728 :	0000000000011001;
	727 :	0000000000000001;
	726 :	0000000000001100;
	725 :	0000000000001011;
	724 :	1111111111100111;
	723 :	1111111111000110;
	722 :	1111111111101010;
	721 :	0000000000011001;
	720 :	1111111111011101;
	719 :	1111111111100010;
	718 :	1111111111010010;
	717 :	0000000000000100;
	716 :	0000000000000000;
	715 :	1111111111011010;
	714 :	0000000000011100;
	713 :	1111111111111001;
	712 :	1111111111010101;
	711 :	0000000000000110;
	710 :	0000000000100110;
	709 :	0000000000011010;
	708 :	0000000000001100;
	707 :	0000000000001000;
	706 :	1111111110100110;
	705 :	0000000000000010;
	704 :	1111111111011010;
	703 :	0000000000001111;
	702 :	0000000000011111;
	701 :	1111111111110110;
	700 :	1111111111110001;
	699 :	1111111111101010;
	698 :	1111111111110100;
	697 :	1111111111110100;
	696 :	1111111111011101;
	695 :	0000000000100001;
	694 :	1111111111010011;
	693 :	0000000000000101;
	692 :	0000000000010101;
	691 :	0000000000101100;
	690 :	1111111111111100;
	689 :	1111111111100010;
	688 :	1111111111100010;
	687 :	0000000000101010;
	686 :	1111111111110010;
	685 :	1111111111111011;
	684 :	0000000000010101;
	683 :	0000000000100111;
	682 :	0000000000011100;
	681 :	0000000000000100;
	680 :	0000000000000001;
	679 :	0000000000000000;
	678 :	1111111111101001;
	677 :	0000000000010101;
	676 :	1111111111100110;
	675 :	0000000000000011;
	674 :	1111111111000001;
	673 :	0000000000100010;
	672 :	1111111111111110;
	671 :	0000000000000110;
	670 :	1111111111101001;
	669 :	0000000000101000;
	668 :	1111111111100111;
	667 :	0000000000001000;
	666 :	1111111111101111;
	665 :	0000000000000111;
	664 :	1111111111101000;
	663 :	0000000000000101;
	662 :	1111111111111000;
	661 :	0000000000010011;
	660 :	0000000000110100;
	659 :	1111111111110101;
	658 :	1111111111101011;
	657 :	1111111111100001;
	656 :	1111111111111011;
	655 :	0000000000000011;
	654 :	0000000000011000;
	653 :	0000000000010011;
	652 :	0000000000000111;
	651 :	0000000000011001;
	650 :	1111111111100100;
	649 :	1111111111011000;
	648 :	0000000000011110;
	647 :	0000000001000111;
	646 :	0000000000000010;
	645 :	1111111111101001;
	644 :	1111111111111011;
	643 :	1111111111110001;
	642 :	1111111111111000;
	641 :	0000000000000000;
	640 :	1111111111011100;
	639 :	1111111111101000;
	638 :	1111111111011011;
	637 :	0000000000010100;
	636 :	0000000000001110;
	635 :	0000000000001101;
	634 :	1111111111110101;
	633 :	0000000000001110;
	632 :	0000000000000011;
	631 :	1111111111010000;
	630 :	1111111111101000;
	629 :	0000000000011010;
	628 :	0000000000011011;
	627 :	0000000000000101;
	626 :	1111111111001111;
	625 :	0000000000010100;
	624 :	0000000000100001;
	623 :	0000000000000111;
	622 :	1111111111110010;
	621 :	1111111111100001;
	620 :	1111111111111000;
	619 :	0000000000000000;
	618 :	1111111111100111;
	617 :	0000000000010010;
	616 :	0000000000011011;
	615 :	0000000000000111;
	614 :	0000000000000010;
	613 :	1111111111100010;
	612 :	0000000000000100;
	611 :	0000000000000000;
	610 :	0000000000000110;
	609 :	1111111111100001;
	608 :	1111111111011001;
	607 :	1111111111101011;
	606 :	0000000000101110;
	605 :	1111111111001100;
	604 :	0000000000001101;
	603 :	1111111111111010;
	602 :	1111111111001001;
	601 :	1111111111111011;
	600 :	0000000000001100;
	599 :	0000000000011111;
	598 :	0000000000010100;
	597 :	0000000000001011;
	596 :	0000000000101001;
	595 :	0000000000010100;
	594 :	0000000000010111;
	593 :	1111111111101010;
	592 :	0000000000100100;
	591 :	0000000000100010;
	590 :	0000000000101000;
	589 :	1111111111001111;
	588 :	1111111111110100;
	587 :	1111111111111011;
	586 :	0000000000001011;
	585 :	0000000000100100;
	584 :	1111111111111101;
	583 :	0000000000001000;
	582 :	0000000000000110;
	581 :	0000000000011001;
	580 :	1111111111010011;
	579 :	1111111111111100;
	578 :	0000000000010001;
	577 :	1111111111101011;
	576 :	1111111111010001;
	575 :	0000000000100110;
	574 :	1111111111100010;
	573 :	0000000000001110;
	572 :	1111111111111001;
	571 :	0000000000011001;
	570 :	0000000000100101;
	569 :	1111111111101110;
	568 :	0000000000001101;
	567 :	1111111111110011;
	566 :	1111111111101100;
	565 :	0000000000001100;
	564 :	0000000000001011;
	563 :	1111111111000111;
	562 :	1111111111110111;
	561 :	1111111111111110;
	560 :	1111111111000001;
	559 :	1111111111111000;
	558 :	0000000000111110;
	557 :	0000000000010010;
	556 :	0000000000000000;
	555 :	1111111111001110;
	554 :	0000000000011000;
	553 :	1111111111110001;
	552 :	1111111111101100;
	551 :	0000000000111001;
	550 :	1111111111101111;
	549 :	1111111111111100;
	548 :	0000000000011000;
	547 :	1111111111100110;
	546 :	1111111111111101;
	545 :	0000000000111111;
	544 :	0000000000000011;
	543 :	0000000001000010;
	542 :	0000000001000101;
	541 :	1111111111100111;
	540 :	0000000000101101;
	539 :	0000000000110100;
	538 :	0000000000001110;
	537 :	0000000000110101;
	536 :	1111111111111011;
	535 :	1111111111110010;
	534 :	1111111111010111;
	533 :	0000000001001011;
	532 :	0000000000000110;
	531 :	1111111111111111;
	530 :	0000000000000110;
	529 :	1111111111101010;
	528 :	0000000000001100;
	527 :	0000000000001100;
	526 :	1111111111000000;
	525 :	0000000000011011;
	524 :	0000000000001000;
	523 :	1111111111110110;
	522 :	1111111111110011;
	521 :	1111111111100011;
	520 :	1111111111100011;
	519 :	1111111111100110;
	518 :	0000000001000101;
	517 :	0000000000101100;
	516 :	0000000000000110;
	515 :	0000000000110001;
	514 :	0000000000001101;
	513 :	0000000001000010;
	512 :	1111111111100000;
	511 :	0000000000000110;
	510 :	0000000000000101;
	509 :	1111111111010001;
	508 :	0000000000000000;
	507 :	1111111111011011;
	506 :	1111111111111111;
	505 :	1111111111111010;
	504 :	0000000000011110;
	503 :	1111111111100101;
	502 :	0000000000011010;
	501 :	1111111110111001;
	500 :	0000000000011010;
	499 :	0000000000010000;
	498 :	0000000000000010;
	497 :	0000000000000111;
	496 :	1111111110101111;
	495 :	1111111111100000;
	494 :	1111111111001110;
	493 :	1111111111011001;
	492 :	0000000000001000;
	491 :	0000000000001000;
	490 :	1111111111111010;
	489 :	0000000000101110;
	488 :	0000000000000110;
	487 :	0000000000101110;
	486 :	0000000000001100;
	485 :	1111111111110100;
	484 :	1111111111010011;
	483 :	0000000000100100;
	482 :	0000000000000001;
	481 :	0000000000000000;
	480 :	1111111111101011;
	479 :	1111111111110000;
	478 :	1111111111011000;
	477 :	1111111111011110;
	476 :	1111111111010000;
	475 :	0000000000000010;
	474 :	1111111111010110;
	473 :	0000000000100110;
	472 :	0000000000000000;
	471 :	0000000001001011;
	470 :	0000000000011110;
	469 :	0000000000010000;
	468 :	0000000000011011;
	467 :	0000000000000110;
	466 :	1111111111101000;
	465 :	0000000000000100;
	464 :	0000000000101101;
	463 :	1111111111101110;
	462 :	1111111111101101;
	461 :	0000000000110100;
	460 :	0000000000110100;
	459 :	0000000000111001;
	458 :	1111111111111001;
	457 :	1111111111011111;
	456 :	0000000000001011;
	455 :	0000000000011010;
	454 :	1111111111110010;
	453 :	0000000000010100;
	452 :	0000000000000110;
	451 :	0000000000010000;
	450 :	1111111110111010;
	449 :	0000000000011100;
	448 :	1111111111101111;
	447 :	0000000000101000;
	446 :	0000000000010101;
	445 :	1111111111101011;
	444 :	1111111111010100;
	443 :	1111111111110101;
	442 :	0000000000100100;
	441 :	0000000000001001;
	440 :	0000000000000011;
	439 :	0000000000101011;
	438 :	0000000000001001;
	437 :	0000000000000001;
	436 :	1111111111110100;
	435 :	0000000000010001;
	434 :	0000000000110010;
	433 :	1111111111111010;
	432 :	0000000000101010;
	431 :	0000000000001011;
	430 :	0000000000011101;
	429 :	0000000000111111;
	428 :	0000000000100101;
	427 :	1111111111110010;
	426 :	0000000000001101;
	425 :	1111111111010100;
	424 :	1111111111111111;
	423 :	0000000000011100;
	422 :	0000000001010010;
	421 :	1111111111111011;
	420 :	1111111111101000;
	419 :	0000000000010101;
	418 :	1111111111110101;
	417 :	0000000000001011;
	416 :	0000000000111100;
	415 :	0000000000111010;
	414 :	1111111111110111;
	413 :	1111111111110100;
	412 :	1111111111111011;
	411 :	1111111111000100;
	410 :	0000000000000101;
	409 :	0000000000001010;
	408 :	0000000000001110;
	407 :	0000000000010111;
	406 :	0000000000110001;
	405 :	0000000000000101;
	404 :	0000000000000000;
	403 :	1111111111001101;
	402 :	0000000000010011;
	401 :	1111111111111110;
	400 :	0000000000010110;
	399 :	1111111111110010;
	398 :	1111111111111000;
	397 :	1111111110111011;
	396 :	1111111111101110;
	395 :	0000000000100110;
	394 :	1111111111111000;
	393 :	0000000000100100;
	392 :	1111111111111101;
	391 :	1111111111101100;
	390 :	1111111111000101;
	389 :	1111111111100111;
	388 :	0000000000100101;
	387 :	1111111111011110;
	386 :	1111111111011010;
	385 :	0000000000000011;
	384 :	0000000000000101;
	383 :	0000000000010100;
	382 :	1111111111101100;
	381 :	1111111111111110;
	380 :	1111111111111100;
	379 :	1111111111111101;
	378 :	1111111111111100;
	377 :	1111111110110010;
	376 :	0000000001000000;
	375 :	1111111111100110;
	374 :	0000000000010001;
	373 :	1111111111110011;
	372 :	0000000000010000;
	371 :	0000000000011101;
	370 :	0000000000000000;
	369 :	1111111110101110;
	368 :	1111111111101111;
	367 :	1111111111011111;
	366 :	0000000000000011;
	365 :	0000000000110100;
	364 :	0000000000010000;
	363 :	0000000000000000;
	362 :	1111111111111100;
	361 :	1111111111010111;
	360 :	1111111110100000;
	359 :	1111111111101101;
	358 :	0000000000010100;
	357 :	1111111111110101;
	356 :	0000000000010000;
	355 :	1111111111110100;
	354 :	0000000000000000;
	353 :	1111111111110000;
	352 :	0000000000010111;
	351 :	1111111111111110;
	350 :	0000000000000000;
	349 :	0000000000010110;
	348 :	1111111111111101;
	347 :	0000000000000110;
	346 :	0000000000000100;
	345 :	1111111111101000;
	344 :	1111111111001011;
	343 :	1111111110111011;
	342 :	0000000000011000;
	341 :	1111111111100011;
	340 :	1111111111011001;
	339 :	1111111111101010;
	338 :	0000000000010011;
	337 :	1111111111101010;
	336 :	1111111111101000;
	335 :	0000000000001100;
	334 :	0000000000000011;
	333 :	1111111111110110;
	332 :	0000000000101001;
	331 :	0000000000110001;
	330 :	1111111111001011;
	329 :	1111111111110010;
	328 :	0000000000100001;
	327 :	0000000000000110;
	326 :	0000000000100010;
	325 :	1111111111011110;
	324 :	0000000000001101;
	323 :	0000000000000001;
	322 :	1111111111010000;
	321 :	0000000000000101;
	320 :	0000000000111001;
	319 :	0000000000101001;
	318 :	0000000000000100;
	317 :	1111111111010110;
	316 :	1111111111111010;
	315 :	0000000000111111;
	314 :	1111111111110110;
	313 :	1111111111100100;
	312 :	1111111111000000;
	311 :	1111111111110001;
	310 :	0000000000011110;
	309 :	1111111111100010;
	308 :	0000000000100011;
	307 :	1111111111111111;
	306 :	1111111111001110;
	305 :	0000000000011101;
	304 :	0000000000010101;
	303 :	1111111111010111;
	302 :	0000000000011000;
	301 :	0000000000010110;
	300 :	0000000000011001;
	299 :	1111111111111000;
	298 :	0000000000100111;
	297 :	1111111111110000;
	296 :	0000000000000000;
	295 :	1111111111101000;
	294 :	0000000000100000;
	293 :	1111111111110101;
	292 :	1111111111100101;
	291 :	0000000000101000;
	290 :	1111111111010001;
	289 :	0000000001100000;
	288 :	0000000000000100;
	287 :	1111111111111011;
	286 :	0000000000010010;
	285 :	1111111111111010;
	284 :	0000000000010011;
	283 :	1111111111110110;
	282 :	1111111111000101;
	281 :	1111111111110101;
	280 :	0000000000001010;
	279 :	0000000000001110;
	278 :	0000000000010011;
	277 :	1111111111110010;
	276 :	1111111111000001;
	275 :	0000000000011000;
	274 :	1111111111111011;
	273 :	1111111111110111;
	272 :	1111111111010010;
	271 :	1111111111101010;
	270 :	0000000001000100;
	269 :	0000000000111010;
	268 :	1111111111100001;
	267 :	1111111110111111;
	266 :	0000000000011110;
	265 :	0000000000000000;
	264 :	1111111111010001;
	263 :	0000000001001101;
	262 :	1111111111100010;
	261 :	1111111111111100;
	260 :	0000000000101100;
	259 :	0000000000111001;
	258 :	0000000001010000;
	257 :	0000000000001011;
	256 :	0000000000001001;
	255 :	0000000000011011;
	254 :	0000000000000110;
	253 :	1111111111100011;
	252 :	1111111111111000;
	251 :	1111111111111111;
	250 :	1111111111011101;
	249 :	0000000000111100;
	248 :	0000000000010011;
	247 :	0000000000101010;
	246 :	1111111111111110;
	245 :	1111111110011110;
	244 :	0000000000100101;
	243 :	1111111111111110;
	242 :	0000000000010011;
	241 :	1111111111110110;
	240 :	0000000000101100;
	239 :	0000000000010111;
	238 :	0000000000001000;
	237 :	0000000000000110;
	236 :	0000000000001011;
	235 :	1111111111010100;
	234 :	0000000000001011;
	233 :	0000000000110101;
	232 :	0000000000000100;
	231 :	1111111111100100;
	230 :	0000000000000111;
	229 :	1111111111110001;
	228 :	0000000000101110;
	227 :	1111111111110111;
	226 :	0000000001000001;
	225 :	0000000000011011;
	224 :	1111111111100001;
	223 :	1111111111001110;
	222 :	1111111111110010;
	221 :	1111111111110010;
	220 :	1111111111011001;
	219 :	0000000000010100;
	218 :	0000000001000011;
	217 :	0000000000100011;
	216 :	1111111111010001;
	215 :	1111111111111001;
	214 :	0000000000000010;
	213 :	1111111111001011;
	212 :	0000000000010111;
	211 :	1111111111110101;
	210 :	1111111111111111;
	209 :	0000000000001010;
	208 :	0000000000011010;
	207 :	1111111111111000;
	206 :	0000000000000110;
	205 :	0000000000010110;
	204 :	1111111111011001;
	203 :	1111111111101110;
	202 :	0000000000000001;
	201 :	1111111111111100;
	200 :	0000000000010011;
	199 :	1111111111101010;
	198 :	0000000000000111;
	197 :	0000000000001000;
	196 :	1111111110111101;
	195 :	1111111111100010;
	194 :	1111111111010001;
	193 :	0000000000101011;
	192 :	0000000000010001;
	191 :	1111111111011101;
	190 :	0000000000010110;
	189 :	0000000000001100;
	188 :	0000000000100000;
	187 :	0000000000100000;
	186 :	0000000000101111;
	185 :	1111111111100111;
	184 :	1111111111111111;
	183 :	1111111111111011;
	182 :	1111111111010011;
	181 :	1111111111101101;
	180 :	1111111111011101;
	179 :	0000000000010111;
	178 :	1111111111111010;
	177 :	0000000000100110;
	176 :	1111111111100001;
	175 :	0000000000001010;
	174 :	1111111111110011;
	173 :	1111111111001001;
	172 :	0000000000000100;
	171 :	0000000000000011;
	170 :	1111111111100111;
	169 :	1111111111110010;
	168 :	0000000000011100;
	167 :	1111111111100101;
	166 :	0000000000010101;
	165 :	1111111111001100;
	164 :	0000000000011011;
	163 :	0000000000100110;
	162 :	0000000000101100;
	161 :	0000000000100001;
	160 :	0000000000000101;
	159 :	0000000000010000;
	158 :	1111111111001000;
	157 :	1111111111111001;
	156 :	0000000000010100;
	155 :	1111111111110001;
	154 :	1111111111111101;
	153 :	1111111111100100;
	152 :	1111111111110010;
	151 :	1111111111111101;
	150 :	1111111111111011;
	149 :	1111111111101011;
	148 :	0000000000000011;
	147 :	0000000000010110;
	146 :	0000000000010111;
	145 :	0000000000111101;
	144 :	0000000000011101;
	143 :	1111111111011100;
	142 :	0000000000010001;
	141 :	0000000000100100;
	140 :	1111111111101001;
	139 :	1111111111101011;
	138 :	0000000000011010;
	137 :	0000000000011110;
	136 :	0000000000101001;
	135 :	1111111111110110;
	134 :	0000000000001101;
	133 :	0000000000000011;
	132 :	1111111111010001;
	131 :	1111111111111001;
	130 :	1111111111001011;
	129 :	0000000000000110;
	128 :	0000000000011000;
	127 :	0000000000010001;
	126 :	1111111111110101;
	125 :	0000000000101100;
	124 :	0000000000100111;
	123 :	0000000000001010;
	122 :	1111111111001101;
	121 :	0000000000011001;
	120 :	1111111111101101;
	119 :	1111111111110101;
	118 :	1111111111001010;
	117 :	0000000000001001;
	116 :	0000000000010100;
	115 :	0000000000110000;
	114 :	0000000000001011;
	113 :	1111111111101101;
	112 :	0000000000001111;
	111 :	0000000000100000;
	110 :	1111111111110000;
	109 :	0000000000010010;
	108 :	0000000000000011;
	107 :	0000000000010001;
	106 :	0000000000100111;
	105 :	0000000000101010;
	104 :	1111111110111101;
	103 :	0000000000100110;
	102 :	0000000000010101;
	101 :	0000000000101010;
	100 :	0000000000100001;
	99 :	1111111111101101;
	98 :	0000000000000111;
	97 :	1111111111010101;
	96 :	0000000000100101;
	95 :	0000000000010000;
	94 :	1111111111011001;
	93 :	0000000000001010;
	92 :	1111111111001111;
	91 :	1111111111010100;
	90 :	0000000000001100;
	89 :	0000000000001100;
	88 :	0000000000001010;
	87 :	1111111111100011;
	86 :	1111111111010010;
	85 :	1111111111000101;
	84 :	1111111111110101;
	83 :	0000000000001100;
	82 :	0000000000001000;
	81 :	0000000000011101;
	80 :	0000000000001101;
	79 :	0000000000011111;
	78 :	0000000000001100;
	77 :	0000000000000001;
	76 :	0000000000010100;
	75 :	1111111111111010;
	74 :	0000000000110010;
	73 :	0000000000100101;
	72 :	0000000000000101;
	71 :	1111111111111100;
	70 :	1111111111011010;
	69 :	0000000000001001;
	68 :	0000000000011110;
	67 :	1111111110111011;
	66 :	0000000000010110;
	65 :	0000000000010101;
	64 :	0000000000110111;
	63 :	0000000000001010;
	62 :	0000000000001000;
	61 :	0000000000000111;
	60 :	1111111111110001;
	59 :	0000000000011111;
	58 :	0000000000101010;
	57 :	0000000000100001;
	56 :	1111111111110111;
	55 :	1111111110111101;
	54 :	0000000000011111;
	53 :	0000000000110000;
	52 :	1111111111100100;
	51 :	1111111111011010;
	50 :	1111111111111010;
	49 :	1111111111010100;
	48 :	0000000000011000;
	47 :	1111111111110000;
	46 :	1111111111110001;
	45 :	1111111111111101;
	44 :	0000000000011010;
	43 :	0000000000001111;
	42 :	0000000000001010;
	41 :	0000000000111001;
	40 :	0000000000100011;
	39 :	0000000000001001;
	38 :	1111111111010100;
	37 :	0000000000101100;
	36 :	1111111111101010;
	35 :	0000000000011000;
	34 :	1111111110111111;
	33 :	1111111111111110;
	32 :	1111111111111111;
	31 :	1111111111111101;
	30 :	0000000000011111;
	29 :	1111111111010010;
	28 :	1111111111111101;
	27 :	0000000000001111;
	26 :	1111111111100111;
	25 :	1111111111100111;
	24 :	0000000000100100;
	23 :	0000000000101000;
	22 :	0000000000001101;
	21 :	0000000000010011;
	20 :	0000000000010110;
	19 :	1111111111101110;
	18 :	1111111111111110;
	17 :	0000000000111111;
	16 :	1111111111010011;
	15 :	1111111111101011;
	14 :	0000000000010010;
	13 :	0000000000001001;
	12 :	1111111111110110;
	11 :	1111111111101011;
	10 :	1111111111110100;
	9 :	1111111111011011;
	8 :	1111111111010101;
	7 :	1111111111101011;
	6 :	1111111111100010;
	5 :	0000000000100001;
	4 :	1111111110011111;
	3 :	0000000000000010;
	2 :	0000000000111100;
	1 :	1111111111110111;
	0 :	1111111111101010;
END;
