-- begin_signature
-- Weight_Memory(numWeight
-- 30
-- neuronNo
-- 4
-- layerNo
-- 2
-- addressWidth
-- 5
-- dataWidth
-- 16
-- weightFile
-- "w_2_4.mif")
-- end_signature
WIDTH=16;
DEPTH=30;

ADDRESS_RADIX=UNS;
DATA_RADIX=BIN;

CONTENT BEGIN
	29 :	0000000010000110;
	28 :	1111111101111011;
	27 :	0000000000011010;
	26 :	1111111110000100;
	25 :	1111111111101001;
	24 :	1111111111100010;
	23 :	0000000000001001;
	22 :	0000000000101111;
	21 :	0000000001100100;
	20 :	1111111110001000;
	19 :	1111111010010000;
	18 :	0000000001011110;
	17 :	1111111111010001;
	16 :	0000000000000110;
	15 :	1111111100101101;
	14 :	0000000000001100;
	13 :	0000000101111101;
	12 :	1111111100110001;
	11 :	1111111101100101;
	10 :	0000000001111100;
	9 :	1111111110101101;
	8 :	0000000000110111;
	7 :	0000000011011010;
	6 :	1111111111100000;
	5 :	0000000011010010;
	4 :	1111111100111010;
	3 :	0000000001000001;
	2 :	1111111111001011;
	1 :	1111111001101110;
	0 :	1111111100101000;
END;
