-- begin_signature
-- Weight_Memory(numWeight
-- 30
-- neuronNo
-- 29
-- layerNo
-- 2
-- addressWidth
-- 5
-- dataWidth
-- 16
-- weightFile
-- "w_2_29.hex")
-- end_signature
WIDTH=16;
DEPTH=30;

ADDRESS_RADIX=UNS;
DATA_RADIX=BIN;

CONTENT BEGIN
	29 :	0000000000011000;
	28 :	1111110111111100;
	27 :	0000000011010001;
	26 :	0000000010000100;
	25 :	0000000110110101;
	24 :	1111111111001100;
	23 :	1111110010101111;
	22 :	1111110110010110;
	21 :	1111111001111110;
	20 :	0000001110110001;
	19 :	0000000100110000;
	18 :	1111111011111000;
	17 :	1111110101111100;
	16 :	1111011110110100;
	15 :	1111101001001001;
	14 :	1111101000110100;
	13 :	1111111111100010;
	12 :	1111100001011101;
	11 :	1111100001111110;
	10 :	1111111111110100;
	9 :	1111101100111001;
	8 :	1111110010001100;
	7 :	1111110000100000;
	6 :	1111110001010101;
	5 :	1111111001111111;
	4 :	0000000001101000;
	3 :	1111111100000100;
	2 :	1111110100000101;
	1 :	0000001011111101;
	0 :	0000000010001010;
END;
