-- begin_signature
-- Weight_Memory(numWeight
-- 30
-- neuronNo
-- 13
-- layerNo
-- 2
-- addressWidth
-- 5
-- dataWidth
-- 16
-- weightFile
-- "w_2_13.hex")
-- end_signature
WIDTH=16;
DEPTH=30;

ADDRESS_RADIX=UNS;
DATA_RADIX=BIN;

CONTENT BEGIN
	29 :	0000000100001101;
	28 :	1111111011111110;
	27 :	1111111110000001;
	26 :	1111111110111111;
	25 :	0000000000100111;
	24 :	0000000010111000;
	23 :	0000000001001110;
	22 :	1111111101010001;
	21 :	1111111110000010;
	20 :	0000000001000011;
	19 :	0000000001101011;
	18 :	0000000001100010;
	17 :	0000000000010010;
	16 :	0000000000100111;
	15 :	1111111101110001;
	14 :	0000000001001000;
	13 :	0000000011001101;
	12 :	1111111100100001;
	11 :	1111111101111010;
	10 :	1111111110101010;
	9 :	1111111100100000;
	8 :	1111111110110001;
	7 :	1111111111100101;
	6 :	0000000011001010;
	5 :	1111111100101000;
	4 :	1111111101111110;
	3 :	1111111100100101;
	2 :	1111111110001101;
	1 :	1111111111111001;
	0 :	1111111011010001;
END;
