-- begin_signature
-- Weight_Memory(numWeight
-- 30
-- neuronNo
-- 1
-- layerNo
-- 3
-- addressWidth
-- 5
-- dataWidth
-- 16
-- weightFile
-- "w_3_1.mif")
-- end_signature
WIDTH=16;
DEPTH=30;

ADDRESS_RADIX=UNS;
DATA_RADIX=BIN;

CONTENT BEGIN
	29 :	0000000000101011;
	28 :	0000000001000000;
	27 :	0000000100011111;
	26 :	1111111101111101;
	25 :	0000000000011000;
	24 :	1111111110111111;
	23 :	0000000100010010;
	22 :	1111111111100010;
	21 :	1111111111001011;
	20 :	0000000010000101;
	19 :	1111111111100010;
	18 :	1111111110111110;
	17 :	1111111111000011;
	16 :	0000000010101101;
	15 :	1111111111010010;
	14 :	1111111111110010;
	13 :	1111111010011001;
	12 :	1111111101100100;
	11 :	1111111110001111;
	10 :	0000000010000010;
	9 :	0000000010100011;
	8 :	1111111111110111;
	7 :	1111111111101110;
	6 :	1111111011111011;
	5 :	0000000001101110;
	4 :	0000000001101100;
	3 :	1111111101111010;
	2 :	1111111100000110;
	1 :	1111111110010000;
	0 :	1111111110100000;
END;
