-- begin_signature
-- Weight_Memory(numWeight
-- 30
-- neuronNo
-- 16
-- layerNo
-- 2
-- addressWidth
-- 5
-- dataWidth
-- 16
-- weightFile
-- "w_2_16.mif")
-- end_signature
WIDTH=16;
DEPTH=30;

ADDRESS_RADIX=UNS;
DATA_RADIX=BIN;

CONTENT BEGIN
	29 :	0000000001001000;
	28 :	1111111101101001;
	27 :	0000000000101101;
	26 :	1111111111110101;
	25 :	0000000101001011;
	24 :	1111101100110110;
	23 :	0000001010100000;
	22 :	1111110011111111;
	21 :	1111110001001001;
	20 :	1111111100010100;
	19 :	0000000001010001;
	18 :	1111101010110101;
	17 :	1111110110001101;
	16 :	1111110011010000;
	15 :	1111111101101101;
	14 :	0000001001110101;
	13 :	1111111111100111;
	12 :	0000001000110111;
	11 :	1111111101110101;
	10 :	0000000000010010;
	9 :	0000010101101111;
	8 :	1111111001011001;
	7 :	1111111111001000;
	6 :	1111101111111101;
	5 :	1111110100001000;
	4 :	1111111101110111;
	3 :	1111111110100011;
	2 :	0000000011110111;
	1 :	0000000010101001;
	0 :	0000000010110011;
END;
