-- begin_signature
-- Weight_Memory(numWeight
-- 30
-- neuronNo
-- 10
-- layerNo
-- 2
-- addressWidth
-- 5
-- dataWidth
-- 16
-- weightFile
-- "w_2_10.hex")
-- end_signature
WIDTH=16;
DEPTH=30;

ADDRESS_RADIX=UNS;
DATA_RADIX=BIN;

CONTENT BEGIN
	29 :	0000000001010010;
	28 :	0000000100011010;
	27 :	1111111011010111;
	26 :	1111100010011000;
	25 :	1111100001100001;
	24 :	1111010010111010;
	23 :	0000000101101101;
	22 :	1111110000101011;
	21 :	1111110101011010;
	20 :	1111011101010001;
	19 :	0000000011111101;
	18 :	1111101110101110;
	17 :	1111111111100100;
	16 :	1111110110010101;
	15 :	1111110111010000;
	14 :	1111111000100111;
	13 :	1111111110011111;
	12 :	1111101001100111;
	11 :	0000010101110101;
	10 :	0000000000111110;
	9 :	1111100110010001;
	8 :	1111100001111011;
	7 :	1111010110111111;
	6 :	1111101100010010;
	5 :	1111001110000110;
	4 :	0000000000011111;
	3 :	0000000101010100;
	2 :	1111111001111001;
	1 :	1111010011000010;
	0 :	0000000001011010;
END;
