-- begin_signature
-- Weight_Memory(numWeight
-- 30
-- neuronNo
-- 24
-- layerNo
-- 2
-- addressWidth
-- 5
-- dataWidth
-- 16
-- weightFile
-- "w_2_24.hex")
-- end_signature
WIDTH=16;
DEPTH=30;

ADDRESS_RADIX=UNS;
DATA_RADIX=BIN;

CONTENT BEGIN
	29 :	1111111111111010;
	28 :	0000010111010000;
	27 :	0000000000001110;
	26 :	0000000100010011;
	25 :	0000000100111010;
	24 :	1111111011110010;
	23 :	0000000011110011;
	22 :	0000001010000011;
	21 :	0000001110000111;
	20 :	0000001001001010;
	19 :	1111111110011000;
	18 :	0000001100010011;
	17 :	1111111011011000;
	16 :	0000000100011001;
	15 :	0000001000101000;
	14 :	1111111110010100;
	13 :	0000000001100111;
	12 :	0000001000000100;
	11 :	0000000000110011;
	10 :	1111111101100101;
	9 :	0000000111101000;
	8 :	1111111100111100;
	7 :	1111111111101111;
	6 :	0000001110001001;
	5 :	1111111010000000;
	4 :	1111111100011000;
	3 :	1111111101010011;
	2 :	0000100000011111;
	1 :	0000001011001001;
	0 :	1111111110110011;
END;
