-- begin_signature
-- Weight_Memory(numWeight
-- 30
-- neuronNo
-- 14
-- layerNo
-- 2
-- addressWidth
-- 5
-- dataWidth
-- 16
-- weightFile
-- "w_2_14.hex")
-- end_signature
WIDTH=16;
DEPTH=30;

ADDRESS_RADIX=UNS;
DATA_RADIX=BIN;

CONTENT BEGIN
	29 :	0000000001010011;
	28 :	0000000100011001;
	27 :	1111111100001000;
	26 :	1111111001110000;
	25 :	1111110001011111;
	24 :	1111110011001111;
	23 :	0000000111011111;
	22 :	0000001100010100;
	21 :	1111111011001011;
	20 :	0000001001100111;
	19 :	1111110111101010;
	18 :	1111111100010110;
	17 :	1111111101011101;
	16 :	1111111100110101;
	15 :	0000000100110011;
	14 :	0000010110100101;
	13 :	1111111111111101;
	12 :	0000010100000000;
	11 :	0000000101001000;
	10 :	1111111110011000;
	9 :	1111111011111010;
	8 :	1111111100100100;
	7 :	1111111001010000;
	6 :	0000001001101101;
	5 :	1111111010101101;
	4 :	1111111101100100;
	3 :	1111111011110111;
	2 :	0000000101011000;
	1 :	1111110000000011;
	0 :	1111111101100010;
END;
