-- begin_signature
-- Weight_Memory(numWeight
-- 784
-- neuronNo
-- 13
-- layerNo
-- 1
-- addressWidth
-- 10
-- dataWidth
-- 16
-- weightFile
-- "w_1_13.mif")
-- end_signature
WIDTH=16;
DEPTH=784;

ADDRESS_RADIX=UNS;
DATA_RADIX=BIN;

CONTENT BEGIN
	783 :	1111111111111101;
	782 :	1111111111111110;
	781 :	0000000000010001;
	780 :	0000000000000000;
	779 :	1111111111110111;
	778 :	0000000001001111;
	777 :	1111111111110110;
	776 :	1111111111011100;
	775 :	0000000000001010;
	774 :	0000000000000100;
	773 :	0000000000010100;
	772 :	1111111111110100;
	771 :	1111111111110101;
	770 :	1111111111101111;
	769 :	1111111111101001;
	768 :	0000000000001110;
	767 :	0000000000010010;
	766 :	1111111111101000;
	765 :	0000000000011010;
	764 :	1111111111100011;
	763 :	0000000000000000;
	762 :	0000000000010010;
	761 :	1111111111001010;
	760 :	1111111111100101;
	759 :	1111111110110100;
	758 :	1111111111110101;
	757 :	0000000000101111;
	756 :	0000000000010101;
	755 :	1111111111101010;
	754 :	0000000000010101;
	753 :	0000000000111110;
	752 :	0000000000011101;
	751 :	1111111111011111;
	750 :	1111111111101111;
	749 :	1111111111111111;
	748 :	1111111111111111;
	747 :	0000000000000011;
	746 :	1111111111100110;
	745 :	0000000000010011;
	744 :	1111111111101111;
	743 :	0000000000011110;
	742 :	1111111111011100;
	741 :	1111111111101101;
	740 :	1111111111101001;
	739 :	1111111111111000;
	738 :	0000000000000001;
	737 :	0000000000000111;
	736 :	0000000000010001;
	735 :	0000000000011001;
	734 :	1111111111010000;
	733 :	1111111111011110;
	732 :	1111111110010001;
	731 :	1111111111101010;
	730 :	0000000000001110;
	729 :	1111111111100001;
	728 :	0000000000101010;
	727 :	1111111111111001;
	726 :	0000000000010000;
	725 :	0000000000001111;
	724 :	1111111111011010;
	723 :	0000000000101100;
	722 :	0000000000010010;
	721 :	0000000000011100;
	720 :	1111111111110001;
	719 :	0000000000110100;
	718 :	0000000000101000;
	717 :	1111111111101110;
	716 :	1111111111111110;
	715 :	0000000001000010;
	714 :	0000000000101110;
	713 :	1111111111011111;
	712 :	1111111111110011;
	711 :	0000000000011100;
	710 :	0000000000011010;
	709 :	0000000000000101;
	708 :	1111111111100110;
	707 :	1111111111101011;
	706 :	0000000000000000;
	705 :	0000000000000010;
	704 :	1111111111111011;
	703 :	1111111111111111;
	702 :	0000000000000111;
	701 :	1111111111111101;
	700 :	1111111111101100;
	699 :	0000000000011111;
	698 :	0000000000101010;
	697 :	1111111111110010;
	696 :	0000000000100101;
	695 :	0000000000111000;
	694 :	1111111111110000;
	693 :	0000000000001000;
	692 :	0000000000000101;
	691 :	1111111111101101;
	690 :	1111111111101111;
	689 :	0000000001001010;
	688 :	1111111111100001;
	687 :	0000000000100110;
	686 :	0000000000010111;
	685 :	1111111111111100;
	684 :	1111111111001011;
	683 :	1111111111001000;
	682 :	1111111111111011;
	681 :	1111111111101101;
	680 :	1111111111011100;
	679 :	1111111111101001;
	678 :	1111111111011110;
	677 :	0000000000101110;
	676 :	1111111111011110;
	675 :	0000000000100110;
	674 :	1111111111101000;
	673 :	1111111111100001;
	672 :	1111111111111010;
	671 :	1111111111110110;
	670 :	0000000000010100;
	669 :	1111111111100010;
	668 :	0000000000001010;
	667 :	1111111111010001;
	666 :	0000000000001100;
	665 :	1111111111110000;
	664 :	0000000000000010;
	663 :	1111111111011110;
	662 :	0000000000000100;
	661 :	1111111111111100;
	660 :	0000000000001001;
	659 :	1111111111111111;
	658 :	1111111111100111;
	657 :	0000000000101011;
	656 :	0000000000100011;
	655 :	0000000000100111;
	654 :	0000000000000010;
	653 :	1111111111100001;
	652 :	1111111111111011;
	651 :	1111111111111010;
	650 :	1111111111001101;
	649 :	0000000000010100;
	648 :	0000000000110010;
	647 :	0000000000111100;
	646 :	1111111111101011;
	645 :	1111111111000110;
	644 :	1111111111101110;
	643 :	0000000000110000;
	642 :	1111111111110000;
	641 :	1111111111101010;
	640 :	0000000000000100;
	639 :	0000000000011100;
	638 :	1111111110111110;
	637 :	1111111111101100;
	636 :	0000000000001000;
	635 :	0000000000010110;
	634 :	0000000000101011;
	633 :	0000000000010000;
	632 :	0000000000001011;
	631 :	0000000000010110;
	630 :	0000000000010100;
	629 :	0000000000000000;
	628 :	1111111111101111;
	627 :	1111111111111100;
	626 :	0000000000100001;
	625 :	1111111111110001;
	624 :	0000000000000001;
	623 :	1111111111110110;
	622 :	1111111111100000;
	621 :	0000000000011100;
	620 :	0000000000110011;
	619 :	0000000000100100;
	618 :	1111111111011111;
	617 :	0000000000011101;
	616 :	1111111111101100;
	615 :	1111111111100010;
	614 :	1111111111011111;
	613 :	1111111111110101;
	612 :	1111111111110011;
	611 :	1111111111110110;
	610 :	1111111111111111;
	609 :	0000000000001110;
	608 :	1111111110111011;
	607 :	0000000000011111;
	606 :	1111111111100110;
	605 :	0000000000011111;
	604 :	1111111111110100;
	603 :	0000000000010100;
	602 :	0000000000000011;
	601 :	1111111111010011;
	600 :	0000000000001101;
	599 :	1111111111001011;
	598 :	0000000000000100;
	597 :	1111111111101001;
	596 :	1111111111110100;
	595 :	0000000000000100;
	594 :	0000000000110001;
	593 :	0000000000010010;
	592 :	1111111111100000;
	591 :	1111111110110101;
	590 :	1111111111111001;
	589 :	0000000000101001;
	588 :	1111111111100111;
	587 :	1111111111011000;
	586 :	0000000000001110;
	585 :	0000000000000011;
	584 :	1111111111100110;
	583 :	1111111111001011;
	582 :	0000000000011010;
	581 :	0000000000000000;
	580 :	0000000000011011;
	579 :	0000000000001011;
	578 :	0000000000101001;
	577 :	1111111111110001;
	576 :	0000000000111000;
	575 :	0000000000000101;
	574 :	0000000000001010;
	573 :	1111111111100110;
	572 :	0000000000110111;
	571 :	1111111111100100;
	570 :	1111111111110001;
	569 :	1111111111011011;
	568 :	0000000000000010;
	567 :	1111111111111001;
	566 :	1111111111111011;
	565 :	1111111111111011;
	564 :	0000000000000001;
	563 :	1111111111100101;
	562 :	0000000000010000;
	561 :	0000000000011000;
	560 :	0000000000000010;
	559 :	1111111111010111;
	558 :	1111111111010111;
	557 :	0000000000011011;
	556 :	0000000001001111;
	555 :	0000000000001110;
	554 :	1111111111101111;
	553 :	0000000000001010;
	552 :	1111111111111010;
	551 :	1111111111110010;
	550 :	0000000000010010;
	549 :	0000000000110000;
	548 :	1111111111001000;
	547 :	1111111111111011;
	546 :	0000000000100001;
	545 :	0000000000000010;
	544 :	1111111111101011;
	543 :	1111111111101001;
	542 :	0000000000001011;
	541 :	0000000000100010;
	540 :	1111111111101101;
	539 :	1111111111000011;
	538 :	0000000000000000;
	537 :	1111111111111100;
	536 :	0000000000101110;
	535 :	1111111111101101;
	534 :	0000000000110000;
	533 :	1111111111100100;
	532 :	0000000000101100;
	531 :	0000000000100000;
	530 :	0000000000110010;
	529 :	1111111111100101;
	528 :	0000000000111100;
	527 :	0000000000100011;
	526 :	1111111111101101;
	525 :	0000000000000110;
	524 :	0000000000100100;
	523 :	0000000000000010;
	522 :	0000000000011001;
	521 :	0000000000001100;
	520 :	0000000000000010;
	519 :	1111111111001101;
	518 :	1111111111110010;
	517 :	1111111111100101;
	516 :	0000000000011011;
	515 :	1111111111110000;
	514 :	0000000001001100;
	513 :	0000000000001010;
	512 :	0000000000000101;
	511 :	0000000000000001;
	510 :	1111111111000100;
	509 :	1111111111111110;
	508 :	0000000000010000;
	507 :	0000000000001000;
	506 :	0000000000101010;
	505 :	1111111111101111;
	504 :	0000000000000011;
	503 :	1111111111010100;
	502 :	0000000000010001;
	501 :	1111111111111000;
	500 :	0000000000000011;
	499 :	1111111111100100;
	498 :	1111111111001111;
	497 :	0000000000100001;
	496 :	1111111111100011;
	495 :	0000000000000110;
	494 :	1111111111101111;
	493 :	1111111111011110;
	492 :	0000000000000000;
	491 :	1111111110111001;
	490 :	1111111111100111;
	489 :	1111111111100000;
	488 :	1111111111010111;
	487 :	0000000000000011;
	486 :	0000000000110010;
	485 :	0000000000001101;
	484 :	1111111111101101;
	483 :	0000000000001111;
	482 :	1111111111010101;
	481 :	1111111111100100;
	480 :	0000000000010011;
	479 :	0000000000110011;
	478 :	1111111111000100;
	477 :	1111111111011110;
	476 :	1111111111110000;
	475 :	1111111111111001;
	474 :	0000000000000010;
	473 :	0000000000001110;
	472 :	1111111111011110;
	471 :	0000000000001011;
	470 :	0000000000101100;
	469 :	1111111111111010;
	468 :	1111111111001110;
	467 :	0000000000110000;
	466 :	0000000000100000;
	465 :	1111111111111101;
	464 :	1111111111110001;
	463 :	0000000000011110;
	462 :	0000000000011001;
	461 :	0000000000010010;
	460 :	1111111111000111;
	459 :	1111111111101101;
	458 :	1111111110110110;
	457 :	1111111111000011;
	456 :	1111111111000111;
	455 :	0000000000101111;
	454 :	0000000000000111;
	453 :	1111111111110011;
	452 :	1111111111111100;
	451 :	0000000000101101;
	450 :	0000000000100110;
	449 :	0000000000001001;
	448 :	0000000000010101;
	447 :	1111111111110111;
	446 :	0000000001101001;
	445 :	1111111111111001;
	444 :	0000000000001010;
	443 :	1111111111101110;
	442 :	0000000000100010;
	441 :	0000000000010111;
	440 :	0000000000000000;
	439 :	1111111111000110;
	438 :	0000000000000000;
	437 :	0000000000001000;
	436 :	1111111111001000;
	435 :	0000000000011000;
	434 :	1111111111110011;
	433 :	1111111111101101;
	432 :	1111111111101111;
	431 :	1111111111111000;
	430 :	0000000000100000;
	429 :	0000000000101100;
	428 :	0000000000111011;
	427 :	0000000000100001;
	426 :	0000000000001001;
	425 :	1111111111100010;
	424 :	1111111111101111;
	423 :	0000000000000000;
	422 :	1111111111101001;
	421 :	0000000000100001;
	420 :	1111111111110100;
	419 :	1111111111100111;
	418 :	1111111111100000;
	417 :	1111111111111101;
	416 :	0000000000000000;
	415 :	1111111111110111;
	414 :	1111111111111010;
	413 :	1111111111100101;
	412 :	1111111111111101;
	411 :	0000000000011000;
	410 :	1111111111111000;
	409 :	1111111111111000;
	408 :	0000000000001001;
	407 :	1111111111111000;
	406 :	1111111111101011;
	405 :	1111111111111001;
	404 :	1111111111101110;
	403 :	1111111111101000;
	402 :	1111111111001110;
	401 :	1111111111111000;
	400 :	0000000000011111;
	399 :	0000000000011001;
	398 :	0000000000000100;
	397 :	1111111111111100;
	396 :	1111111111010100;
	395 :	0000000000010101;
	394 :	1111111111111100;
	393 :	1111111111011011;
	392 :	1111111111110000;
	391 :	0000000000101000;
	390 :	0000000000001000;
	389 :	1111111111110110;
	388 :	0000000000000000;
	387 :	0000000000100000;
	386 :	0000000000010101;
	385 :	0000000000000011;
	384 :	0000000000011111;
	383 :	0000000000101010;
	382 :	0000000000100110;
	381 :	0000000000001001;
	380 :	0000000000001101;
	379 :	1111111111100101;
	378 :	0000000000001001;
	377 :	0000000000100001;
	376 :	0000000000001010;
	375 :	0000000000100110;
	374 :	0000000000001111;
	373 :	1111111111110011;
	372 :	1111111111101111;
	371 :	0000000000001000;
	370 :	0000000000001101;
	369 :	0000000000100000;
	368 :	1111111111110000;
	367 :	0000000000000001;
	366 :	1111111111010110;
	365 :	1111111111111111;
	364 :	0000000000011100;
	363 :	1111111111100010;
	362 :	0000000000001100;
	361 :	0000000000001100;
	360 :	1111111111111111;
	359 :	1111111111111111;
	358 :	1111111111001010;
	357 :	1111111111110001;
	356 :	1111111111011110;
	355 :	1111111111101101;
	354 :	0000000000101101;
	353 :	1111111111101000;
	352 :	0000000001010001;
	351 :	0000000001010011;
	350 :	0000000000010110;
	349 :	1111111111110101;
	348 :	1111111111101001;
	347 :	0000000000100100;
	346 :	1111111111100011;
	345 :	0000000000010101;
	344 :	1111111111100000;
	343 :	1111111111110011;
	342 :	1111111111111000;
	341 :	1111111111110011;
	340 :	0000000000000001;
	339 :	1111111111110101;
	338 :	0000000000011111;
	337 :	0000000000001110;
	336 :	0000000000010100;
	335 :	0000000000001010;
	334 :	1111111111100000;
	333 :	0000000000000110;
	332 :	0000000000100110;
	331 :	1111111111110000;
	330 :	0000000000001101;
	329 :	1111111111110010;
	328 :	1111111111110001;
	327 :	0000000000001001;
	326 :	1111111111110100;
	325 :	1111111111110000;
	324 :	1111111111110110;
	323 :	1111111111110000;
	322 :	0000000000000011;
	321 :	0000000000000110;
	320 :	1111111111101110;
	319 :	0000000000000000;
	318 :	0000000000001000;
	317 :	1111111111100010;
	316 :	1111111111101011;
	315 :	0000000001010101;
	314 :	0000000000100100;
	313 :	0000000000101001;
	312 :	0000000000000101;
	311 :	1111111111100011;
	310 :	0000000000110010;
	309 :	0000000000101000;
	308 :	1111111111000100;
	307 :	0000000000111110;
	306 :	0000000000001101;
	305 :	1111111111010011;
	304 :	0000000000100111;
	303 :	1111111111000000;
	302 :	0000000000011010;
	301 :	1111111111011100;
	300 :	0000000000010011;
	299 :	1111111111101111;
	298 :	0000000000010111;
	297 :	1111111111111111;
	296 :	0000000000101110;
	295 :	1111111110111001;
	294 :	0000000000011000;
	293 :	1111111111101101;
	292 :	0000000000001111;
	291 :	1111111111011001;
	290 :	0000000000111101;
	289 :	1111111111100111;
	288 :	1111111111111100;
	287 :	1111111111110011;
	286 :	1111111111110111;
	285 :	0000000001010101;
	284 :	0000000000001010;
	283 :	1111111111110010;
	282 :	1111111111101011;
	281 :	1111111111110010;
	280 :	0000000000010100;
	279 :	1111111111100101;
	278 :	1111111111011101;
	277 :	0000000000011011;
	276 :	1111111111100101;
	275 :	0000000000001000;
	274 :	1111111111111100;
	273 :	0000000000111010;
	272 :	0000000000000011;
	271 :	0000000000011011;
	270 :	1111111111111001;
	269 :	0000000000011101;
	268 :	1111111111010110;
	267 :	1111111111100101;
	266 :	0000000000001001;
	265 :	0000000000000000;
	264 :	1111111111110110;
	263 :	0000000000100001;
	262 :	0000000000000000;
	261 :	1111111111100001;
	260 :	1111111111100101;
	259 :	1111111111110111;
	258 :	1111111111001111;
	257 :	0000000000010011;
	256 :	0000000000010100;
	255 :	0000000000000111;
	254 :	0000000000000100;
	253 :	0000000000110100;
	252 :	1111111111101000;
	251 :	1111111111011001;
	250 :	1111111111100111;
	249 :	0000000000000011;
	248 :	1111111111111001;
	247 :	0000000000000001;
	246 :	1111111111110001;
	245 :	0000000000001100;
	244 :	0000000000001111;
	243 :	1111111111101111;
	242 :	0000000000110001;
	241 :	0000000000000001;
	240 :	0000000000000110;
	239 :	0000000000001110;
	238 :	0000000000010000;
	237 :	0000000000011001;
	236 :	1111111111011100;
	235 :	0000000000001101;
	234 :	1111111111111101;
	233 :	0000000000010000;
	232 :	1111111111101100;
	231 :	1111111111010000;
	230 :	1111111111011101;
	229 :	1111111111100011;
	228 :	0000000000110011;
	227 :	1111111111110111;
	226 :	1111111111111011;
	225 :	1111111111011100;
	224 :	0000000000001001;
	223 :	1111111111110110;
	222 :	1111111111001000;
	221 :	1111111111110001;
	220 :	0000000000000000;
	219 :	1111111111100110;
	218 :	0000000000011101;
	217 :	0000000001000010;
	216 :	1111111111111010;
	215 :	1111111111001011;
	214 :	1111111110110000;
	213 :	0000000000011111;
	212 :	0000000000001001;
	211 :	1111111111101010;
	210 :	0000000001011000;
	209 :	0000000000011010;
	208 :	0000000000111110;
	207 :	1111111111011110;
	206 :	1111111111111101;
	205 :	0000000000000110;
	204 :	1111111111110101;
	203 :	0000000000000000;
	202 :	1111111111001101;
	201 :	1111111111111100;
	200 :	0000000000001101;
	199 :	0000000000101001;
	198 :	0000000000000000;
	197 :	0000000000111100;
	196 :	0000000000001110;
	195 :	0000000000000101;
	194 :	0000000000110001;
	193 :	0000000000010000;
	192 :	0000000000000011;
	191 :	1111111111101011;
	190 :	0000000000000000;
	189 :	1111111111011111;
	188 :	0000000000010110;
	187 :	0000000000001000;
	186 :	1111111111110111;
	185 :	1111111111100000;
	184 :	0000000000010111;
	183 :	0000000000011110;
	182 :	1111111111111100;
	181 :	0000000000101000;
	180 :	0000000000010101;
	179 :	0000000000100100;
	178 :	1111111111001101;
	177 :	1111111111101011;
	176 :	1111111111010001;
	175 :	1111111111011111;
	174 :	1111111111001110;
	173 :	1111111111110101;
	172 :	0000000000011110;
	171 :	0000000000010000;
	170 :	1111111111111000;
	169 :	1111111111101100;
	168 :	0000000000011000;
	167 :	1111111111111111;
	166 :	0000000000010010;
	165 :	1111111111001001;
	164 :	1111111111100100;
	163 :	1111111111011001;
	162 :	1111111111100110;
	161 :	1111111111100010;
	160 :	1111111111111110;
	159 :	1111111111100111;
	158 :	1111111111111100;
	157 :	1111111111110010;
	156 :	0000000000010001;
	155 :	1111111111111011;
	154 :	1111111111101011;
	153 :	0000000000101101;
	152 :	1111111111001111;
	151 :	0000000000000100;
	150 :	0000000000011010;
	149 :	1111111111111001;
	148 :	0000000000001010;
	147 :	0000000000010101;
	146 :	0000000000001100;
	145 :	0000000000010110;
	144 :	1111111111111010;
	143 :	0000000000110000;
	142 :	1111111111001010;
	141 :	1111111111010011;
	140 :	1111111111111100;
	139 :	1111111111111000;
	138 :	0000000000000110;
	137 :	1111111111011010;
	136 :	0000000000101110;
	135 :	1111111111110110;
	134 :	1111111111110111;
	133 :	0000000001000110;
	132 :	1111111111101001;
	131 :	0000000000000110;
	130 :	1111111111110001;
	129 :	1111111111000011;
	128 :	0000000000010110;
	127 :	1111111111001010;
	126 :	0000000000000000;
	125 :	1111111111101001;
	124 :	0000000000010000;
	123 :	0000000000111100;
	122 :	0000000001001010;
	121 :	0000000000000101;
	120 :	0000000000010000;
	119 :	0000000000111100;
	118 :	1111111110111110;
	117 :	1111111111010100;
	116 :	1111111111001111;
	115 :	0000000000011010;
	114 :	0000000000001001;
	113 :	0000000000011000;
	112 :	1111111111110101;
	111 :	1111111111010011;
	110 :	1111111111111111;
	109 :	1111111111110000;
	108 :	0000000000000001;
	107 :	0000000000011010;
	106 :	0000000000000101;
	105 :	0000000000010010;
	104 :	0000000000000100;
	103 :	0000000000001111;
	102 :	0000000000000000;
	101 :	0000000000010000;
	100 :	1111111111110110;
	99 :	0000000000100101;
	98 :	1111111111101111;
	97 :	1111111111110110;
	96 :	1111111111011001;
	95 :	1111111111111101;
	94 :	1111111111011101;
	93 :	0000000000000101;
	92 :	1111111111111111;
	91 :	0000000001000000;
	90 :	0000000000010001;
	89 :	1111111111101101;
	88 :	0000000000010100;
	87 :	0000000000000010;
	86 :	0000000000101110;
	85 :	1111111111110101;
	84 :	1111111111111100;
	83 :	1111111111111111;
	82 :	1111111111110001;
	81 :	0000000000000111;
	80 :	1111111111110011;
	79 :	0000000000000100;
	78 :	1111111111101010;
	77 :	0000000000010011;
	76 :	0000000000010010;
	75 :	0000000000110111;
	74 :	0000000000100101;
	73 :	0000000000100101;
	72 :	1111111111110110;
	71 :	0000000000000100;
	70 :	1111111111110110;
	69 :	1111111111101010;
	68 :	0000000000101101;
	67 :	0000000000010011;
	66 :	0000000000101011;
	65 :	0000000000001001;
	64 :	1111111111110111;
	63 :	0000000000100100;
	62 :	0000000001011011;
	61 :	1111111111111110;
	60 :	0000000000001001;
	59 :	1111111110101001;
	58 :	1111111111110001;
	57 :	1111111111001011;
	56 :	0000000000110111;
	55 :	0000000000010011;
	54 :	1111111111001010;
	53 :	1111111111110111;
	52 :	1111111111000001;
	51 :	1111111111111101;
	50 :	0000000000010000;
	49 :	1111111111110101;
	48 :	1111111111100111;
	47 :	0000000000100010;
	46 :	0000000000000101;
	45 :	1111111111110101;
	44 :	1111111111101110;
	43 :	0000000000111011;
	42 :	1111111111101110;
	41 :	1111111111010110;
	40 :	1111111111110010;
	39 :	0000000000001100;
	38 :	1111111111010100;
	37 :	0000000000010001;
	36 :	1111111111110101;
	35 :	1111111111110101;
	34 :	1111111111101011;
	33 :	0000000000110000;
	32 :	1111111111110000;
	31 :	0000000001010111;
	30 :	0000000000000111;
	29 :	0000000000000100;
	28 :	1111111111111001;
	27 :	1111111111000110;
	26 :	0000000000100000;
	25 :	0000000000010101;
	24 :	0000000000000110;
	23 :	1111111111101000;
	22 :	0000000000101110;
	21 :	0000000000110100;
	20 :	1111111111111010;
	19 :	0000000000111011;
	18 :	1111111111110001;
	17 :	1111111111110100;
	16 :	0000000000001101;
	15 :	1111111111110011;
	14 :	0000000000000000;
	13 :	1111111111010100;
	12 :	0000000000111000;
	11 :	0000000000000001;
	10 :	0000000000010100;
	9 :	0000000000000001;
	8 :	1111111111101110;
	7 :	1111111111110000;
	6 :	0000000000011101;
	5 :	1111111111100011;
	4 :	0000000000001010;
	3 :	1111111111110011;
	2 :	1111111111011001;
	1 :	0000000000000010;
	0 :	0000000000000000;
END;
