-- begin_signature
-- Weight_Memory(numWeight
-- 784
-- neuronNo
-- 14
-- layerNo
-- 1
-- addressWidth
-- 10
-- dataWidth
-- 16
-- weightFile
-- "w_1_14.mif")
-- end_signature
WIDTH=16;
DEPTH=784;

ADDRESS_RADIX=UNS;
DATA_RADIX=BIN;

CONTENT BEGIN
	783 :	1111111111101100;
	782 :	0000000000001001;
	781 :	0000000000000001;
	780 :	0000000000111100;
	779 :	0000000000011110;
	778 :	1111111111111000;
	777 :	0000000000011010;
	776 :	1111111111100110;
	775 :	1111111111111111;
	774 :	1111111111101110;
	773 :	0000000000011101;
	772 :	1111111111001101;
	771 :	0000000000010110;
	770 :	0000000000010100;
	769 :	0000000000101010;
	768 :	1111111111110111;
	767 :	0000000000010100;
	766 :	1111111111100100;
	765 :	1111111111110001;
	764 :	0000000000101011;
	763 :	1111111111100000;
	762 :	0000000000110010;
	761 :	1111111111111100;
	760 :	0000000000001101;
	759 :	1111111111100100;
	758 :	1111111111110110;
	757 :	0000000000011110;
	756 :	0000000000011001;
	755 :	0000000000000010;
	754 :	0000000000001010;
	753 :	1111111111011000;
	752 :	1111111111110001;
	751 :	1111111110111110;
	750 :	0000000000010111;
	749 :	0000000001000101;
	748 :	1111111111110110;
	747 :	0000000000000010;
	746 :	0000000000001001;
	745 :	0000000000110110;
	744 :	0000000011101010;
	743 :	1111111110101011;
	742 :	1111111010010000;
	741 :	1111111111011000;
	740 :	1111111111000100;
	739 :	1111111110100101;
	738 :	1111111110011001;
	737 :	1111111110010000;
	736 :	1111111110100011;
	735 :	1111111111010011;
	734 :	1111111111001000;
	733 :	0000000000001000;
	732 :	1111111110111101;
	731 :	1111111111011001;
	730 :	1111111111010010;
	729 :	1111111111110010;
	728 :	1111111111101001;
	727 :	1111111111101000;
	726 :	1111111111111000;
	725 :	1111111111001010;
	724 :	0000000011100001;
	723 :	0000000011110110;
	722 :	0000000011101001;
	721 :	0000000001110011;
	720 :	0000000000100001;
	719 :	0000000001011011;
	718 :	0000000011011101;
	717 :	0000000101001101;
	716 :	0000000101000100;
	715 :	1111111110110001;
	714 :	1111111000001110;
	713 :	0000000000101110;
	712 :	0000000010011110;
	711 :	1111111001100011;
	710 :	1111111100010011;
	709 :	0000000011001001;
	708 :	0000000001111011;
	707 :	1111111111110111;
	706 :	1111111011101100;
	705 :	1111111100010100;
	704 :	1111111110101010;
	703 :	0000000000000111;
	702 :	1111111110101101;
	701 :	1111111111101011;
	700 :	1111111111100010;
	699 :	1111111111110110;
	698 :	1111111111111101;
	697 :	0000000000000100;
	696 :	0000000011100111;
	695 :	0000000101111111;
	694 :	0000000001110011;
	693 :	0000000000011101;
	692 :	0000000001111100;
	691 :	1111111110111110;
	690 :	0000000110010110;
	689 :	1111111110110010;
	688 :	1111111110010011;
	687 :	1111111111100110;
	686 :	0000000100110100;
	685 :	0000000100011011;
	684 :	0000000101110100;
	683 :	1111111110101110;
	682 :	1111111111100011;
	681 :	0000000101101011;
	680 :	0000000000011101;
	679 :	1111111110110100;
	678 :	1111111011111111;
	677 :	1111111001110001;
	676 :	1111111010001111;
	675 :	1111111111001100;
	674 :	0000000000010110;
	673 :	0000000001010010;
	672 :	0000000000001011;
	671 :	1111111111101101;
	670 :	1111111111011110;
	669 :	0000000000001001;
	668 :	0000000100001110;
	667 :	0000000110111001;
	666 :	0000000100010101;
	665 :	0000000000000110;
	664 :	0000000101100000;
	663 :	1111111111001111;
	662 :	1111111101001110;
	661 :	1111110110110101;
	660 :	0000000010010111;
	659 :	0000000100001011;
	658 :	0000000100011101;
	657 :	1111111001011111;
	656 :	1111111110111000;
	655 :	1111111001101110;
	654 :	0000001001101110;
	653 :	0000000110000101;
	652 :	0000000010010001;
	651 :	1111110101110110;
	650 :	0000000101001001;
	649 :	0000000110110101;
	648 :	0000000000001110;
	647 :	1111111100111100;
	646 :	1111111111111101;
	645 :	0000000000000111;
	644 :	0000000000010001;
	643 :	0000000000010001;
	642 :	1111111111110110;
	641 :	0000000001001101;
	640 :	0000000010110110;
	639 :	0000000110101000;
	638 :	0000000011011011;
	637 :	0000000001101100;
	636 :	0000001000111101;
	635 :	1111111101011001;
	634 :	1111111111001011;
	633 :	0000000001111101;
	632 :	0000000101111101;
	631 :	0000000111000001;
	630 :	0000000001111011;
	629 :	1111111111110011;
	628 :	0000001100001001;
	627 :	0000000100011000;
	626 :	0000000100111100;
	625 :	1111111101010000;
	624 :	0000000001011101;
	623 :	1111111001011101;
	622 :	1111111101000101;
	621 :	0000000011001111;
	620 :	0000000011110100;
	619 :	1111111100010010;
	618 :	1111111110101111;
	617 :	1111111111111110;
	616 :	0000000000100100;
	615 :	1111111111111011;
	614 :	0000000000100010;
	613 :	0000000001000000;
	612 :	0000000001000000;
	611 :	0000000011100001;
	610 :	0000000101110101;
	609 :	0000000010010001;
	608 :	0000000110100010;
	607 :	1111111110110010;
	606 :	1111111111010101;
	605 :	0000000010010011;
	604 :	1111111000000111;
	603 :	0000000100001100;
	602 :	0000000101000100;
	601 :	0000001100100001;
	600 :	0000000100000010;
	599 :	0000000011111011;
	598 :	1111111111000010;
	597 :	1111111100110000;
	596 :	0000000000000010;
	595 :	0000000100101111;
	594 :	0000000001001000;
	593 :	0000000010110100;
	592 :	0000000010100001;
	591 :	1111111011101011;
	590 :	1111111110001100;
	589 :	1111111111000111;
	588 :	1111111111011010;
	587 :	0000000000101011;
	586 :	1111111111100001;
	585 :	1111111111000000;
	584 :	1111111110000000;
	583 :	0000000001100101;
	582 :	0000000001001010;
	581 :	0000000010011110;
	580 :	0000000100011110;
	579 :	1111111110001000;
	578 :	0000000001011010;
	577 :	0000000011001011;
	576 :	1111111001111101;
	575 :	0000000001110111;
	574 :	1111111110111110;
	573 :	0000000010110111;
	572 :	1111111010100110;
	571 :	0000001101110000;
	570 :	0000000111100111;
	569 :	1111111111100001;
	568 :	1111111111101000;
	567 :	1111111000010011;
	566 :	0000000100000011;
	565 :	0000000001111110;
	564 :	1111111010010111;
	563 :	1111111001010000;
	562 :	1111111110101000;
	561 :	1111111111011011;
	560 :	0000000000011111;
	559 :	1111111111100001;
	558 :	1111111100110011;
	557 :	1111111100010101;
	556 :	1111111011110010;
	555 :	1111111100101101;
	554 :	1111111111000010;
	553 :	1111111111010001;
	552 :	0000000010110000;
	551 :	1111111001100111;
	550 :	0000001000110100;
	549 :	1111111101001100;
	548 :	0000000001000001;
	547 :	0000001000001111;
	546 :	0000000101110000;
	545 :	0000001011101001;
	544 :	0000000111010011;
	543 :	0000000000001000;
	542 :	1111111010100100;
	541 :	1111111010110111;
	540 :	0000000100011100;
	539 :	1111110110000011;
	538 :	0000000011011000;
	537 :	0000000011000101;
	536 :	0000000000000101;
	535 :	1111111100101011;
	534 :	1111111110111100;
	533 :	1111111111101001;
	532 :	1111111111100100;
	531 :	1111111111110100;
	530 :	1111111111111000;
	529 :	1111111110100111;
	528 :	1111111010111011;
	527 :	1111111101110100;
	526 :	0000000000001001;
	525 :	1111111010110100;
	524 :	0000000011010001;
	523 :	0000000000101011;
	522 :	0000000001110010;
	521 :	0000000101110110;
	520 :	0000000111100100;
	519 :	0000000011100110;
	518 :	0000001001101010;
	517 :	1111111001100011;
	516 :	1111111100111011;
	515 :	1111110111010111;
	514 :	1111110110111010;
	513 :	1111111000011100;
	512 :	1111111011101111;
	511 :	0000000001101010;
	510 :	0000000110001101;
	509 :	0000000001111010;
	508 :	0000000001110110;
	507 :	0000000011001100;
	506 :	1111111110000100;
	505 :	0000000000001000;
	504 :	0000000000101000;
	503 :	1111111111111011;
	502 :	0000000000001001;
	501 :	1111111100101100;
	500 :	1111111100000101;
	499 :	0000000000000010;
	498 :	1111111111011111;
	497 :	1111111101101000;
	496 :	0000000100011110;
	495 :	1111111101100111;
	494 :	0000000111111010;
	493 :	0000000111000000;
	492 :	0000001001010111;
	491 :	0000001000011000;
	490 :	0000000100011010;
	489 :	1111110111011011;
	488 :	1111110101110100;
	487 :	1111111010010101;
	486 :	1111111100100101;
	485 :	1111111101100010;
	484 :	1111111001001001;
	483 :	1111111100011010;
	482 :	0000000101101100;
	481 :	0000000101011110;
	480 :	0000000001110001;
	479 :	0000000001101010;
	478 :	1111111101111110;
	477 :	1111111111100100;
	476 :	1111111111111101;
	475 :	0000000000100001;
	474 :	1111111111100000;
	473 :	1111111101001111;
	472 :	1111111101100010;
	471 :	1111111011111100;
	470 :	1111111011010100;
	469 :	0000000001100101;
	468 :	0000000100000001;
	467 :	0000000010001101;
	466 :	0000000011101101;
	465 :	0000000001010100;
	464 :	1111111110011010;
	463 :	1111110110111010;
	462 :	1111111010100101;
	461 :	1111111010100100;
	460 :	1111111011010100;
	459 :	1111110110111100;
	458 :	1111111111110011;
	457 :	0000000010001110;
	456 :	0000000010000001;
	455 :	0000000000101101;
	454 :	1111111110000110;
	453 :	1111111010100000;
	452 :	1111111000101100;
	451 :	1111111101111100;
	450 :	1111111110110110;
	449 :	0000000000010100;
	448 :	1111111111111101;
	447 :	1111111111101000;
	446 :	1111111110000100;
	445 :	1111111100111110;
	444 :	1111111010110011;
	443 :	1111111101001010;
	442 :	1111111011010010;
	441 :	0000000100101101;
	440 :	0000001010111010;
	439 :	1111110010101010;
	438 :	0000000110000111;
	437 :	0000000011011100;
	436 :	1111111101110000;
	435 :	0000000000011011;
	434 :	1111111001000000;
	433 :	0000000001010010;
	432 :	0000001011111110;
	431 :	1111110100110011;
	430 :	0000000100101001;
	429 :	0000000111000111;
	428 :	0000000010010111;
	427 :	0000000110000101;
	426 :	1111111110001000;
	425 :	0000000001001110;
	424 :	1111111111111011;
	423 :	1111111111001001;
	422 :	0000000000001001;
	421 :	0000000000011100;
	420 :	0000000000100111;
	419 :	1111111111110110;
	418 :	1111111111100110;
	417 :	1111111111000001;
	416 :	1111111100010101;
	415 :	1111110111000011;
	414 :	1111110001110000;
	413 :	1111111000011101;
	412 :	0000000010100010;
	411 :	0000000001111010;
	410 :	0000000001011000;
	409 :	1111111001111010;
	408 :	1111111000110100;
	407 :	1111111010001111;
	406 :	1111111001011111;
	405 :	0000000000000101;
	404 :	0000000100001011;
	403 :	1111111011101110;
	402 :	0000000101101001;
	401 :	0000000100101100;
	400 :	0000000001011011;
	399 :	0000000010000110;
	398 :	0000000100011101;
	397 :	0000000011011001;
	396 :	0000000001110000;
	395 :	1111111111100110;
	394 :	0000000000110111;
	393 :	0000000000001000;
	392 :	1111111111110101;
	391 :	0000000000001101;
	390 :	0000000000000100;
	389 :	1111111110000001;
	388 :	1111110101001100;
	387 :	1111101101111000;
	386 :	1111101001111100;
	385 :	1111100111001101;
	384 :	1111110100101100;
	383 :	1111111110111111;
	382 :	0000000100000000;
	381 :	0000000001010001;
	380 :	0000000110001111;
	379 :	0000000000101010;
	378 :	0000000001100101;
	377 :	0000000001101100;
	376 :	0000001000101010;
	375 :	0000000010000100;
	374 :	1111111101010001;
	373 :	1111111110011001;
	372 :	0000000001000111;
	371 :	0000001000100011;
	370 :	0000000100111010;
	369 :	0000001001100010;
	368 :	0000000011011001;
	367 :	1111111110111100;
	366 :	0000000000110011;
	365 :	0000000000110010;
	364 :	0000000000010000;
	363 :	1111111111110010;
	362 :	1111111111101001;
	361 :	1111111100100100;
	360 :	1111110000001101;
	359 :	1111101000111011;
	358 :	1111100000011001;
	357 :	1111011101011001;
	356 :	1111011100011100;
	355 :	1111101001011000;
	354 :	1111110110011101;
	353 :	1111111101110101;
	352 :	1111110100110111;
	351 :	1111110010101001;
	350 :	1111111010100110;
	349 :	0000000101011110;
	348 :	0000000001100110;
	347 :	0000000000011010;
	346 :	0000000111111001;
	345 :	1111111011101100;
	344 :	0000000100111010;
	343 :	1111111110101010;
	342 :	1111111111111111;
	341 :	0000000011001100;
	340 :	0000000011101011;
	339 :	1111111110100110;
	338 :	0000000000100000;
	337 :	0000000000101101;
	336 :	1111111111110001;
	335 :	1111111111100111;
	334 :	0000000000011010;
	333 :	0000000000000110;
	332 :	1111110001001100;
	331 :	1111101101110100;
	330 :	1111101000111010;
	329 :	1111101001101011;
	328 :	1111010110110010;
	327 :	1111010011011111;
	326 :	1111010101100011;
	325 :	1111011111101101;
	324 :	1111111100111001;
	323 :	1111111011001010;
	322 :	1111111011101010;
	321 :	0000000000100101;
	320 :	1111111000110011;
	319 :	1111110110111111;
	318 :	1111110100110010;
	317 :	1111110110111000;
	316 :	1111111100001000;
	315 :	1111111111110011;
	314 :	1111111110011001;
	313 :	1111111010110001;
	312 :	0000000010011010;
	311 :	1111111111101000;
	310 :	0000000000000000;
	309 :	1111111111111101;
	308 :	0000000000100111;
	307 :	0000000000101000;
	306 :	0000000010000110;
	305 :	0000000100011110;
	304 :	1111111101101000;
	303 :	1111101110100010;
	302 :	1111110101011000;
	301 :	1111111000011101;
	300 :	1111110010110101;
	299 :	1111101100100000;
	298 :	1111100101111100;
	297 :	1111010110111111;
	296 :	1111100101001100;
	295 :	1111110000000111;
	294 :	1111111010000101;
	293 :	0000000101010001;
	292 :	0000000000100101;
	291 :	1111111101010100;
	290 :	0000000100001101;
	289 :	0000000010001001;
	288 :	1111111001000101;
	287 :	0000000101010101;
	286 :	1111111010001010;
	285 :	1111111001011100;
	284 :	1111111110101011;
	283 :	1111111111000101;
	282 :	1111111111011000;
	281 :	1111111111100101;
	280 :	1111111111110011;
	279 :	0000000000001110;
	278 :	1111111100110000;
	277 :	0000000011000000;
	276 :	0000001010000000;
	275 :	1111111001011101;
	274 :	0000001000000000;
	273 :	0000001101000000;
	272 :	0000000110000101;
	271 :	0000000101101001;
	270 :	0000010001111011;
	269 :	0000000101000111;
	268 :	1111111100001001;
	267 :	1111111101000010;
	266 :	0000001000001011;
	265 :	0000000100011111;
	264 :	0000000000100100;
	263 :	1111111010010110;
	262 :	1111110111001001;
	261 :	1111111111111111;
	260 :	1111110110000011;
	259 :	1111111000001110;
	258 :	1111111001001110;
	257 :	1111111010111001;
	256 :	1111111100110001;
	255 :	1111111110010100;
	254 :	0000000000011101;
	253 :	1111111111110001;
	252 :	0000000000010111;
	251 :	0000000000011101;
	250 :	1111111111000011;
	249 :	0000001000111110;
	248 :	0000001110111010;
	247 :	0000001011001000;
	246 :	0000001010101011;
	245 :	0000001101000011;
	244 :	0000001100111101;
	243 :	0000001110101110;
	242 :	0000001110011101;
	241 :	0000001000111010;
	240 :	0000001001000111;
	239 :	0000000010000111;
	238 :	0000001000100100;
	237 :	0000001100000111;
	236 :	0000000010101110;
	235 :	1111111111001011;
	234 :	1111111000111100;
	233 :	0000000000100110;
	232 :	1111111110100000;
	231 :	1111111010000001;
	230 :	1111111110011011;
	229 :	1111111100001011;
	228 :	1111111010101000;
	227 :	1111111111100100;
	226 :	0000000000111101;
	225 :	1111111111101110;
	224 :	0000000000010010;
	223 :	0000000000110000;
	222 :	0000001000001011;
	221 :	0000010001010110;
	220 :	0000001011101111;
	219 :	0000000010100111;
	218 :	0000000110110101;
	217 :	1111111111101111;
	216 :	0000001001110100;
	215 :	1111111001011010;
	214 :	0000001010110110;
	213 :	0000000101001001;
	212 :	0000000011000010;
	211 :	1111111110110101;
	210 :	1111111100011000;
	209 :	0000000001001110;
	208 :	0000000001100111;
	207 :	1111111100101001;
	206 :	1111111101001000;
	205 :	1111111111011100;
	204 :	1111111101111000;
	203 :	1111111010110110;
	202 :	1111111111011111;
	201 :	1111111110100101;
	200 :	1111111100101100;
	199 :	1111111111011111;
	198 :	1111111111100110;
	197 :	1111111111110010;
	196 :	0000000000101010;
	195 :	0000000001001100;
	194 :	0000000101100010;
	193 :	0000001111000001;
	192 :	0000010100101111;
	191 :	0000001010101110;
	190 :	0000001010100010;
	189 :	1111111110010110;
	188 :	0000001001010001;
	187 :	0000000101010000;
	186 :	1111111011001100;
	185 :	1111111011100111;
	184 :	1111111011010110;
	183 :	1111111101010101;
	182 :	1111111100011101;
	181 :	1111111110000110;
	180 :	0000000100100011;
	179 :	1111111011000100;
	178 :	1111111010111000;
	177 :	1111110100111100;
	176 :	1111110111100000;
	175 :	1111111001001001;
	174 :	1111111101111011;
	173 :	1111111110011011;
	172 :	1111111110011100;
	171 :	1111111111101101;
	170 :	0000000000010111;
	169 :	1111111111011110;
	168 :	1111111111111111;
	167 :	0000000000010111;
	166 :	0000000011000110;
	165 :	0000001000011000;
	164 :	0000001000100001;
	163 :	0000000100100011;
	162 :	0000000110011010;
	161 :	1111111100000001;
	160 :	0000000111111111;
	159 :	1111111101010101;
	158 :	1111111110010100;
	157 :	1111111000001011;
	156 :	0000000100010101;
	155 :	0000000000100011;
	154 :	1111111111011001;
	153 :	0000000000111101;
	152 :	1111111101101011;
	151 :	1111111010000010;
	150 :	1111111011010001;
	149 :	1111110111010100;
	148 :	1111110101011011;
	147 :	1111110111010100;
	146 :	1111111000101101;
	145 :	1111111100011011;
	144 :	1111111111100111;
	143 :	1111111111101011;
	142 :	1111111111000110;
	141 :	1111111111111001;
	140 :	1111111111101010;
	139 :	0000000000001100;
	138 :	0000000001111111;
	137 :	0000000010011011;
	136 :	0000001001000101;
	135 :	0000000111100110;
	134 :	1111111110111010;
	133 :	1111111101101000;
	132 :	1111111001110101;
	131 :	1111111011110101;
	130 :	0000000111101110;
	129 :	0000000000000101;
	128 :	1111111100111100;
	127 :	1111111110100101;
	126 :	1111111000001001;
	125 :	1111111110011011;
	124 :	1111110101101000;
	123 :	1111110110110000;
	122 :	1111110101111001;
	121 :	1111111000001100;
	120 :	1111110110111001;
	119 :	1111111001100111;
	118 :	1111111011100011;
	117 :	1111111100010100;
	116 :	1111111111000001;
	115 :	0000000000000010;
	114 :	0000000000010010;
	113 :	0000000000100010;
	112 :	1111111111100111;
	111 :	0000000000001010;
	110 :	0000000001101101;
	109 :	0000000010100110;
	108 :	1111111110111100;
	107 :	1111111110000001;
	106 :	0000000010001110;
	105 :	0000000101010010;
	104 :	0000000010011100;
	103 :	0000000001110100;
	102 :	0000000000001011;
	101 :	0000000001110101;
	100 :	1111111110001000;
	99 :	1111111000010010;
	98 :	1111110010011001;
	97 :	1111110010010100;
	96 :	1111111000011100;
	95 :	1111111000011101;
	94 :	1111111100000001;
	93 :	1111111101100100;
	92 :	1111111111001100;
	91 :	1111111111110000;
	90 :	1111111111000010;
	89 :	1111111111010101;
	88 :	0000000000001001;
	87 :	0000000000101000;
	86 :	0000000000011011;
	85 :	1111111111100111;
	84 :	0000000000001100;
	83 :	1111111111101000;
	82 :	1111111110111000;
	81 :	0000000000001011;
	80 :	1111111111000110;
	79 :	0000000000001001;
	78 :	1111111111000111;
	77 :	1111111111001100;
	76 :	1111111101010111;
	75 :	0000000000100100;
	74 :	0000000010001001;
	73 :	0000000001000100;
	72 :	1111111111001110;
	71 :	1111111011110110;
	70 :	1111111100101110;
	69 :	1111111010011111;
	68 :	1111111101110010;
	67 :	1111111101100000;
	66 :	1111111111000010;
	65 :	1111111111010011;
	64 :	1111111110111110;
	63 :	1111111111110010;
	62 :	0000000001011001;
	61 :	0000000000110100;
	60 :	0000000000010001;
	59 :	1111111111110011;
	58 :	0000000000001111;
	57 :	0000000000011111;
	56 :	0000000000000000;
	55 :	1111111111110000;
	54 :	1111111111111010;
	53 :	0000000000011010;
	52 :	0000000000100101;
	51 :	0000000000010001;
	50 :	1111111111101010;
	49 :	0000000000000110;
	48 :	0000000000000001;
	47 :	1111111111110101;
	46 :	0000000000001111;
	45 :	0000000000100101;
	44 :	0000000000010100;
	43 :	1111111111000110;
	42 :	1111111111011010;
	41 :	1111111111011100;
	40 :	0000000000000001;
	39 :	1111111111110000;
	38 :	1111111111111001;
	37 :	1111111111101111;
	36 :	1111111111010101;
	35 :	1111111111111111;
	34 :	1111111111110011;
	33 :	1111111111111000;
	32 :	0000000000011101;
	31 :	1111111111111111;
	30 :	0000000001000000;
	29 :	1111111111111001;
	28 :	1111111111110011;
	27 :	1111111111110010;
	26 :	1111111110111101;
	25 :	1111111111111100;
	24 :	1111111111100010;
	23 :	0000000000000010;
	22 :	0000000000010111;
	21 :	0000000000101000;
	20 :	0000000000100001;
	19 :	1111111111111010;
	18 :	0000000000001011;
	17 :	1111111111111110;
	16 :	1111111111011101;
	15 :	1111111111001111;
	14 :	1111111111111010;
	13 :	0000000000000010;
	12 :	1111111111110011;
	11 :	1111111111111110;
	10 :	0000000000001000;
	9 :	1111111111100011;
	8 :	0000000000011100;
	7 :	1111111111111101;
	6 :	0000000000100011;
	5 :	1111111111110111;
	4 :	0000000000010000;
	3 :	0000000000010110;
	2 :	1111111111110010;
	1 :	0000000000100100;
	0 :	1111111111011101;
END;
