-- begin_signature
-- Weight_Memory(numWeight
-- 30
-- neuronNo
-- 6
-- layerNo
-- 3
-- addressWidth
-- 5
-- dataWidth
-- 16
-- weightFile
-- "w_3_6.hex")
-- end_signature
WIDTH=16;
DEPTH=30;

ADDRESS_RADIX=UNS;
DATA_RADIX=BIN;

CONTENT BEGIN
	29 :	1111011001000011;
	28 :	1111111010000100;
	27 :	0000001011101100;
	26 :	1111110010000100;
	25 :	1111111101111011;
	24 :	0000011111010001;
	23 :	0000100011101100;
	22 :	0000100001001110;
	21 :	0000000111001100;
	20 :	0000000011010100;
	19 :	1111111101101100;
	18 :	0000000000111000;
	17 :	1111101111101001;
	16 :	1111101011111011;
	15 :	0000001001111010;
	14 :	1111101100110101;
	13 :	1111111111011110;
	12 :	1111111101100100;
	11 :	0000010111011111;
	10 :	1111110101000011;
	9 :	0000000010000001;
	8 :	1111010000101010;
	7 :	1111001000000001;
	6 :	1111011111100101;
	5 :	0000011010001001;
	4 :	0000000101000010;
	3 :	0000000011101110;
	2 :	0000010100101100;
	1 :	1111111101101011;
	0 :	0000011011010010;
END;
