-- begin_signature
-- Weight_Memory(numWeight
-- 784
-- neuronNo
-- 12
-- layerNo
-- 1
-- addressWidth
-- 10
-- dataWidth
-- 16
-- weightFile
-- "w_1_12.mif")
-- end_signature
WIDTH=16;
DEPTH=784;

ADDRESS_RADIX=UNS;
DATA_RADIX=BIN;

CONTENT BEGIN
	783 :	0000000000000000;
	782 :	1111111111111110;
	781 :	0000000000110111;
	780 :	0000000000011100;
	779 :	1111111111101111;
	778 :	0000000000011111;
	777 :	0000000000010001;
	776 :	0000000000101110;
	775 :	0000000000111100;
	774 :	0000000000000100;
	773 :	0000000000010011;
	772 :	1111111111100111;
	771 :	1111111111001000;
	770 :	1111111111101100;
	769 :	0000000000010100;
	768 :	1111111111101010;
	767 :	1111111111111010;
	766 :	0000000000001100;
	765 :	0000000000010010;
	764 :	1111111110111010;
	763 :	0000000000001100;
	762 :	1111111110011110;
	761 :	0000000000100111;
	760 :	0000000000001101;
	759 :	0000000000000001;
	758 :	0000000000111101;
	757 :	1111111111111010;
	756 :	0000000000011010;
	755 :	0000000000011101;
	754 :	1111111111010011;
	753 :	0000000000010110;
	752 :	0000000000111001;
	751 :	0000000000000001;
	750 :	1111111111110100;
	749 :	0000000000011111;
	748 :	1111111111101110;
	747 :	0000000011110000;
	746 :	0000000001101111;
	745 :	1111111110010000;
	744 :	0000000011001011;
	743 :	0000000001110101;
	742 :	0000000110111001;
	741 :	0000000011100010;
	740 :	0000000010110010;
	739 :	0000000010010101;
	738 :	0000000000100000;
	737 :	1111111111110101;
	736 :	1111111111101100;
	735 :	0000000000000110;
	734 :	0000000000000001;
	733 :	0000000000001010;
	732 :	1111111111101000;
	731 :	0000000000000111;
	730 :	0000000000100101;
	729 :	0000000000010111;
	728 :	0000000000010000;
	727 :	1111111111001101;
	726 :	1111111111101110;
	725 :	1111111111100011;
	724 :	0000000001100011;
	723 :	0000000001110010;
	722 :	0000000010001011;
	721 :	1111111111111001;
	720 :	0000000000110011;
	719 :	0000001000011000;
	718 :	0000001000000000;
	717 :	1111111101000110;
	716 :	1111111011010000;
	715 :	0000000100011001;
	714 :	0000000100011110;
	713 :	0000000111110000;
	712 :	0000000100110101;
	711 :	0000000100100100;
	710 :	0000000100101001;
	709 :	0000001010011110;
	708 :	0000000001100100;
	707 :	1111111111111000;
	706 :	1111111110011101;
	705 :	1111111101111111;
	704 :	0000000000000001;
	703 :	1111111110111100;
	702 :	0000000000001001;
	701 :	1111111111111010;
	700 :	0000000000011110;
	699 :	0000000000001110;
	698 :	1111111111010000;
	697 :	1111111110101001;
	696 :	1111111110101101;
	695 :	1111111110110111;
	694 :	0000000001001011;
	693 :	0000000010011110;
	692 :	0000001001100101;
	691 :	0000000110011000;
	690 :	0000001010010011;
	689 :	1111111110100001;
	688 :	1111111001011001;
	687 :	0000001000100011;
	686 :	1111111100011111;
	685 :	1111110100110011;
	684 :	0000000011100010;
	683 :	0000000101101111;
	682 :	0000000001011011;
	681 :	0000000011100111;
	680 :	0000000000001011;
	679 :	1111111110010001;
	678 :	1111111101001011;
	677 :	1111111110011111;
	676 :	1111111110001011;
	675 :	0000000000000100;
	674 :	0000000000001001;
	673 :	1111111111011010;
	672 :	1111111111110101;
	671 :	0000000000101001;
	670 :	0000000000101011;
	669 :	0000000001101000;
	668 :	1111111111110110;
	667 :	0000000010001110;
	666 :	1111111111100000;
	665 :	1111111110010010;
	664 :	0000000101001100;
	663 :	1111111110101100;
	662 :	1111110100101011;
	661 :	1111111000000001;
	660 :	0000000011010110;
	659 :	1111111111010100;
	658 :	0000000000110000;
	657 :	0000000110011111;
	656 :	0000000010111110;
	655 :	1111111110111010;
	654 :	1111111011110010;
	653 :	0000000001111001;
	652 :	0000000100100010;
	651 :	1111111001001110;
	650 :	1111111111010101;
	649 :	1111111111001110;
	648 :	1111111110011110;
	647 :	1111111110111110;
	646 :	0000000000010101;
	645 :	1111111111111111;
	644 :	1111111111010011;
	643 :	1111111111111110;
	642 :	1111111111100100;
	641 :	0000000001101010;
	640 :	1111111111101100;
	639 :	0000001011001010;
	638 :	0000000011111000;
	637 :	1111111100100011;
	636 :	0000000011111110;
	635 :	0000000111011101;
	634 :	0000000011101101;
	633 :	0000000010001101;
	632 :	0000000010110101;
	631 :	0000000001101110;
	630 :	0000000011010011;
	629 :	1111111001111010;
	628 :	0000000100000101;
	627 :	0000000010001010;
	626 :	1111111010000110;
	625 :	1111111101010101;
	624 :	1111111000011100;
	623 :	1111111010010100;
	622 :	1111110111111000;
	621 :	1111111111111010;
	620 :	1111111111110100;
	619 :	0000000000001000;
	618 :	0000000000010110;
	617 :	0000000000000101;
	616 :	0000000000010000;
	615 :	1111111111000010;
	614 :	1111111111011011;
	613 :	0000000010011111;
	612 :	0000000110101110;
	611 :	0000001001110100;
	610 :	1111111111000100;
	609 :	0000000101010011;
	608 :	0000000100100101;
	607 :	0000000011010111;
	606 :	0000000011001001;
	605 :	0000000010000110;
	604 :	0000000111110011;
	603 :	0000000101111011;
	602 :	0000000010001001;
	601 :	0000000011100010;
	600 :	0000000000111101;
	599 :	1111111110101111;
	598 :	0000000100000001;
	597 :	0000000000000111;
	596 :	0000000101100011;
	595 :	0000000001010001;
	594 :	0000000011100001;
	593 :	0000001000000000;
	592 :	0000000001100101;
	591 :	1111111111010000;
	590 :	1111111110110110;
	589 :	0000000000100011;
	588 :	0000000000001100;
	587 :	1111111111110100;
	586 :	0000000000001101;
	585 :	0000000001111100;
	584 :	0000000111111011;
	583 :	0000000011100110;
	582 :	0000000011100100;
	581 :	1111111110101000;
	580 :	1111111110101000;
	579 :	1111111110001000;
	578 :	1111111101111111;
	577 :	0000000011101100;
	576 :	0000000110001010;
	575 :	0000001001011100;
	574 :	1111111001101110;
	573 :	1111111111001100;
	572 :	1111111001000100;
	571 :	1111111111011111;
	570 :	1111111010100000;
	569 :	0000000000110001;
	568 :	1111111011111001;
	567 :	1111110110010011;
	566 :	0000000000010011;
	565 :	0000001010010010;
	564 :	0000000111001000;
	563 :	0000000100110001;
	562 :	0000000010010110;
	561 :	0000000000000110;
	560 :	0000000000010010;
	559 :	0000000000001011;
	558 :	1111111111100110;
	557 :	1111111101111010;
	556 :	0000000110110101;
	555 :	1111111101100000;
	554 :	1111111010011000;
	553 :	0000000001100001;
	552 :	0000000101011101;
	551 :	1111111110010101;
	550 :	1111111111100000;
	549 :	1111111111010111;
	548 :	0000000111100010;
	547 :	0000000100110110;
	546 :	0000000100110000;
	545 :	1111110100000110;
	544 :	1111111101100001;
	543 :	1111111111100110;
	542 :	1111110111000000;
	541 :	1111111000001101;
	540 :	1111111001111101;
	539 :	1111111010000100;
	538 :	1111111011011001;
	537 :	0000000000011110;
	536 :	0000001000101000;
	535 :	0000000101110110;
	534 :	0000000001100000;
	533 :	1111111111011011;
	532 :	0000000000010011;
	531 :	1111111101100100;
	530 :	1111111110000111;
	529 :	1111111100001101;
	528 :	0000000000101000;
	527 :	0000000010010100;
	526 :	1111111111100101;
	525 :	0000001010101100;
	524 :	1111111110000111;
	523 :	0000000100101101;
	522 :	0000000010011111;
	521 :	0000000010010111;
	520 :	0000000100011001;
	519 :	1111101110011111;
	518 :	1111110101100010;
	517 :	1111110100011011;
	516 :	1111110001100010;
	515 :	1111110001001010;
	514 :	1111110001110001;
	513 :	1111110110110000;
	512 :	1111110111000010;
	511 :	0000000010000101;
	510 :	1111111001111010;
	509 :	1111111101010000;
	508 :	0000000000011110;
	507 :	0000000100001010;
	506 :	1111111111001001;
	505 :	1111111111000111;
	504 :	0000000000100101;
	503 :	1111111111100101;
	502 :	1111111101110101;
	501 :	1111111101001110;
	500 :	0000000101100000;
	499 :	0000000100110101;
	498 :	0000000011000010;
	497 :	0000000111001110;
	496 :	0000000110010101;
	495 :	0000000011010001;
	494 :	0000001110011011;
	493 :	1111111011111001;
	492 :	1111110011111001;
	491 :	1111110011010100;
	490 :	1111111101011110;
	489 :	1111110110110011;
	488 :	1111111110001001;
	487 :	1111111010110010;
	486 :	1111101111111010;
	485 :	1111110001110001;
	484 :	1111111000101100;
	483 :	1111110110101101;
	482 :	1111111101100011;
	481 :	1111111011010000;
	480 :	1111111001010000;
	479 :	0000000101110101;
	478 :	1111111110100100;
	477 :	1111111111110010;
	476 :	0000000000001100;
	475 :	1111111111011011;
	474 :	1111111101101101;
	473 :	1111111100000101;
	472 :	0000001000100011;
	471 :	0000000100000101;
	470 :	0000001010011111;
	469 :	0000000111101001;
	468 :	0000000101010000;
	467 :	1111111110100000;
	466 :	0000000011101010;
	465 :	1111111010111111;
	464 :	1111111101111101;
	463 :	1111111111101111;
	462 :	1111111001010101;
	461 :	1111110110011010;
	460 :	0000000110001111;
	459 :	1111111011010100;
	458 :	1111111100100000;
	457 :	1111110111001001;
	456 :	1111110101011101;
	455 :	1111110011111111;
	454 :	1111110110000100;
	453 :	1111111011110110;
	452 :	1111111100000101;
	451 :	0000000000110010;
	450 :	1111111111101011;
	449 :	1111111111100010;
	448 :	1111111111100111;
	447 :	0000000000100000;
	446 :	0000000000010111;
	445 :	1111111101001101;
	444 :	0000001010010111;
	443 :	0000000010101100;
	442 :	0000000100010011;
	441 :	0000000011011110;
	440 :	0000000100110010;
	439 :	0000000001111000;
	438 :	0000000000011110;
	437 :	0000000000001110;
	436 :	1111110111011011;
	435 :	1111110110001011;
	434 :	1111110011100111;
	433 :	1111110001000101;
	432 :	1111111111011000;
	431 :	0000000010101001;
	430 :	0000000011000110;
	429 :	0000000000110111;
	428 :	1111111101101010;
	427 :	1111111000110001;
	426 :	1111111110111001;
	425 :	1111111101100110;
	424 :	1111111101010001;
	423 :	1111111110101101;
	422 :	1111111111111101;
	421 :	1111111111011110;
	420 :	0000000000010010;
	419 :	1111111111011001;
	418 :	1111111111111001;
	417 :	1111111110001110;
	416 :	0000000100011000;
	415 :	0000000111010011;
	414 :	0000000001010000;
	413 :	1111111110011011;
	412 :	0000000100111010;
	411 :	0000000111010100;
	410 :	0000000100110100;
	409 :	1111111101110111;
	408 :	1111111100100110;
	407 :	1111111011000100;
	406 :	1111111001111110;
	405 :	1111110110111000;
	404 :	1111111111010110;
	403 :	0000000000010011;
	402 :	0000000110101011;
	401 :	0000000110000010;
	400 :	0000001011101001;
	399 :	0000000000001000;
	398 :	0000000101000100;
	397 :	1111111100110011;
	396 :	1111111100001111;
	395 :	1111111110011100;
	394 :	0000000000101101;
	393 :	1111111111110101;
	392 :	0000000000110001;
	391 :	1111111111110001;
	390 :	1111111111110001;
	389 :	1111111110011101;
	388 :	1111111100101110;
	387 :	1111111110101100;
	386 :	1111111101110110;
	385 :	1111111101110000;
	384 :	1111111101100001;
	383 :	0000000100010110;
	382 :	1111111000011110;
	381 :	1111111011101111;
	380 :	1111110110111011;
	379 :	1111111011011100;
	378 :	1111111000100100;
	377 :	0000000001000111;
	376 :	0000000111110000;
	375 :	0000000010100010;
	374 :	0000000001000100;
	373 :	0000000001011000;
	372 :	0000000110000111;
	371 :	0000000110011101;
	370 :	0000000011010010;
	369 :	0000000011100111;
	368 :	0000000000011010;
	367 :	1111111110001101;
	366 :	0000000000111111;
	365 :	0000000000101010;
	364 :	1111111111101110;
	363 :	1111111111011101;
	362 :	1111111111011110;
	361 :	1111111110100101;
	360 :	1111111000100010;
	359 :	1111110111101000;
	358 :	1111110111111011;
	357 :	1111110110100001;
	356 :	0000000100111111;
	355 :	0000000110111100;
	354 :	0000000010101001;
	353 :	1111111001110100;
	352 :	0000000000011100;
	351 :	1111111000100111;
	350 :	1111111001001100;
	349 :	1111111000111000;
	348 :	1111111101100111;
	347 :	0000001001101001;
	346 :	0000000111000111;
	345 :	0000000000101010;
	344 :	0000000110110010;
	343 :	0000000001001000;
	342 :	0000000111000001;
	341 :	0000000010110101;
	340 :	0000000001011110;
	339 :	1111111110010101;
	338 :	0000000000100011;
	337 :	1111111111110101;
	336 :	1111111111110110;
	335 :	1111111111011000;
	334 :	0000000000101011;
	333 :	1111111110111010;
	332 :	1111111000011011;
	331 :	1111110000101010;
	330 :	1111101101010001;
	329 :	1111110000010101;
	328 :	1111110100011000;
	327 :	1111111110000001;
	326 :	0000000011100000;
	325 :	0000001110011111;
	324 :	0000001110010110;
	323 :	1111111010011100;
	322 :	1111111001100111;
	321 :	0000000011111101;
	320 :	0000001001000010;
	319 :	0000000001010101;
	318 :	1111111110011011;
	317 :	0000000000010101;
	316 :	1111111011100110;
	315 :	1111111110000010;
	314 :	0000000010010011;
	313 :	1111111101110110;
	312 :	1111111111000010;
	311 :	1111111101110011;
	310 :	1111111111100100;
	309 :	1111111111111011;
	308 :	1111111111111000;
	307 :	0000000001000101;
	306 :	0000000000011101;
	305 :	0000000000000010;
	304 :	1111111001111000;
	303 :	1111101111110010;
	302 :	1111101011001001;
	301 :	1111101010000101;
	300 :	1111100001001110;
	299 :	1111011010001011;
	298 :	1111100011110101;
	297 :	1111101111011100;
	296 :	1111110111101000;
	295 :	1111110001100100;
	294 :	1111101011011111;
	293 :	1111111100100100;
	292 :	0000000111011011;
	291 :	0000000011110100;
	290 :	1111111011011101;
	289 :	0000000111111100;
	288 :	0000000011000000;
	287 :	0000000100101000;
	286 :	1111111011111000;
	285 :	1111111110011110;
	284 :	1111111100011111;
	283 :	1111111111001111;
	282 :	1111111111101110;
	281 :	1111111111000000;
	280 :	1111111111111111;
	279 :	1111111111110111;
	278 :	0000000000011101;
	277 :	1111111111000010;
	276 :	1111111011000111;
	275 :	1111110010000000;
	274 :	1111101010110011;
	273 :	1111100011001111;
	272 :	1111100010011000;
	271 :	1111011011101110;
	270 :	1111011010110010;
	269 :	1111011110111011;
	268 :	1111100000111011;
	267 :	1111100011110001;
	266 :	1111101000010000;
	265 :	1111110110100011;
	264 :	0000000000100111;
	263 :	0000000111100011;
	262 :	0000000110011100;
	261 :	1111111110000001;
	260 :	0000000011011001;
	259 :	0000000010110011;
	258 :	1111111010010101;
	257 :	1111110111110101;
	256 :	1111111010011011;
	255 :	0000000000100010;
	254 :	1111111111111000;
	253 :	0000000000010111;
	252 :	0000000000001100;
	251 :	0000000000010100;
	250 :	0000000000110001;
	249 :	1111111100111110;
	248 :	1111111101111000;
	247 :	1111110100110101;
	246 :	1111101100001110;
	245 :	1111101110000010;
	244 :	1111101100000011;
	243 :	1111110110100111;
	242 :	1111111010010010;
	241 :	1111111011001100;
	240 :	1111110111001101;
	239 :	1111111001111110;
	238 :	1111111010100110;
	237 :	1111111100101001;
	236 :	0000001011000010;
	235 :	0000000010000000;
	234 :	0000000010101011;
	233 :	0000000100001111;
	232 :	0000000001101101;
	231 :	1111111011000010;
	230 :	1111111011100010;
	229 :	1111111000100101;
	228 :	1111110110010001;
	227 :	1111111111100101;
	226 :	1111111111001001;
	225 :	1111111111100111;
	224 :	0000000000011011;
	223 :	0000000001011111;
	222 :	1111111111111101;
	221 :	0000000000001111;
	220 :	1111111100101011;
	219 :	1111110100110101;
	218 :	1111110010111010;
	217 :	0000000100011110;
	216 :	0000001100010111;
	215 :	0000001010010011;
	214 :	0000001101110100;
	213 :	0000000011010010;
	212 :	0000000111000101;
	211 :	0000000001000011;
	210 :	0000000101011011;
	209 :	1111111110000100;
	208 :	0000000000110001;
	207 :	1111111110100100;
	206 :	0000001001100111;
	205 :	1111111111101110;
	204 :	0000000111000110;
	203 :	0000000000011110;
	202 :	0000000000100001;
	201 :	1111111011100010;
	200 :	1111111000101000;
	199 :	1111111101111010;
	198 :	1111111111011101;
	197 :	0000000000011011;
	196 :	1111111111111100;
	195 :	1111111111100000;
	194 :	0000000000011010;
	193 :	0000000000101101;
	192 :	1111111111001100;
	191 :	1111111111001110;
	190 :	0000000110111111;
	189 :	0000000111100000;
	188 :	0000001000000000;
	187 :	0000001100011110;
	186 :	0000000000101010;
	185 :	0000001100111001;
	184 :	1111111111110100;
	183 :	0000000100011101;
	182 :	0000001001001101;
	181 :	1111111011000111;
	180 :	0000000111001001;
	179 :	1111111101111010;
	178 :	0000000000100000;
	177 :	1111111110101110;
	176 :	0000000011110110;
	175 :	0000000011001100;
	174 :	0000000001011110;
	173 :	0000000001011001;
	172 :	1111111100111101;
	171 :	0000000000000110;
	170 :	1111111111111101;
	169 :	1111111111010110;
	168 :	0000000000010111;
	167 :	0000000000111001;
	166 :	0000000000001011;
	165 :	0000000001010111;
	164 :	1111111111010111;
	163 :	0000000011110001;
	162 :	0000001101011100;
	161 :	0000001000011001;
	160 :	0000001000010101;
	159 :	0000000011010010;
	158 :	0000001000100010;
	157 :	0000000110011100;
	156 :	1111111111100010;
	155 :	1111111010010011;
	154 :	0000000001101110;
	153 :	1111111101001111;
	152 :	1111111101100101;
	151 :	0000000101110011;
	150 :	0000000001100000;
	149 :	0000000111010001;
	148 :	1111111110100000;
	147 :	1111111000110011;
	146 :	0000000000010100;
	145 :	1111111101010111;
	144 :	1111111010100101;
	143 :	1111111111011110;
	142 :	1111111111110001;
	141 :	1111111111011111;
	140 :	0000000000010101;
	139 :	0000000000000000;
	138 :	1111111111101010;
	137 :	0000000000110001;
	136 :	0000000101111111;
	135 :	0000000101000101;
	134 :	0000000101010001;
	133 :	0000000110100001;
	132 :	1111111100110110;
	131 :	0000000110110010;
	130 :	0000000010111000;
	129 :	1111111000000001;
	128 :	1111111111110011;
	127 :	0000000010011110;
	126 :	1111111101010100;
	125 :	1111101111001000;
	124 :	1111111110000111;
	123 :	0000000010111111;
	122 :	0000000011011010;
	121 :	1111111110010111;
	120 :	1111111010101010;
	119 :	1111111111110111;
	118 :	1111111111011111;
	117 :	1111111101101110;
	116 :	1111111110110110;
	115 :	0000000000010111;
	114 :	0000000000011011;
	113 :	0000000000001001;
	112 :	1111111111100000;
	111 :	1111111111110111;
	110 :	0000000000100110;
	109 :	1111111111011110;
	108 :	1111111111111101;
	107 :	1111111011101001;
	106 :	1111111010110011;
	105 :	1111111111001011;
	104 :	1111111111100011;
	103 :	0000000011111010;
	102 :	0000000000110110;
	101 :	1111111101000111;
	100 :	1111111011010010;
	99 :	0000000011100000;
	98 :	0000000010110000;
	97 :	0000000100101100;
	96 :	1111111101010010;
	95 :	1111111010011011;
	94 :	1111111110101011;
	93 :	0000000001101111;
	92 :	0000000000001010;
	91 :	0000000001000111;
	90 :	1111111111111111;
	89 :	0000000000100101;
	88 :	1111111110000001;
	87 :	1111111111111000;
	86 :	0000000000000100;
	85 :	0000000000000010;
	84 :	0000000000110010;
	83 :	1111111111111111;
	82 :	0000000000000100;
	81 :	0000000000101010;
	80 :	0000000000000110;
	79 :	0000000000111100;
	78 :	0000000000010011;
	77 :	1111111111011110;
	76 :	0000000001000000;
	75 :	0000000010110011;
	74 :	0000000011010110;
	73 :	0000000001101101;
	72 :	0000000010001010;
	71 :	0000000001010001;
	70 :	0000000000000000;
	69 :	1111111111010101;
	68 :	1111111110111101;
	67 :	1111111111011000;
	66 :	1111111110101010;
	65 :	1111111111111110;
	64 :	1111111111100101;
	63 :	0000000000111011;
	62 :	1111111111011100;
	61 :	0000000000111010;
	60 :	0000000000011001;
	59 :	1111111111011110;
	58 :	1111111111100110;
	57 :	0000000000010111;
	56 :	1111111111100010;
	55 :	0000000000111101;
	54 :	1111111111011001;
	53 :	0000000000011111;
	52 :	0000000000001010;
	51 :	1111111111100011;
	50 :	1111111111101011;
	49 :	0000000000000111;
	48 :	0000000000101111;
	47 :	1111111110111110;
	46 :	1111111111111110;
	45 :	0000000000001011;
	44 :	0000000000100100;
	43 :	1111111111111000;
	42 :	1111111111111011;
	41 :	0000000001001111;
	40 :	0000000000011101;
	39 :	0000000000000000;
	38 :	0000000000011100;
	37 :	1111111111111100;
	36 :	1111111111100001;
	35 :	0000000000001111;
	34 :	0000000000000100;
	33 :	0000000000110001;
	32 :	1111111111111000;
	31 :	0000000000010110;
	30 :	1111111111111101;
	29 :	0000000001001011;
	28 :	1111111111110010;
	27 :	0000000000010101;
	26 :	0000000000000100;
	25 :	1111111111101000;
	24 :	0000000000001111;
	23 :	1111111111110110;
	22 :	0000000000110101;
	21 :	0000000000001100;
	20 :	1111111111100101;
	19 :	0000000000010100;
	18 :	0000000000000101;
	17 :	0000000000010001;
	16 :	1111111111011001;
	15 :	0000000000000111;
	14 :	0000000000000101;
	13 :	1111111111110110;
	12 :	0000000000000111;
	11 :	0000000000101101;
	10 :	0000000000011010;
	9 :	0000000000001011;
	8 :	1111111111011101;
	7 :	1111111111101000;
	6 :	1111111111011010;
	5 :	1111111111111001;
	4 :	1111111111000110;
	3 :	0000000000010001;
	2 :	0000000000100100;
	1 :	1111111111101110;
	0 :	1111111111100111;
END;
