-- begin_signature
-- Weight_Memory(numWeight
-- 30
-- neuronNo
-- 0
-- layerNo
-- 3
-- addressWidth
-- 5
-- dataWidth
-- 16
-- weightFile
-- "w_3_0.mif")
-- end_signature
WIDTH=16;
DEPTH=30;

ADDRESS_RADIX=UNS;
DATA_RADIX=BIN;

CONTENT BEGIN
	29 :	0000000101011110;
	28 :	1111011010100101;
	27 :	1111100110011001;
	26 :	1111101100110001;
	25 :	1111011101010010;
	24 :	1111111100001100;
	23 :	0000011110100000;
	22 :	1111101110000111;
	21 :	1111110110000101;
	20 :	1111000100010100;
	19 :	0000000001110001;
	18 :	1111111111110000;
	17 :	0000000011010011;
	16 :	1111101010110001;
	15 :	0000100000011101;
	14 :	0000010001111101;
	13 :	1111111111010111;
	12 :	0000000000100110;
	11 :	0000100111010110;
	10 :	0000010111100000;
	9 :	1111011001110001;
	8 :	0000010000001001;
	7 :	0000000111110100;
	6 :	1111100001000010;
	5 :	1111110011110110;
	4 :	0000000001001001;
	3 :	0000000101010100;
	2 :	1111110011100111;
	1 :	1111101101111001;
	0 :	0000101011110100;
END;
