-- begin_signature
-- Weight_Memory(numWeight
-- 30
-- neuronNo
-- 23
-- layerNo
-- 2
-- addressWidth
-- 5
-- dataWidth
-- 16
-- weightFile
-- "w_2_23.mif")
-- end_signature
WIDTH=16;
DEPTH=30;

ADDRESS_RADIX=UNS;
DATA_RADIX=BIN;

CONTENT BEGIN
	29 :	0000000000101000;
	28 :	1111111011110000;
	27 :	0000000001000001;
	26 :	1111100010101101;
	25 :	1111101011100011;
	24 :	1111110000110111;
	23 :	1111110100011110;
	22 :	0000011000100110;
	21 :	1111111111100110;
	20 :	1111100010010101;
	19 :	1111101000011100;
	18 :	1111111101001100;
	17 :	1111110010111001;
	16 :	1111111111000010;
	15 :	1111111001001101;
	14 :	1111110010000101;
	13 :	0000000000001110;
	12 :	1111111000110111;
	11 :	1111110110101001;
	10 :	1111111110101111;
	9 :	1111111111000111;
	8 :	1111110100101000;
	7 :	1111111000101101;
	6 :	0000100001101110;
	5 :	1111111111001001;
	4 :	0000000010101101;
	3 :	1111111011100000;
	2 :	0000000101010111;
	1 :	1111110001110000;
	0 :	1111111100010111;
END;
