-- begin_signature
-- Weight_Memory(numWeight
-- 30
-- neuronNo
-- 3
-- layerNo
-- 3
-- addressWidth
-- 5
-- dataWidth
-- 16
-- weightFile
-- "w_3_3.hex")
-- end_signature
WIDTH=16;
DEPTH=30;

ADDRESS_RADIX=UNS;
DATA_RADIX=BIN;

CONTENT BEGIN
	29 :	1111111100010010;
	28 :	1111111111000100;
	27 :	1111111011100101;
	26 :	1111111011011100;
	25 :	1111111001010111;
	24 :	1111111100101101;
	23 :	0000000010100111;
	22 :	1111111010000001;
	21 :	1111111111110100;
	20 :	1111111100100111;
	19 :	1111111110101100;
	18 :	0000000000001001;
	17 :	1111111111110111;
	16 :	0000000001100101;
	15 :	0000000010111010;
	14 :	0000000110011111;
	13 :	0000000001001101;
	12 :	0000000001010111;
	11 :	1111111101111000;
	10 :	0000000001100011;
	9 :	1111111100000000;
	8 :	1111111111101110;
	7 :	1111111101111101;
	6 :	1111111110111100;
	5 :	1111111110001011;
	4 :	0000000001010101;
	3 :	0000000000100110;
	2 :	0000000010001010;
	1 :	0000000000000001;
	0 :	1111111110000011;
END;
