-- begin_signature
-- Weight_Memory(numWeight
-- 784
-- neuronNo
-- 27
-- layerNo
-- 1
-- addressWidth
-- 10
-- dataWidth
-- 16
-- weightFile
-- "w_1_27.mif")
-- end_signature
WIDTH=16;
DEPTH=784;

ADDRESS_RADIX=UNS;
DATA_RADIX=BIN;

CONTENT BEGIN
	783 :	0000000000011001;
	782 :	0000000001001100;
	781 :	1111111111110011;
	780 :	0000000000100001;
	779 :	0000000000110100;
	778 :	1111111111011010;
	777 :	0000000000001011;
	776 :	1111111111110111;
	775 :	0000000000001001;
	774 :	0000000000001011;
	773 :	1111111111011111;
	772 :	1111111111011010;
	771 :	0000000000100111;
	770 :	0000000000101111;
	769 :	0000000000001000;
	768 :	0000000000011100;
	767 :	0000000000000101;
	766 :	0000000000100010;
	765 :	0000000000100010;
	764 :	0000000000000100;
	763 :	0000000001000100;
	762 :	1111111111110100;
	761 :	0000000000000011;
	760 :	0000000000100011;
	759 :	0000000000010000;
	758 :	0000000000000111;
	757 :	1111111111110010;
	756 :	0000000000001000;
	755 :	1111111111100011;
	754 :	0000000000001101;
	753 :	0000000000001110;
	752 :	1111111111001010;
	751 :	1111111111111001;
	750 :	1111111111100100;
	749 :	1111111111110011;
	748 :	0000000000000001;
	747 :	0000000000110010;
	746 :	1111111111111100;
	745 :	0000000000011011;
	744 :	0000000000000011;
	743 :	1111111111110100;
	742 :	0000000000000001;
	741 :	1111111111101000;
	740 :	0000000000000100;
	739 :	0000000000010111;
	738 :	0000000000110011;
	737 :	0000000000001111;
	736 :	0000000000010011;
	735 :	0000000000100000;
	734 :	0000000000011110;
	733 :	0000000000101010;
	732 :	1111111111100110;
	731 :	1111111111011010;
	730 :	1111111111101110;
	729 :	0000000000010010;
	728 :	1111111111011111;
	727 :	0000000000001101;
	726 :	0000000000011001;
	725 :	0000000000110110;
	724 :	0000000000111101;
	723 :	0000000000011001;
	722 :	0000000000011110;
	721 :	0000000000101001;
	720 :	1111111111110110;
	719 :	1111111111111000;
	718 :	1111111111101101;
	717 :	0000000001010100;
	716 :	0000000000001000;
	715 :	1111111111010111;
	714 :	0000000000001101;
	713 :	0000000000110000;
	712 :	1111111111111000;
	711 :	0000000000000001;
	710 :	1111111111101111;
	709 :	0000000000110100;
	708 :	1111111111100101;
	707 :	0000000000001101;
	706 :	0000000000001001;
	705 :	0000000000001101;
	704 :	1111111111101110;
	703 :	1111111111000010;
	702 :	1111111111011000;
	701 :	0000000000001001;
	700 :	1111111111101100;
	699 :	0000000000001100;
	698 :	0000000001000100;
	697 :	0000000000001110;
	696 :	0000000000101011;
	695 :	1111111111011000;
	694 :	1111111111111110;
	693 :	0000000000011101;
	692 :	1111111111110101;
	691 :	0000000000000000;
	690 :	1111111111100100;
	689 :	1111111111111001;
	688 :	0000000000111100;
	687 :	1111111111100111;
	686 :	1111111111110110;
	685 :	0000000000011111;
	684 :	1111111111101101;
	683 :	0000000000000011;
	682 :	0000000000011001;
	681 :	0000000000001101;
	680 :	1111111111110000;
	679 :	1111111111011101;
	678 :	0000000000101010;
	677 :	1111111111110011;
	676 :	1111111111100110;
	675 :	0000000000110010;
	674 :	0000000000100011;
	673 :	0000000000101111;
	672 :	0000000000001001;
	671 :	1111111111101000;
	670 :	0000000000010100;
	669 :	1111111111100001;
	668 :	0000000000111001;
	667 :	1111111111101111;
	666 :	1111111111001100;
	665 :	0000000000111100;
	664 :	1111111111001100;
	663 :	1111111111011101;
	662 :	0000000000010010;
	661 :	0000000000001000;
	660 :	1111111111100000;
	659 :	1111111111111100;
	658 :	1111111111000011;
	657 :	1111111111101100;
	656 :	0000000000001010;
	655 :	1111111111110000;
	654 :	0000000000011001;
	653 :	0000000000010110;
	652 :	1111111111000100;
	651 :	0000000000010101;
	650 :	1111111111111011;
	649 :	0000000000011000;
	648 :	1111111111100110;
	647 :	0000000000000100;
	646 :	1111111111000101;
	645 :	0000000000011000;
	644 :	1111111111101000;
	643 :	1111111111111100;
	642 :	0000000000101000;
	641 :	1111111111100111;
	640 :	1111111111101110;
	639 :	1111111111111111;
	638 :	0000000000110010;
	637 :	1111111111100000;
	636 :	1111111111111101;
	635 :	0000000000011011;
	634 :	0000000000100110;
	633 :	0000000000001110;
	632 :	1111111111111111;
	631 :	1111111111011011;
	630 :	1111111110110010;
	629 :	0000000000001100;
	628 :	0000000000101110;
	627 :	0000000000010111;
	626 :	0000000000101011;
	625 :	1111111111110101;
	624 :	0000000000111011;
	623 :	0000000000001110;
	622 :	0000000000001101;
	621 :	0000000000101101;
	620 :	0000000000110100;
	619 :	0000000000000100;
	618 :	0000000000000010;
	617 :	0000000000011100;
	616 :	1111111111101000;
	615 :	0000000000110000;
	614 :	1111111111101110;
	613 :	1111111111111110;
	612 :	0000000000000001;
	611 :	0000000001001111;
	610 :	0000000000010011;
	609 :	1111111111000111;
	608 :	0000000000000100;
	607 :	0000000000000011;
	606 :	0000000000001010;
	605 :	0000000000000000;
	604 :	1111111111011010;
	603 :	1111111111110110;
	602 :	1111111111010100;
	601 :	1111111111100000;
	600 :	1111111111111001;
	599 :	1111111111111111;
	598 :	1111111111110011;
	597 :	1111111111101100;
	596 :	0000000000000111;
	595 :	0000000000000001;
	594 :	1111111111101010;
	593 :	0000000000001100;
	592 :	0000000000011011;
	591 :	1111111111011011;
	590 :	0000000000100110;
	589 :	1111111111011111;
	588 :	0000000000001101;
	587 :	0000000000000100;
	586 :	0000000000100001;
	585 :	0000000000011111;
	584 :	1111111111011110;
	583 :	0000000000011101;
	582 :	1111111111010001;
	581 :	0000000000111010;
	580 :	0000000000010000;
	579 :	1111111111010001;
	578 :	0000000000011001;
	577 :	0000000000001110;
	576 :	0000000000100010;
	575 :	0000000000101100;
	574 :	0000000000001011;
	573 :	0000000000001100;
	572 :	0000000000000001;
	571 :	0000000000000011;
	570 :	1111111111000001;
	569 :	1111111111111110;
	568 :	0000000000010111;
	567 :	0000000000011110;
	566 :	1111111110111011;
	565 :	1111111111011000;
	564 :	1111111110101101;
	563 :	1111111111110101;
	562 :	0000000000001110;
	561 :	1111111111111111;
	560 :	1111111111100111;
	559 :	1111111111101110;
	558 :	0000000001100010;
	557 :	0000000000000110;
	556 :	0000000000001010;
	555 :	1111111111101101;
	554 :	0000000000010000;
	553 :	1111111110110101;
	552 :	0000000000000001;
	551 :	1111111111000000;
	550 :	0000000000010011;
	549 :	0000000000010111;
	548 :	1111111110111110;
	547 :	1111111111100101;
	546 :	0000000000110100;
	545 :	0000000000011100;
	544 :	1111111111101101;
	543 :	0000000000010101;
	542 :	1111111111110110;
	541 :	0000000000010010;
	540 :	1111111111101011;
	539 :	1111111111111011;
	538 :	1111111111011011;
	537 :	1111111111110101;
	536 :	1111111111111100;
	535 :	0000000000011111;
	534 :	1111111111011000;
	533 :	1111111111111110;
	532 :	0000000000000100;
	531 :	0000000000000000;
	530 :	0000000000001100;
	529 :	0000000000100010;
	528 :	1111111111111110;
	527 :	0000000000100011;
	526 :	0000000000001111;
	525 :	1111111111100100;
	524 :	0000000000011010;
	523 :	0000000001000011;
	522 :	1111111111101101;
	521 :	1111111111110011;
	520 :	1111111111100111;
	519 :	0000000000000000;
	518 :	0000000000010000;
	517 :	1111111111100110;
	516 :	1111111111110111;
	515 :	1111111111011100;
	514 :	1111111111101001;
	513 :	0000000000001110;
	512 :	0000000000010101;
	511 :	0000000000010110;
	510 :	1111111111110101;
	509 :	1111111111111110;
	508 :	1111111111001110;
	507 :	0000000001000111;
	506 :	0000000000010101;
	505 :	1111111111101001;
	504 :	1111111111101001;
	503 :	0000000000010101;
	502 :	0000000000000010;
	501 :	0000000000001001;
	500 :	1111111111110010;
	499 :	0000000000110010;
	498 :	0000000000011111;
	497 :	0000000000000000;
	496 :	1111111111110101;
	495 :	1111111111101101;
	494 :	1111111111100100;
	493 :	0000000000011111;
	492 :	1111111111110100;
	491 :	0000000000100101;
	490 :	0000000000000101;
	489 :	1111111111001111;
	488 :	0000000000010110;
	487 :	0000000000000001;
	486 :	1111111111111000;
	485 :	1111111111010110;
	484 :	1111111111001110;
	483 :	1111111111110101;
	482 :	1111111111000110;
	481 :	1111111111110100;
	480 :	0000000000110010;
	479 :	0000000000010001;
	478 :	1111111111110000;
	477 :	1111111111110101;
	476 :	0000000000011011;
	475 :	0000000000010100;
	474 :	0000000000011000;
	473 :	0000000000110110;
	472 :	1111111111110100;
	471 :	0000000000101101;
	470 :	0000000000001100;
	469 :	1111111111001011;
	468 :	0000000000101010;
	467 :	1111111111101100;
	466 :	0000000000001110;
	465 :	0000000000001110;
	464 :	1111111111011001;
	463 :	0000000000011011;
	462 :	1111111111001110;
	461 :	1111111111100001;
	460 :	0000000000011010;
	459 :	0000000000011100;
	458 :	0000000000000100;
	457 :	0000000000110010;
	456 :	0000000000011001;
	455 :	1111111111100100;
	454 :	1111111111100010;
	453 :	1111111111100101;
	452 :	0000000000100101;
	451 :	0000000000001111;
	450 :	1111111111100001;
	449 :	0000000000010011;
	448 :	1111111111110001;
	447 :	1111111111101101;
	446 :	0000000000011110;
	445 :	0000000000101100;
	444 :	1111111111101101;
	443 :	0000000000011000;
	442 :	1111111111110011;
	441 :	1111111111101011;
	440 :	1111111111101101;
	439 :	1111111111010001;
	438 :	0000000000101100;
	437 :	0000000000010111;
	436 :	1111111111100100;
	435 :	1111111111000000;
	434 :	0000000000001001;
	433 :	1111111111110111;
	432 :	1111111111111010;
	431 :	0000000000001011;
	430 :	1111111111110101;
	429 :	1111111111000011;
	428 :	0000000000011101;
	427 :	1111111111011100;
	426 :	0000000000101001;
	425 :	1111111111101110;
	424 :	0000000000001000;
	423 :	0000000000001000;
	422 :	0000000000010110;
	421 :	0000000000011001;
	420 :	0000000000000000;
	419 :	0000000000101111;
	418 :	1111111111001001;
	417 :	1111111110101011;
	416 :	1111111111100001;
	415 :	1111111111111010;
	414 :	0000000000010101;
	413 :	1111111111011101;
	412 :	1111111111010000;
	411 :	1111111111011010;
	410 :	1111111111011011;
	409 :	0000000000010110;
	408 :	0000000000010010;
	407 :	1111111111100111;
	406 :	1111111111101100;
	405 :	1111111111011111;
	404 :	1111111111100001;
	403 :	1111111111110010;
	402 :	1111111111110001;
	401 :	0000000000000011;
	400 :	0000000000101001;
	399 :	1111111111001000;
	398 :	1111111111100010;
	397 :	0000000000000110;
	396 :	0000000000001011;
	395 :	0000000000110100;
	394 :	0000000000100011;
	393 :	0000000000001011;
	392 :	1111111111000101;
	391 :	1111111111111101;
	390 :	0000000001011111;
	389 :	1111111111011111;
	388 :	0000000000101110;
	387 :	1111111111110101;
	386 :	1111111111000111;
	385 :	0000000000001110;
	384 :	0000000000001011;
	383 :	1111111111101011;
	382 :	0000000000000101;
	381 :	1111111111101000;
	380 :	1111111111010110;
	379 :	0000000000010001;
	378 :	1111111111111111;
	377 :	0000000000101000;
	376 :	1111111111111010;
	375 :	1111111111110111;
	374 :	1111111111110000;
	373 :	0000000000110011;
	372 :	1111111111111011;
	371 :	1111111111111110;
	370 :	0000000000010001;
	369 :	1111111111110001;
	368 :	0000000000000011;
	367 :	1111111111001110;
	366 :	0000000000011011;
	365 :	0000000000001000;
	364 :	0000000000010111;
	363 :	1111111111011010;
	362 :	1111111111000000;
	361 :	1111111111110111;
	360 :	0000000000110000;
	359 :	0000000000001001;
	358 :	1111111111100011;
	357 :	0000000000011101;
	356 :	0000000000110100;
	355 :	0000000001000111;
	354 :	1111111110111000;
	353 :	0000000000011001;
	352 :	1111111111000011;
	351 :	0000000000001010;
	350 :	1111111110111110;
	349 :	1111111111011110;
	348 :	0000000000010111;
	347 :	0000000000000111;
	346 :	1111111111011001;
	345 :	1111111111110100;
	344 :	0000000000000100;
	343 :	1111111111110001;
	342 :	1111111111111101;
	341 :	0000000000010111;
	340 :	1111111111000010;
	339 :	1111111111110110;
	338 :	0000000000100011;
	337 :	0000000000101001;
	336 :	0000000000000011;
	335 :	1111111111111001;
	334 :	0000000000110100;
	333 :	1111111111111111;
	332 :	0000000000000111;
	331 :	0000000000010100;
	330 :	1111111111100011;
	329 :	1111111110110101;
	328 :	1111111111111100;
	327 :	1111111111111010;
	326 :	0000000000001100;
	325 :	1111111111101100;
	324 :	1111111110101111;
	323 :	0000000000000111;
	322 :	1111111111101010;
	321 :	1111111111011100;
	320 :	1111111111110000;
	319 :	1111111111110001;
	318 :	1111111111100100;
	317 :	0000000000010101;
	316 :	1111111111101000;
	315 :	1111111111110010;
	314 :	1111111111010010;
	313 :	1111111111110001;
	312 :	0000000000001111;
	311 :	1111111111111000;
	310 :	1111111111100001;
	309 :	0000000000011101;
	308 :	1111111111101111;
	307 :	1111111111101101;
	306 :	1111111111011100;
	305 :	0000000000001010;
	304 :	0000000000001101;
	303 :	1111111111110100;
	302 :	0000000000010111;
	301 :	1111111111110000;
	300 :	1111111111011010;
	299 :	1111111111110111;
	298 :	1111111111011000;
	297 :	1111111111101011;
	296 :	1111111111111111;
	295 :	0000000000010111;
	294 :	0000000000011011;
	293 :	0000000000110010;
	292 :	1111111110111011;
	291 :	1111111111101001;
	290 :	1111111111001101;
	289 :	0000000000010000;
	288 :	0000000000011111;
	287 :	1111111111110110;
	286 :	0000000000010011;
	285 :	1111111111100101;
	284 :	1111111111101100;
	283 :	0000000000000011;
	282 :	1111111111011001;
	281 :	1111111110111110;
	280 :	1111111111100000;
	279 :	0000000000000100;
	278 :	1111111111011101;
	277 :	0000000000101011;
	276 :	1111111111011100;
	275 :	1111111111101101;
	274 :	1111111111011001;
	273 :	1111111111100111;
	272 :	1111111111100111;
	271 :	0000000000000100;
	270 :	1111111110101011;
	269 :	1111111111110010;
	268 :	0000000000010010;
	267 :	0000000000000001;
	266 :	0000000000001000;
	265 :	0000000000000001;
	264 :	1111111111101101;
	263 :	1111111111101101;
	262 :	1111111111101111;
	261 :	1111111111111101;
	260 :	1111111111110010;
	259 :	1111111111000101;
	258 :	0000000000011100;
	257 :	1111111111101110;
	256 :	0000000000101110;
	255 :	1111111111111001;
	254 :	0000000000010110;
	253 :	1111111111100111;
	252 :	1111111111111011;
	251 :	1111111111011100;
	250 :	1111111111011011;
	249 :	1111111111011110;
	248 :	1111111110101001;
	247 :	0000000000100001;
	246 :	0000000000000001;
	245 :	1111111111111110;
	244 :	1111111111000010;
	243 :	1111111111111101;
	242 :	1111111111010110;
	241 :	1111111111101110;
	240 :	0000000000111110;
	239 :	1111111111010101;
	238 :	1111111110110101;
	237 :	0000000000000011;
	236 :	0000000000000000;
	235 :	0000000000000110;
	234 :	0000000000110100;
	233 :	1111111111110100;
	232 :	1111111111101100;
	231 :	1111111111101010;
	230 :	1111111111010010;
	229 :	1111111111100100;
	228 :	0000000000000111;
	227 :	1111111111111011;
	226 :	0000000001010010;
	225 :	0000000000010010;
	224 :	1111111111011010;
	223 :	0000000000001111;
	222 :	1111111111001000;
	221 :	0000000000011110;
	220 :	0000000000010111;
	219 :	1111111111100010;
	218 :	1111111111101100;
	217 :	1111111111100101;
	216 :	1111111111110000;
	215 :	0000000000110000;
	214 :	0000000001010010;
	213 :	0000000000000111;
	212 :	1111111111010001;
	211 :	1111111111001000;
	210 :	0000000000010110;
	209 :	0000000000011000;
	208 :	1111111111111011;
	207 :	0000000000110010;
	206 :	0000000000010010;
	205 :	1111111111110011;
	204 :	1111111111101111;
	203 :	1111111111111000;
	202 :	1111111111110100;
	201 :	1111111111011010;
	200 :	0000000000000011;
	199 :	0000000000010011;
	198 :	1111111111111010;
	197 :	0000000000100000;
	196 :	1111111111101010;
	195 :	1111111111101001;
	194 :	1111111111110000;
	193 :	0000000000010110;
	192 :	0000000000001100;
	191 :	0000000000001010;
	190 :	0000000000111001;
	189 :	0000000000101111;
	188 :	0000000000101100;
	187 :	1111111111111000;
	186 :	0000000000010000;
	185 :	0000000000010100;
	184 :	1111111111011110;
	183 :	0000000000010111;
	182 :	0000000000100111;
	181 :	1111111111011010;
	180 :	1111111111100011;
	179 :	1111111111110011;
	178 :	0000000000000111;
	177 :	1111111111111000;
	176 :	1111111111110010;
	175 :	1111111111110101;
	174 :	1111111111111111;
	173 :	0000000000010111;
	172 :	1111111111011110;
	171 :	1111111110100110;
	170 :	1111111111010111;
	169 :	1111111111100001;
	168 :	0000000000010110;
	167 :	0000000000100000;
	166 :	0000000001000010;
	165 :	1111111111110010;
	164 :	1111111111100010;
	163 :	0000000000001110;
	162 :	1111111111110001;
	161 :	0000000000001011;
	160 :	0000000000010010;
	159 :	1111111111011010;
	158 :	1111111111011100;
	157 :	0000000000001100;
	156 :	1111111110101110;
	155 :	1111111110111010;
	154 :	1111111111001110;
	153 :	1111111111110010;
	152 :	1111111111101011;
	151 :	1111111111011111;
	150 :	0000000000101111;
	149 :	0000000001010011;
	148 :	0000000000010011;
	147 :	0000000001010011;
	146 :	0000000000000001;
	145 :	1111111111110111;
	144 :	1111111111010000;
	143 :	1111111111001001;
	142 :	1111111111111011;
	141 :	1111111111100011;
	140 :	0000000000101111;
	139 :	0000000000010000;
	138 :	1111111111011010;
	137 :	1111111111110001;
	136 :	1111111111101010;
	135 :	1111111111110000;
	134 :	1111111111010101;
	133 :	0000000000001100;
	132 :	1111111111111101;
	131 :	0000000000001001;
	130 :	0000000000101001;
	129 :	1111111111111011;
	128 :	1111111111110000;
	127 :	1111111111110000;
	126 :	1111111111001001;
	125 :	0000000000011011;
	124 :	1111111111011110;
	123 :	1111111111110101;
	122 :	0000000000110100;
	121 :	0000000000101010;
	120 :	0000000000010110;
	119 :	1111111111111101;
	118 :	0000000000100101;
	117 :	0000000000100111;
	116 :	1111111111100000;
	115 :	1111111111011100;
	114 :	1111111111000011;
	113 :	1111111111010001;
	112 :	1111111111111110;
	111 :	1111111111011011;
	110 :	0000000000010011;
	109 :	1111111111010101;
	108 :	1111111111111101;
	107 :	0000000000001110;
	106 :	1111111111011101;
	105 :	0000000000100011;
	104 :	0000000000101011;
	103 :	1111111111111011;
	102 :	1111111111010000;
	101 :	0000000000000000;
	100 :	1111111111110001;
	99 :	0000000000010111;
	98 :	1111111111100111;
	97 :	0000000000101101;
	96 :	1111111110111011;
	95 :	1111111111110111;
	94 :	0000000000000000;
	93 :	0000000000001010;
	92 :	0000000000011001;
	91 :	0000000000101111;
	90 :	1111111111110000;
	89 :	1111111111010001;
	88 :	0000000000110101;
	87 :	1111111111111110;
	86 :	1111111111101100;
	85 :	1111111111010011;
	84 :	0000000000010011;
	83 :	0000000000111010;
	82 :	0000000000110001;
	81 :	0000000000000000;
	80 :	0000000000011111;
	79 :	1111111111110010;
	78 :	0000000000010001;
	77 :	1111111111001100;
	76 :	1111111111110000;
	75 :	0000000000011101;
	74 :	0000000000010010;
	73 :	0000000000001010;
	72 :	0000000000101101;
	71 :	0000000000101001;
	70 :	0000000000011011;
	69 :	1111111111100101;
	68 :	0000000000100110;
	67 :	1111111111011100;
	66 :	0000000000001110;
	65 :	0000000000011100;
	64 :	0000000000000001;
	63 :	1111111111010100;
	62 :	0000000000000000;
	61 :	0000000000001011;
	60 :	0000000000100010;
	59 :	0000000000100100;
	58 :	0000000000101010;
	57 :	1111111111100111;
	56 :	1111111111011111;
	55 :	1111111111111011;
	54 :	1111111111011101;
	53 :	1111111111111110;
	52 :	0000000000000110;
	51 :	1111111111110111;
	50 :	1111111111100111;
	49 :	1111111111010000;
	48 :	1111111111000111;
	47 :	0000000000010000;
	46 :	1111111111010100;
	45 :	0000000000011011;
	44 :	0000000000100101;
	43 :	0000000000011101;
	42 :	0000000001000000;
	41 :	0000000000010001;
	40 :	1111111111010000;
	39 :	0000000000100010;
	38 :	1111111111111110;
	37 :	1111111111010001;
	36 :	0000000000011100;
	35 :	0000000000001110;
	34 :	0000000000100011;
	33 :	1111111111011010;
	32 :	0000000000100100;
	31 :	0000000000000110;
	30 :	1111111111010101;
	29 :	1111111111110110;
	28 :	1111111111101000;
	27 :	0000000000111100;
	26 :	0000000000100010;
	25 :	0000000001000001;
	24 :	1111111111110010;
	23 :	1111111111011100;
	22 :	1111111111100010;
	21 :	0000000000101100;
	20 :	1111111111110111;
	19 :	0000000000111100;
	18 :	1111111111000001;
	17 :	1111111111110000;
	16 :	0000000000110111;
	15 :	1111111111011100;
	14 :	0000000000010110;
	13 :	0000000000100101;
	12 :	1111111111101010;
	11 :	1111111111101101;
	10 :	0000000000000110;
	9 :	1111111111110011;
	8 :	1111111111100000;
	7 :	0000000000011111;
	6 :	1111111111111110;
	5 :	0000000000001110;
	4 :	1111111111101011;
	3 :	1111111111101010;
	2 :	0000000000100010;
	1 :	0000000000000000;
	0 :	0000000000101010;
END;
