-- begin_signature
-- Weight_Memory(numWeight
-- 30
-- neuronNo
-- 15
-- layerNo
-- 2
-- addressWidth
-- 5
-- dataWidth
-- 16
-- weightFile
-- "w_2_15.mif")
-- end_signature
WIDTH=16;
DEPTH=30;

ADDRESS_RADIX=UNS;
DATA_RADIX=BIN;

CONTENT BEGIN
	29 :	0000000000101111;
	28 :	0000010011011010;
	27 :	0000000000101010;
	26 :	0000010011101111;
	25 :	1111110111010000;
	24 :	0000011011001011;
	23 :	1111101100001100;
	22 :	0000000111010011;
	21 :	1111110111000100;
	20 :	1111101110010100;
	19 :	0000001000111101;
	18 :	1111110011010101;
	17 :	1111111101010001;
	16 :	1111100010000010;
	15 :	0000000010001110;
	14 :	1111111011001110;
	13 :	0000000000111100;
	12 :	0000000110111010;
	11 :	1111101001011010;
	10 :	1111111111001111;
	9 :	1111011001010010;
	8 :	1111110100100111;
	7 :	1111011111110010;
	6 :	0000000011100100;
	5 :	0000010101110110;
	4 :	1111111100111000;
	3 :	0000000100001001;
	2 :	1111110101000011;
	1 :	1111011111111001;
	0 :	0000000100011111;
END;
