-- begin_signature
-- Weight_Memory(numWeight
-- 30
-- neuronNo
-- 7
-- layerNo
-- 2
-- addressWidth
-- 5
-- dataWidth
-- 16
-- weightFile
-- "w_2_7.hex")
-- end_signature
WIDTH=16;
DEPTH=30;

ADDRESS_RADIX=UNS;
DATA_RADIX=BIN;

CONTENT BEGIN
	29 :	0000000000101100;
	28 :	1111011011111111;
	27 :	0000000001101001;
	26 :	1111111101111010;
	25 :	1111111111111111;
	24 :	1111110010110001;
	23 :	1111100011110010;
	22 :	1111111111010111;
	21 :	0000010011001011;
	20 :	0000000100010101;
	19 :	1111111101101000;
	18 :	0000010010110101;
	17 :	1111100001101001;
	16 :	0000010001011010;
	15 :	1111100110010010;
	14 :	1111110010100000;
	13 :	1111111011010101;
	12 :	1111111010001011;
	11 :	1111111001001100;
	10 :	1111111010101100;
	9 :	0000011010101111;
	8 :	1111101110001101;
	7 :	0000011010101110;
	6 :	1111111100010110;
	5 :	1111111010011100;
	4 :	1111111101010010;
	3 :	1111111110101110;
	2 :	0000010000001110;
	1 :	0000001111100001;
	0 :	1111111110110110;
END;
