-- begin_signature
-- Weight_Memory(numWeight
-- 30
-- neuronNo
-- 8
-- layerNo
-- 3
-- addressWidth
-- 5
-- dataWidth
-- 16
-- weightFile
-- "w_3_8.mif")
-- end_signature
WIDTH=16;
DEPTH=30;

ADDRESS_RADIX=UNS;
DATA_RADIX=BIN;

CONTENT BEGIN
	29 :	1111111000100011;
	28 :	0000000001001111;
	27 :	1111111110011010;
	26 :	0000000000000011;
	25 :	0000000001000101;
	24 :	0000000101000111;
	23 :	0000000001101110;
	22 :	1111110011010100;
	21 :	1111111111101011;
	20 :	1111111100010000;
	19 :	0000000000100001;
	18 :	1111111111010001;
	17 :	1111111111111100;
	16 :	1111111100100101;
	15 :	1111111110111011;
	14 :	0000000001100011;
	13 :	0000000011001100;
	12 :	1111111111011000;
	11 :	1111111011111000;
	10 :	1111111111011101;
	9 :	1111111101101100;
	8 :	1111111111100101;
	7 :	0000000000111111;
	6 :	1111111011011100;
	5 :	1111110110101100;
	4 :	1111111110000110;
	3 :	0000000010001011;
	2 :	0000000000001001;
	1 :	1111111010001111;
	0 :	1111111100001111;
END;
