-- begin_signature
-- neuron(layerNo
-- 3
-- neuronNo
-- 7
-- numWeight
-- 30
-- dataWidth
-- 16
-- sigmoidSize
-- 5
-- weightIntWidth
-- 4
-- actType
-- "relu"
-- biasFile
-- "b_3_7.mif"
-- weightFile
-- "w_3_7.mif")
-- end_signature
WIDTH=32;
DEPTH=1;

ADDRESS_RADIX=UNS;
DATA_RADIX=BIN;

CONTENT BEGIN
	0 :	00000000000000000000101000100101;
END;
