-- begin_signature
-- neuron(layerNo
-- 1
-- neuronNo
-- 7
-- numWeight
-- 784
-- dataWidth
-- 16
-- sigmoidSize
-- 5
-- weightIntWidth
-- 4
-- actType
-- "relu"
-- biasFile
-- "b_1_7.hex"
-- weightFile
-- "w_1_7.hex")
-- end_signature
WIDTH=32;
DEPTH=1;

ADDRESS_RADIX=UNS;
DATA_RADIX=BIN;

CONTENT BEGIN
	0 :	00000000000000000000010010001011;
END;
