-- begin_signature
-- Weight_Memory(numWeight
-- 784
-- neuronNo
-- 11
-- layerNo
-- 1
-- addressWidth
-- 10
-- dataWidth
-- 16
-- weightFile
-- "w_1_11.mif")
-- end_signature
WIDTH=16;
DEPTH=784;

ADDRESS_RADIX=UNS;
DATA_RADIX=BIN;

CONTENT BEGIN
	783 :	0000000000111000;
	782 :	1111111111111111;
	781 :	0000000000001000;
	780 :	1111111111101110;
	779 :	0000000000101100;
	778 :	0000000000100000;
	777 :	0000000000000101;
	776 :	0000000000000011;
	775 :	0000000000000011;
	774 :	0000000000010011;
	773 :	1111111111101111;
	772 :	0000000000000111;
	771 :	0000000000001100;
	770 :	0000000000100101;
	769 :	0000000000000101;
	768 :	0000000000110101;
	767 :	1111111111011111;
	766 :	0000000000000110;
	765 :	1111111111101010;
	764 :	1111111111110111;
	763 :	0000000000011001;
	762 :	1111111111011011;
	761 :	0000000000000010;
	760 :	0000000000000010;
	759 :	1111111111011110;
	758 :	0000000000100011;
	757 :	1111111111110101;
	756 :	1111111111110001;
	755 :	0000000000000001;
	754 :	1111111111110010;
	753 :	0000000000100000;
	752 :	0000000000100010;
	751 :	0000000000000000;
	750 :	1111111111101011;
	749 :	1111111110111010;
	748 :	0000000000001000;
	747 :	1111111111000101;
	746 :	1111111101110001;
	745 :	1111111101111110;
	744 :	1111111110010001;
	743 :	1111111101000000;
	742 :	1111111101010100;
	741 :	1111111101101100;
	740 :	1111111101110011;
	739 :	1111111101111110;
	738 :	1111111111110011;
	737 :	1111111111000010;
	736 :	0000000000001000;
	735 :	1111111111000110;
	734 :	1111111111100111;
	733 :	0000000000010110;
	732 :	0000000000011001;
	731 :	0000000000011010;
	730 :	1111111111101010;
	729 :	1111111111011101;
	728 :	1111111111011111;
	727 :	0000000000011100;
	726 :	1111111111011110;
	725 :	0000000000010000;
	724 :	1111111111111010;
	723 :	0000000000000010;
	722 :	1111111111001000;
	721 :	1111111110101001;
	720 :	1111111111001011;
	719 :	1111111100011110;
	718 :	1111111010011011;
	717 :	0000000000010111;
	716 :	0000000000000100;
	715 :	0000000001010111;
	714 :	1111111111100000;
	713 :	1111111100011010;
	712 :	1111111011000010;
	711 :	1111111010110010;
	710 :	0000000000010101;
	709 :	0000000011010001;
	708 :	0000000010111100;
	707 :	1111111111111100;
	706 :	0000000001001011;
	705 :	0000000000011110;
	704 :	1111111111001000;
	703 :	0000000001001000;
	702 :	1111111111110100;
	701 :	0000000000011000;
	700 :	0000000000000110;
	699 :	1111111111111111;
	698 :	1111111111011011;
	697 :	0000000001000010;
	696 :	0000000011001100;
	695 :	0000000110000110;
	694 :	0000001011011100;
	693 :	0000010000000100;
	692 :	0000001000010011;
	691 :	0000000111011001;
	690 :	0000001001001110;
	689 :	0000000111111010;
	688 :	0000000000011110;
	687 :	0000000001011010;
	686 :	0000000011100001;
	685 :	1111111010101001;
	684 :	0000000000101011;
	683 :	0000000001001101;
	682 :	1111111100110100;
	681 :	1111111101010100;
	680 :	1111111100001001;
	679 :	1111111011110011;
	678 :	1111111100100100;
	677 :	1111111100101011;
	676 :	1111111111001101;
	675 :	1111111111001011;
	674 :	1111111111011010;
	673 :	0000000000000111;
	672 :	0000000000110111;
	671 :	1111111111110000;
	670 :	0000000000111100;
	669 :	0000000011001011;
	668 :	0000000011101100;
	667 :	0000000101001001;
	666 :	0000001001000100;
	665 :	0000001111000101;
	664 :	0000001011110110;
	663 :	0000001001010001;
	662 :	0000000100100001;
	661 :	0000000001010101;
	660 :	0000000000100010;
	659 :	1111111010001000;
	658 :	0000000100110011;
	657 :	0000000010100011;
	656 :	0000000101010111;
	655 :	0000000011111101;
	654 :	0000000011111001;
	653 :	0000001000101100;
	652 :	0000000010110111;
	651 :	0000000011010011;
	650 :	0000001011011101;
	649 :	0000000110001101;
	648 :	0000000001011100;
	647 :	1111111111000100;
	646 :	1111111111111100;
	645 :	0000000000100000;
	644 :	1111111111011111;
	643 :	1111111111100101;
	642 :	1111111111101100;
	641 :	0000000010100101;
	640 :	0000000011011000;
	639 :	0000000010010000;
	638 :	0000000100100011;
	637 :	0000000100000101;
	636 :	0000000111111010;
	635 :	0000000101111000;
	634 :	0000010001000111;
	633 :	0000000111010011;
	632 :	0000001100010011;
	631 :	1111111100011100;
	630 :	0000000100000010;
	629 :	1111111001101110;
	628 :	0000000001111010;
	627 :	0000000001100001;
	626 :	1111111100001101;
	625 :	0000001000110111;
	624 :	0000001001100110;
	623 :	1111111111111101;
	622 :	0000000000100101;
	621 :	0000000111111110;
	620 :	0000001001110110;
	619 :	0000000110110011;
	618 :	0000000100011000;
	617 :	1111111111110110;
	616 :	1111111110111010;
	615 :	0000000000001001;
	614 :	0000000001000010;
	613 :	0000000100001100;
	612 :	0000000110011011;
	611 :	0000000111100011;
	610 :	0000000101010111;
	609 :	1111111111011111;
	608 :	0000000011001110;
	607 :	0000000100001100;
	606 :	0000000101110100;
	605 :	0000010000000110;
	604 :	0000001100011100;
	603 :	0000001000010011;
	602 :	0000000110000110;
	601 :	0000000011001010;
	600 :	0000000100100011;
	599 :	0000001011000001;
	598 :	0000000001100111;
	597 :	0000001011101000;
	596 :	1111111100001101;
	595 :	1111111100010000;
	594 :	1111111111001111;
	593 :	0000000110010101;
	592 :	0000001100000000;
	591 :	0000001100001010;
	590 :	0000000110101100;
	589 :	1111111111010110;
	588 :	1111111111100001;
	587 :	0000000000100011;
	586 :	0000000000010100;
	585 :	0000000001100001;
	584 :	1111111101101010;
	583 :	0000000011010100;
	582 :	0000000010010100;
	581 :	0000001101111001;
	580 :	0000010001100100;
	579 :	0000000111011111;
	578 :	0000000011001000;
	577 :	0000001100011101;
	576 :	0000001101010110;
	575 :	0000001101100101;
	574 :	1111111100000111;
	573 :	0000001010011010;
	572 :	0000001011101000;
	571 :	0000001100001000;
	570 :	0000001100010100;
	569 :	0000001100111101;
	568 :	0000001010111111;
	567 :	0000001010000010;
	566 :	0000001101100001;
	565 :	0000001010110110;
	564 :	0000001101110100;
	563 :	0000001011111101;
	562 :	0000000010001011;
	561 :	1111111111101101;
	560 :	0000000000011110;
	559 :	0000000000101010;
	558 :	0000000000010110;
	557 :	0000000010000101;
	556 :	1111111010010111;
	555 :	1111111110001101;
	554 :	0000000100111010;
	553 :	0000001000000010;
	552 :	0000000111111011;
	551 :	1111110111110010;
	550 :	0000000001100111;
	549 :	1111111111000001;
	548 :	1111111011000010;
	547 :	1111111001101111;
	546 :	0000000000111011;
	545 :	0000001010001011;
	544 :	0000001010010000;
	543 :	0000000110000110;
	542 :	0000001000100101;
	541 :	0000001010101001;
	540 :	0000000001110100;
	539 :	0000000100000111;
	538 :	0000000100101011;
	537 :	1111111110101111;
	536 :	0000001010000001;
	535 :	0000000011100000;
	534 :	0000000001011000;
	533 :	1111111110101110;
	532 :	1111111111111010;
	531 :	1111111111101111;
	530 :	1111111111110011;
	529 :	0000000011100010;
	528 :	0000000011101101;
	527 :	0000000100111000;
	526 :	0000000001000101;
	525 :	1111111000001100;
	524 :	1111101110110011;
	523 :	1111100111001110;
	522 :	1111110010011001;
	521 :	1111110100100001;
	520 :	1111111011111101;
	519 :	1111110011111000;
	518 :	1111110100010000;
	517 :	1111110110011101;
	516 :	0000000110111001;
	515 :	1111111101011101;
	514 :	0000000110110101;
	513 :	0000000110000001;
	512 :	0000001000000001;
	511 :	0000001000010111;
	510 :	0000000100111111;
	509 :	0000000000100010;
	508 :	0000000000000010;
	507 :	1111111111110100;
	506 :	0000000000001101;
	505 :	1111111111100110;
	504 :	0000000000001100;
	503 :	1111111111010100;
	502 :	0000000001000100;
	501 :	0000000100110101;
	500 :	0000000011010000;
	499 :	1111110110000010;
	498 :	1111101011011001;
	497 :	1111100110000101;
	496 :	1111100000000000;
	495 :	1111101000101111;
	494 :	1111110010010110;
	493 :	1111111000111000;
	492 :	1111111100111010;
	491 :	1111111001101001;
	490 :	1111110110000000;
	489 :	0000000001000110;
	488 :	0000000100001100;
	487 :	1111111110110011;
	486 :	1111111111100111;
	485 :	1111111111000011;
	484 :	0000000110011010;
	483 :	0000000000101011;
	482 :	1111111001010010;
	481 :	1111111010000100;
	480 :	1111111100101101;
	479 :	0000000010000001;
	478 :	0000000000000101;
	477 :	0000000000100010;
	476 :	1111111111001011;
	475 :	1111111111110010;
	474 :	0000000000110111;
	473 :	0000000000100100;
	472 :	1111110110110001;
	471 :	1111101110111101;
	470 :	1111100011111101;
	469 :	1111100101010111;
	468 :	1111101110001011;
	467 :	1111111001000101;
	466 :	1111110110110110;
	465 :	1111111011010000;
	464 :	0000000000000100;
	463 :	1111110110010100;
	462 :	1111111100110011;
	461 :	0000000001100001;
	460 :	0000000111000110;
	459 :	1111111101011101;
	458 :	0000000100010101;
	457 :	1111111111011010;
	456 :	1111111010110111;
	455 :	1111110111000001;
	454 :	1111110101100101;
	453 :	1111110100111010;
	452 :	1111111101010010;
	451 :	1111111111110100;
	450 :	1111111111001110;
	449 :	1111111111111001;
	448 :	0000000000100111;
	447 :	0000000000010110;
	446 :	0000000000110110;
	445 :	1111111111011000;
	444 :	1111110100101010;
	443 :	1111101100110110;
	442 :	1111100100100001;
	441 :	1111110010110001;
	440 :	1111111111000010;
	439 :	0000000000110001;
	438 :	1111111001111100;
	437 :	1111110011111100;
	436 :	1111111110001010;
	435 :	1111110110000011;
	434 :	1111110111011011;
	433 :	1111111100010001;
	432 :	1111110110011010;
	431 :	1111111001010001;
	430 :	1111111101010110;
	429 :	1111111001000011;
	428 :	1111110000110111;
	427 :	1111101100001111;
	426 :	1111101110110101;
	425 :	1111110011001100;
	424 :	1111111011010010;
	423 :	0000000000101111;
	422 :	1111111111100110;
	421 :	1111111111110101;
	420 :	1111111111101111;
	419 :	0000000000001011;
	418 :	0000000001010110;
	417 :	1111111110111111;
	416 :	1111111000000001;
	415 :	1111110000000101;
	414 :	1111101111010001;
	413 :	1111110011110110;
	412 :	0000000010001111;
	411 :	1111111100000110;
	410 :	1111111010100110;
	409 :	1111110101110101;
	408 :	1111111100011110;
	407 :	1111110110011111;
	406 :	1111111001000100;
	405 :	1111110001100010;
	404 :	1111111001010011;
	403 :	1111101111100001;
	402 :	1111101101110001;
	401 :	1111100111100010;
	400 :	1111101011110001;
	399 :	1111101011110010;
	398 :	1111110000111101;
	397 :	1111110010011011;
	396 :	1111111011010111;
	395 :	0000000000001000;
	394 :	1111111111101000;
	393 :	1111111111011101;
	392 :	0000000000000001;
	391 :	1111111111101100;
	390 :	1111111111100110;
	389 :	1111111111111111;
	388 :	1111111010011010;
	387 :	1111110111011011;
	386 :	1111110101100001;
	385 :	1111111010100100;
	384 :	1111111110111001;
	383 :	1111111110000000;
	382 :	1111111000110010;
	381 :	1111111110101100;
	380 :	1111111011001111;
	379 :	1111110110000101;
	378 :	1111110111110101;
	377 :	1111111000100000;
	376 :	1111101100000110;
	375 :	1111101111100011;
	374 :	1111110101000101;
	373 :	1111110001101010;
	372 :	1111110001101110;
	371 :	1111101100001010;
	370 :	1111110101000001;
	369 :	1111111100010000;
	368 :	1111111100100011;
	367 :	0000000000111010;
	366 :	1111111111110100;
	365 :	0000000000010010;
	364 :	1111111111110110;
	363 :	0000000000101000;
	362 :	1111111111000111;
	361 :	1111111111110110;
	360 :	1111111101010111;
	359 :	1111111011110110;
	358 :	1111110110111110;
	357 :	1111111101011100;
	356 :	1111110101100000;
	355 :	1111111100000100;
	354 :	1111111101010000;
	353 :	1111111110100000;
	352 :	1111111010101100;
	351 :	1111111000001000;
	350 :	1111110001111011;
	349 :	1111101111000011;
	348 :	1111110010001111;
	347 :	1111111001111001;
	346 :	1111111001001011;
	345 :	1111111101001010;
	344 :	1111111111010010;
	343 :	1111111001001010;
	342 :	1111111101110111;
	341 :	0000000000000001;
	340 :	1111111111111001;
	339 :	0000000000101101;
	338 :	1111111111000100;
	337 :	1111111111111110;
	336 :	1111111111110100;
	335 :	0000000000011101;
	334 :	0000000000010000;
	333 :	1111111111101100;
	332 :	1111111101000010;
	331 :	1111111101110111;
	330 :	1111111011001011;
	329 :	0000000110010010;
	328 :	1111111010011101;
	327 :	1111111101100101;
	326 :	1111111011100100;
	325 :	1111111000000110;
	324 :	0000000100111110;
	323 :	1111111001101000;
	322 :	1111111010000110;
	321 :	1111111000110111;
	320 :	1111111101010101;
	319 :	0000000000011111;
	318 :	1111111001111001;
	317 :	1111111100010001;
	316 :	1111110111110000;
	315 :	1111111110101111;
	314 :	0000000111001100;
	313 :	0000000101100011;
	312 :	0000000000101101;
	311 :	1111111111001000;
	310 :	1111111111101100;
	309 :	0000000000000100;
	308 :	0000000000001111;
	307 :	0000000000001110;
	306 :	1111111111111000;
	305 :	0000000000000000;
	304 :	1111111110010011;
	303 :	1111111111101011;
	302 :	1111111010010011;
	301 :	0000000101000001;
	300 :	0000000010001110;
	299 :	1111111110110111;
	298 :	0000000010010111;
	297 :	0000001101011100;
	296 :	0000000011001011;
	295 :	0000000010101000;
	294 :	1111111001110111;
	293 :	0000000011000110;
	292 :	0000000001010110;
	291 :	1111111011011111;
	290 :	1111111101011111;
	289 :	1111111001100001;
	288 :	1111111101101100;
	287 :	0000000101000000;
	286 :	0000000001110100;
	285 :	0000000011001000;
	284 :	0000000001101001;
	283 :	1111111101111011;
	282 :	0000000000011000;
	281 :	1111111111001101;
	280 :	1111111111110110;
	279 :	0000000000001101;
	278 :	1111111111100100;
	277 :	1111111110110111;
	276 :	1111111011001000;
	275 :	0000000000001010;
	274 :	1111111010011010;
	273 :	0000000001011100;
	272 :	1111111100010110;
	271 :	0000000110101110;
	270 :	0000000101000000;
	269 :	0000000011100111;
	268 :	0000000110101011;
	267 :	0000000110100010;
	266 :	1111111111011000;
	265 :	1111111010100001;
	264 :	0000000101010010;
	263 :	1111111101100010;
	262 :	0000000011000111;
	261 :	0000000100011001;
	260 :	1111111100011100;
	259 :	1111111101101100;
	258 :	1111110110101111;
	257 :	0000001101000110;
	256 :	0000000101101010;
	255 :	1111111011110000;
	254 :	0000000001010001;
	253 :	1111111111111010;
	252 :	1111111111111000;
	251 :	0000000000000010;
	250 :	0000000000011000;
	249 :	1111111110000001;
	248 :	1111111011010110;
	247 :	0000000011010110;
	246 :	1111111100111111;
	245 :	1111111110001111;
	244 :	0000000110001000;
	243 :	0000000001011100;
	242 :	1111110100010101;
	241 :	0000000010101100;
	240 :	1111111101000000;
	239 :	1111111100100011;
	238 :	0000000010010011;
	237 :	1111111100111110;
	236 :	1111111010101101;
	235 :	0000000011000100;
	234 :	0000000000110101;
	233 :	1111111100100110;
	232 :	0000000010001111;
	231 :	1111111100110110;
	230 :	1111111011101010;
	229 :	0000000111110110;
	228 :	0000001010010111;
	227 :	1111111111110000;
	226 :	1111111110100011;
	225 :	0000000000101101;
	224 :	0000000000110101;
	223 :	1111111111111011;
	222 :	1111111111011111;
	221 :	1111111111011001;
	220 :	1111111110101101;
	219 :	1111111110001010;
	218 :	0000000000111001;
	217 :	0000000011001101;
	216 :	1111111111110001;
	215 :	1111111100000000;
	214 :	0000000101010010;
	213 :	1111111000010110;
	212 :	0000000100001010;
	211 :	0000000000111011;
	210 :	0000000001011011;
	209 :	0000001000110010;
	208 :	0000000001010100;
	207 :	0000000100110110;
	206 :	0000000100010111;
	205 :	0000000000110100;
	204 :	0000001010111001;
	203 :	0000000000110000;
	202 :	1111111000011011;
	201 :	0000000010110110;
	200 :	0000000010111111;
	199 :	1111111111011011;
	198 :	1111111111010011;
	197 :	0000000000011010;
	196 :	0000000000001000;
	195 :	1111111111110011;
	194 :	1111111111110101;
	193 :	1111111111010010;
	192 :	1111111111010100;
	191 :	1111111101101011;
	190 :	0000000001000110;
	189 :	1111111111011101;
	188 :	1111111100100110;
	187 :	0000000011111011;
	186 :	0000000100011000;
	185 :	1111111110001100;
	184 :	1111111111101100;
	183 :	0000000000101001;
	182 :	0000010000111110;
	181 :	0000000001110010;
	180 :	0000000001100100;
	179 :	0000000000111100;
	178 :	0000000101001110;
	177 :	0000000010000110;
	176 :	1111111111000101;
	175 :	1111111101110001;
	174 :	1111111100101011;
	173 :	0000000000000001;
	172 :	1111111111010011;
	171 :	1111111111111000;
	170 :	0000000000100001;
	169 :	0000000000011000;
	168 :	0000000000100101;
	167 :	0000000000100001;
	166 :	0000000010010011;
	165 :	0000000011111110;
	164 :	1111111111100101;
	163 :	1111111101010011;
	162 :	1111111011011000;
	161 :	1111111111001010;
	160 :	1111111000000000;
	159 :	1111111011101010;
	158 :	0000000110101101;
	157 :	0000000000011110;
	156 :	1111111111101100;
	155 :	1111110110001100;
	154 :	1111111010001110;
	153 :	0000000011000010;
	152 :	0000000001011110;
	151 :	0000000010011100;
	150 :	0000000001001110;
	149 :	1111111111011111;
	148 :	0000000011001000;
	147 :	1111111001000100;
	146 :	1111110111100010;
	145 :	1111111011000000;
	144 :	1111111110111001;
	143 :	1111111110110110;
	142 :	0000000000101010;
	141 :	1111111111100011;
	140 :	0000000000011111;
	139 :	0000000000111011;
	138 :	0000000000011010;
	137 :	0000000000101011;
	136 :	1111111110011010;
	135 :	1111111101010011;
	134 :	1111111100111110;
	133 :	1111111010001111;
	132 :	0000000010011011;
	131 :	0000000000000001;
	130 :	0000000011111110;
	129 :	0000000001101010;
	128 :	1111111011010100;
	127 :	0000000010010100;
	126 :	0000001010001001;
	125 :	0000001010001001;
	124 :	0000000010100010;
	123 :	1111111011001101;
	122 :	1111111110010010;
	121 :	1111111100001011;
	120 :	1111110110110110;
	119 :	1111111101000110;
	118 :	1111111011110001;
	117 :	1111111101110010;
	116 :	0000000000101011;
	115 :	0000000000100111;
	114 :	0000000000001111;
	113 :	0000000000101001;
	112 :	1111111111111000;
	111 :	1111111111101110;
	110 :	1111111110010101;
	109 :	0000000000110000;
	108 :	1111111111111101;
	107 :	0000000000011111;
	106 :	0000000010000010;
	105 :	1111111111011011;
	104 :	1111111000001101;
	103 :	1111111100101111;
	102 :	0000000000110011;
	101 :	0000000010100001;
	100 :	0000000011000110;
	99 :	0000000111001110;
	98 :	0000000101111010;
	97 :	0000000110001001;
	96 :	0000000100111100;
	95 :	0000000100110111;
	94 :	0000000111010011;
	93 :	0000000000011001;
	92 :	1111111100011110;
	91 :	1111111110010100;
	90 :	1111111110010110;
	89 :	1111111110110110;
	88 :	1111111111110100;
	87 :	0000000000100011;
	86 :	0000000000100111;
	85 :	1111111111111111;
	84 :	0000000000010101;
	83 :	0000000000000010;
	82 :	0000000000000000;
	81 :	1111111111110110;
	80 :	0000000000100010;
	79 :	1111111111111110;
	78 :	0000000000010111;
	77 :	1111111111110000;
	76 :	0000000000001001;
	75 :	0000000000010110;
	74 :	0000000000101110;
	73 :	1111111111100101;
	72 :	1111111101111110;
	71 :	0000000000000111;
	70 :	0000000111101010;
	69 :	0000000111011010;
	68 :	0000000100111010;
	67 :	0000000010001000;
	66 :	0000000010110001;
	65 :	0000000000110011;
	64 :	1111111111110000;
	63 :	0000000000001000;
	62 :	0000000000101100;
	61 :	0000000000010010;
	60 :	1111111111101101;
	59 :	0000000000011000;
	58 :	0000000000100010;
	57 :	0000000000101011;
	56 :	0000000000000101;
	55 :	0000000000010001;
	54 :	0000000000101100;
	53 :	0000000000010100;
	52 :	0000000000001011;
	51 :	1111111111101111;
	50 :	1111111111101011;
	49 :	1111111111110110;
	48 :	1111111111010101;
	47 :	0000000000111000;
	46 :	1111111111101110;
	45 :	1111111111110010;
	44 :	1111111111110100;
	43 :	1111111111100101;
	42 :	0000000000001100;
	41 :	1111111111011011;
	40 :	1111111111101000;
	39 :	1111111111110101;
	38 :	0000000000000110;
	37 :	1111111111101000;
	36 :	1111111111110110;
	35 :	1111111111111100;
	34 :	1111111111011110;
	33 :	1111111111110010;
	32 :	0000000000011101;
	31 :	1111111111101110;
	30 :	1111111110111000;
	29 :	0000000000000100;
	28 :	0000000000000000;
	27 :	1111111111110110;
	26 :	1111111111011110;
	25 :	0000000000001110;
	24 :	1111111111010011;
	23 :	0000000000100001;
	22 :	0000000000001101;
	21 :	0000000000101001;
	20 :	0000000001000000;
	19 :	0000000000000111;
	18 :	0000000000001100;
	17 :	1111111111100010;
	16 :	0000000000010101;
	15 :	1111111111110011;
	14 :	0000000000000111;
	13 :	1111111111110110;
	12 :	0000000000011000;
	11 :	1111111111001000;
	10 :	1111111111110110;
	9 :	1111111111101001;
	8 :	0000000000000001;
	7 :	0000000000110001;
	6 :	0000000000000100;
	5 :	1111111111000011;
	4 :	0000000000011111;
	3 :	0000000000110111;
	2 :	0000000001011000;
	1 :	0000000000000110;
	0 :	0000000000010101;
END;
