-- begin_signature
-- Weight_Memory(numWeight
-- 30
-- neuronNo
-- 5
-- layerNo
-- 3
-- addressWidth
-- 5
-- dataWidth
-- 16
-- weightFile
-- "w_3_5.mif")
-- end_signature
WIDTH=16;
DEPTH=30;

ADDRESS_RADIX=UNS;
DATA_RADIX=BIN;

CONTENT BEGIN
	29 :	1111111111011111;
	28 :	1111111101100010;
	27 :	0000000001011111;
	26 :	0000000010010010;
	25 :	1111111101101100;
	24 :	0000000001111001;
	23 :	0000000000101001;
	22 :	1111111111010101;
	21 :	1111111110000110;
	20 :	0000000100011101;
	19 :	0000000001011110;
	18 :	1111111100010111;
	17 :	1111111111110100;
	16 :	1111111111100010;
	15 :	1111111111100110;
	14 :	0000000000011110;
	13 :	0000000010110110;
	12 :	1111111101000010;
	11 :	1111111101111100;
	10 :	0000000010100011;
	9 :	0000000001000001;
	8 :	0000000001010101;
	7 :	1111111100110010;
	6 :	1111111101011000;
	5 :	0000000001111111;
	4 :	1111111011001100;
	3 :	1111111100000111;
	2 :	1111111110111000;
	1 :	1111111111011011;
	0 :	1111111100000101;
END;
