-- begin_signature
-- Weight_Memory(numWeight
-- 784
-- neuronNo
-- 2
-- layerNo
-- 1
-- addressWidth
-- 10
-- dataWidth
-- 16
-- weightFile
-- "w_1_2.mif")
-- end_signature
WIDTH=16;
DEPTH=784;

ADDRESS_RADIX=UNS;
DATA_RADIX=BIN;

CONTENT BEGIN
	783 :	0000000000001111;
	782 :	0000000000110101;
	781 :	0000000000000010;
	780 :	0000000000010111;
	779 :	0000000001000011;
	778 :	0000000000101100;
	777 :	1111111111111010;
	776 :	1111111111001100;
	775 :	1111111111001111;
	774 :	1111111110101110;
	773 :	1111111110001100;
	772 :	0000000000000000;
	771 :	1111111110111000;
	770 :	1111111110010000;
	769 :	1111111110001100;
	768 :	1111111110001001;
	767 :	0000000000011011;
	766 :	1111111111110011;
	765 :	0000000000000010;
	764 :	1111111111011101;
	763 :	1111111110101101;
	762 :	0000000000010101;
	761 :	1111111111111000;
	760 :	1111111111100101;
	759 :	0000000000110011;
	758 :	1111111111111111;
	757 :	1111111111101110;
	756 :	0000000000101110;
	755 :	0000000000010110;
	754 :	1111111111101110;
	753 :	0000000000010111;
	752 :	0000000000001001;
	751 :	0000000000001010;
	750 :	1111111111001100;
	749 :	1111111000011000;
	748 :	1111111000100111;
	747 :	1111111010110111;
	746 :	1111111001001111;
	745 :	1111111101111101;
	744 :	1111111011111011;
	743 :	1111110101011000;
	742 :	1111110111110000;
	741 :	1111111100010001;
	740 :	1111111100001001;
	739 :	1111111101101100;
	738 :	1111111111101010;
	737 :	0000000000000000;
	736 :	1111111111110110;
	735 :	1111111110100011;
	734 :	1111111110110000;
	733 :	1111111111111100;
	732 :	0000000000001010;
	731 :	1111111110110100;
	730 :	0000000001001110;
	729 :	1111111111110111;
	728 :	1111111111101100;
	727 :	1111111111101101;
	726 :	0000000001000110;
	725 :	1111111111110101;
	724 :	1111111111111000;
	723 :	0000000000001101;
	722 :	1111111110111101;
	721 :	1111111001111101;
	720 :	1111111001010111;
	719 :	1111111011000001;
	718 :	1111111011111000;
	717 :	0000000000011101;
	716 :	1111111001100011;
	715 :	1111111100111101;
	714 :	1111111100110100;
	713 :	0000000001011101;
	712 :	1111111110100000;
	711 :	1111111100110011;
	710 :	1111111011110001;
	709 :	0000000000010101;
	708 :	1111111101011011;
	707 :	1111110110111011;
	706 :	1111111010101111;
	705 :	1111111110100101;
	704 :	0000000000000111;
	703 :	0000000000001111;
	702 :	0000000000100100;
	701 :	0000000000011101;
	700 :	0000000000010001;
	699 :	0000000000001100;
	698 :	1111111110110010;
	697 :	0000000000110011;
	696 :	1111111101011010;
	695 :	1111111101010100;
	694 :	0000000000001010;
	693 :	0000000011110101;
	692 :	0000000011000101;
	691 :	0000000010100001;
	690 :	1111111110101001;
	689 :	1111111100111100;
	688 :	1111111110011101;
	687 :	1111111101101101;
	686 :	1111111110101000;
	685 :	1111111010001101;
	684 :	1111111101100101;
	683 :	1111111101001111;
	682 :	1111111011010011;
	681 :	0000000000110111;
	680 :	1111111100100101;
	679 :	1111110111100001;
	678 :	1111111011010001;
	677 :	1111111110111100;
	676 :	1111111111001100;
	675 :	0000000000001100;
	674 :	1111111111010111;
	673 :	0000000000000100;
	672 :	0000000000100100;
	671 :	0000000000000000;
	670 :	1111111111001110;
	669 :	1111111111101100;
	668 :	1111111100111001;
	667 :	1111111001011100;
	666 :	1111111100111110;
	665 :	0000000011011001;
	664 :	0000000011010011;
	663 :	0000000010001011;
	662 :	1111111101111101;
	661 :	1111110100110101;
	660 :	1111111101000001;
	659 :	1111111111111001;
	658 :	1111111111001100;
	657 :	0000000001100000;
	656 :	0000000101011110;
	655 :	0000000000101101;
	654 :	1111111100101011;
	653 :	1111111010001101;
	652 :	1111111011101101;
	651 :	1111111010101110;
	650 :	1111111101001101;
	649 :	0000000001001001;
	648 :	1111111111000111;
	647 :	0000000000001011;
	646 :	1111111111111100;
	645 :	0000000000010010;
	644 :	0000000000110110;
	643 :	1111111110111101;
	642 :	0000000000010111;
	641 :	0000000000111010;
	640 :	1111111110110011;
	639 :	1111111001111110;
	638 :	1111111110110101;
	637 :	0000000011110011;
	636 :	1111111101111100;
	635 :	1111111101100010;
	634 :	1111111011110110;
	633 :	1111111100010010;
	632 :	1111111100111101;
	631 :	1111111110001001;
	630 :	1111111110010111;
	629 :	1111111101110000;
	628 :	1111111001000010;
	627 :	0000000000111110;
	626 :	1111111100110010;
	625 :	1111111100100010;
	624 :	1111111001111101;
	623 :	1111111000111001;
	622 :	1111111110111101;
	621 :	0000000001100100;
	620 :	0000000000001010;
	619 :	0000000000111011;
	618 :	1111111110101001;
	617 :	1111111111011011;
	616 :	0000000000001111;
	615 :	0000000000011001;
	614 :	1111111111010111;
	613 :	1111111110100010;
	612 :	1111111110111100;
	611 :	1111111011011001;
	610 :	1111111110011010;
	609 :	1111111101001010;
	608 :	1111111011110000;
	607 :	1111111101000000;
	606 :	0000000011000001;
	605 :	0000000100110101;
	604 :	0000001010101001;
	603 :	0000000001011010;
	602 :	1111111111111010;
	601 :	1111111011111110;
	600 :	1111111110101000;
	599 :	0000000011010011;
	598 :	0000000011001100;
	597 :	0000000001000111;
	596 :	0000000100100000;
	595 :	1111111110010010;
	594 :	1111111100110000;
	593 :	1111111101111010;
	592 :	1111111110100010;
	591 :	0000000001011100;
	590 :	1111111111111010;
	589 :	0000000000000101;
	588 :	0000000000110010;
	587 :	0000000000001001;
	586 :	0000000000010000;
	585 :	1111111110110101;
	584 :	1111111111100011;
	583 :	1111111001110110;
	582 :	1111111011000101;
	581 :	1111111001011101;
	580 :	1111111001001011;
	579 :	1111111101100100;
	578 :	0000000100011110;
	577 :	0000000000010101;
	576 :	0000000101110000;
	575 :	0000000010000100;
	574 :	1111111111010010;
	573 :	1111110111111111;
	572 :	0000000100000110;
	571 :	0000000011111110;
	570 :	0000000110010010;
	569 :	1111111111011101;
	568 :	1111111110111001;
	567 :	1111111111011100;
	566 :	1111111011110000;
	565 :	1111110111010010;
	564 :	1111111101111111;
	563 :	0000000000111111;
	562 :	0000000000000011;
	561 :	1111111111011101;
	560 :	0000000000011011;
	559 :	1111111111111101;
	558 :	0000000000010001;
	557 :	0000000001010001;
	556 :	1111111110111011;
	555 :	1111111010101011;
	554 :	1111110110110110;
	553 :	1111111110011010;
	552 :	1111111111001101;
	551 :	0000000011000000;
	550 :	0000000111000010;
	549 :	0000000010101110;
	548 :	0000000101110001;
	547 :	0000000100001010;
	546 :	1111111111111001;
	545 :	0000000010010100;
	544 :	1111111100111010;
	543 :	0000000101001011;
	542 :	1111111111010000;
	541 :	0000000001101001;
	540 :	1111111101001111;
	539 :	1111111000011110;
	538 :	1111111001001110;
	537 :	1111111001101010;
	536 :	1111111001110011;
	535 :	0000000000110011;
	534 :	1111111111111000;
	533 :	0000000000110100;
	532 :	1111111111100111;
	531 :	0000000000111001;
	530 :	1111111111100100;
	529 :	1111111111101011;
	528 :	1111111011100110;
	527 :	1111111101001100;
	526 :	1111111100010010;
	525 :	0000000000111001;
	524 :	1111111101110011;
	523 :	0000000001100001;
	522 :	0000001110111100;
	521 :	1111111010110001;
	520 :	1111111101111000;
	519 :	0000000011001011;
	518 :	1111111101011100;
	517 :	0000000101011011;
	516 :	0000001001111001;
	515 :	0000000110111111;
	514 :	0000000001001001;
	513 :	0000001001001000;
	512 :	0000000100011001;
	511 :	1111111011110100;
	510 :	1111111011110110;
	509 :	1111111110100011;
	508 :	1111111101100001;
	507 :	1111111110101001;
	506 :	0000000000101011;
	505 :	0000000001000111;
	504 :	1111111111011011;
	503 :	0000000000001001;
	502 :	1111111101111101;
	501 :	1111111101111001;
	500 :	1111111010110110;
	499 :	1111111100011011;
	498 :	1111111100101000;
	497 :	1111111100001000;
	496 :	0000000010000000;
	495 :	0000000101001101;
	494 :	0000000010011001;
	493 :	1111111101001101;
	492 :	1111111100110101;
	491 :	1111111011000110;
	490 :	0000000000000111;
	489 :	0000000001011111;
	488 :	0000000011101101;
	487 :	0000000101000001;
	486 :	0000000111011000;
	485 :	0000000000111101;
	484 :	1111111111110100;
	483 :	0000000101110111;
	482 :	0000000001001011;
	481 :	0000000111101010;
	480 :	0000000001010111;
	479 :	1111111111101001;
	478 :	0000000000001010;
	477 :	0000000000000111;
	476 :	1111111111101011;
	475 :	1111111111111111;
	474 :	1111111101110011;
	473 :	1111111111010101;
	472 :	0000000011010000;
	471 :	0000000001110101;
	470 :	1111111110101000;
	469 :	1111111110001001;
	468 :	0000000011111100;
	467 :	0000000111101001;
	466 :	0000000110001110;
	465 :	1111110111011111;
	464 :	1111111010010010;
	463 :	0000000000111001;
	462 :	0000000001010100;
	461 :	0000000011001101;
	460 :	1111111101101101;
	459 :	0000000011001001;
	458 :	1111111001101110;
	457 :	1111111011010110;
	456 :	1111111111110010;
	455 :	0000000011000100;
	454 :	0000000001010100;
	453 :	0000000010010101;
	452 :	1111111111010001;
	451 :	1111111111101111;
	450 :	0000000000001010;
	449 :	1111111111101111;
	448 :	1111111111111101;
	447 :	0000000000100001;
	446 :	1111111110101000;
	445 :	1111111111001011;
	444 :	0000000110101000;
	443 :	0000000111000111;
	442 :	0000000000100111;
	441 :	1111111111110110;
	440 :	0000000001110001;
	439 :	1111111111100001;
	438 :	1111111111011001;
	437 :	0000000001000111;
	436 :	0000000010001111;
	435 :	0000000111111011;
	434 :	0000000110110111;
	433 :	0000001010110111;
	432 :	1111111111011101;
	431 :	1111111100111010;
	430 :	1111111001101100;
	429 :	0000000001000110;
	428 :	0000000010010111;
	427 :	0000000011000011;
	426 :	1111111110100111;
	425 :	0000000001100110;
	424 :	1111111110100011;
	423 :	1111111110110110;
	422 :	0000000000011010;
	421 :	0000000000110000;
	420 :	1111111111100011;
	419 :	0000000000001001;
	418 :	1111111111111010;
	417 :	0000000000101010;
	416 :	0000001000011011;
	415 :	0000001001010001;
	414 :	0000000010111101;
	413 :	0000000010001100;
	412 :	1111111110101000;
	411 :	1111111100111111;
	410 :	1111111000100001;
	409 :	0000000100010010;
	408 :	0000000110110111;
	407 :	1111111100011011;
	406 :	0000000000110010;
	405 :	1111111111001000;
	404 :	1111111111000011;
	403 :	1111111111110111;
	402 :	0000000010010000;
	401 :	1111111110110100;
	400 :	0000000010100000;
	399 :	1111111100100111;
	398 :	0000000010111101;
	397 :	0000000011101001;
	396 :	1111111100100000;
	395 :	0000000001110000;
	394 :	0000000000001001;
	393 :	0000000000000000;
	392 :	1111111111000101;
	391 :	0000000000010111;
	390 :	0000000000101110;
	389 :	0000000010111000;
	388 :	0000001000100101;
	387 :	0000001100100110;
	386 :	0000000010000010;
	385 :	0000000001011111;
	384 :	0000000111010000;
	383 :	0000000000111000;
	382 :	0000000010011100;
	381 :	0000000111101000;
	380 :	0000000110010001;
	379 :	1111111110100001;
	378 :	0000000001001111;
	377 :	0000000000101101;
	376 :	1111111100000100;
	375 :	1111111011110011;
	374 :	0000000111111101;
	373 :	0000000000010011;
	372 :	1111111110100111;
	371 :	1111111110100100;
	370 :	0000001000001011;
	369 :	1111111111101010;
	368 :	1111111110011010;
	367 :	0000000001010011;
	366 :	0000000000001011;
	365 :	0000000000010011;
	364 :	1111111111011011;
	363 :	0000000000010001;
	362 :	0000000000100111;
	361 :	0000000000111111;
	360 :	0000000101000011;
	359 :	0000000111010000;
	358 :	0000000101000100;
	357 :	0000000101010000;
	356 :	0000000001000011;
	355 :	1111111110001111;
	354 :	1111111110011001;
	353 :	0000000100010111;
	352 :	0000001100110100;
	351 :	0000000110011101;
	350 :	0000000100110111;
	349 :	0000000111011001;
	348 :	0000000000110001;
	347 :	1111111111101010;
	346 :	0000000100111010;
	345 :	0000000101111011;
	344 :	0000000100110001;
	343 :	0000000100001100;
	342 :	0000000010011000;
	341 :	0000000001000100;
	340 :	1111111110011010;
	339 :	0000000010000000;
	338 :	0000000001001001;
	337 :	1111111111001011;
	336 :	1111111111010010;
	335 :	0000000000001111;
	334 :	1111111111011000;
	333 :	1111111110011110;
	332 :	1111111110011001;
	331 :	0000000011000100;
	330 :	1111111111001100;
	329 :	0000000000111110;
	328 :	1111111010011100;
	327 :	1111111010110010;
	326 :	1111111110010101;
	325 :	0000000000100011;
	324 :	0000001100100101;
	323 :	0000001100010111;
	322 :	0000001011011010;
	321 :	0000000111100111;
	320 :	0000000000101010;
	319 :	1111111011110011;
	318 :	0000001001111100;
	317 :	0000000101011111;
	316 :	1111111111010101;
	315 :	0000001000111111;
	314 :	0000000011111100;
	313 :	0000000111010110;
	312 :	0000000011011001;
	311 :	0000000010001101;
	310 :	0000000001101100;
	309 :	0000000000011001;
	308 :	1111111111010110;
	307 :	1111111111111101;
	306 :	0000000000111000;
	305 :	1111111100101011;
	304 :	1111111101001001;
	303 :	1111111101100011;
	302 :	1111111011000110;
	301 :	0000000010011010;
	300 :	0000000010101100;
	299 :	1111111111010100;
	298 :	1111111111101000;
	297 :	0000000011111111;
	296 :	0000000110011111;
	295 :	0000001000010001;
	294 :	1111111011100011;
	293 :	1111110011110010;
	292 :	1111110010011000;
	291 :	1111110011101001;
	290 :	0000000000110100;
	289 :	1111111111100101;
	288 :	0000000000011100;
	287 :	0000001000001111;
	286 :	0000000001010001;
	285 :	0000000100011001;
	284 :	0000000010100010;
	283 :	0000000001000001;
	282 :	0000000000111101;
	281 :	0000000001010011;
	280 :	0000000000110101;
	279 :	0000000000010011;
	278 :	0000000000000110;
	277 :	1111111001011101;
	276 :	1111111100110111;
	275 :	1111111101001111;
	274 :	1111111100111001;
	273 :	0000000001000100;
	272 :	0000000010001110;
	271 :	1111111100110111;
	270 :	0000000011001010;
	269 :	0000000000110101;
	268 :	0000000110001110;
	267 :	1111111111111100;
	266 :	1111101111110000;
	265 :	1111101101011000;
	264 :	1111100111000010;
	263 :	1111110010111000;
	262 :	1111111110000010;
	261 :	0000000100100100;
	260 :	0000000001101000;
	259 :	0000000000110111;
	258 :	0000000001101000;
	257 :	0000000010101000;
	256 :	0000000100011011;
	255 :	0000000000001000;
	254 :	0000000000001010;
	253 :	0000000000001011;
	252 :	0000000000010000;
	251 :	1111111111011111;
	250 :	1111111110101100;
	249 :	1111111101100101;
	248 :	1111111010000101;
	247 :	1111111011111000;
	246 :	1111111000111000;
	245 :	1111110110011000;
	244 :	1111110110010100;
	243 :	1111111001010100;
	242 :	1111111010111101;
	241 :	0000000011100011;
	240 :	1111111010100000;
	239 :	0000000001000100;
	238 :	1111111011101110;
	237 :	1111110000001100;
	236 :	1111100000111110;
	235 :	1111101110000011;
	234 :	0000000000100010;
	233 :	0000000010010100;
	232 :	1111111010010010;
	231 :	0000000010110000;
	230 :	0000000000111000;
	229 :	0000000101110001;
	228 :	0000000100101100;
	227 :	1111111111100010;
	226 :	0000000000011110;
	225 :	0000000000110110;
	224 :	1111111111101000;
	223 :	1111111110111001;
	222 :	0000000000010000;
	221 :	1111111101100000;
	220 :	1111111100011110;
	219 :	1111111110001011;
	218 :	1111111011111010;
	217 :	1111110110101110;
	216 :	1111111000111111;
	215 :	1111111001011100;
	214 :	1111111010000011;
	213 :	1111111101111010;
	212 :	1111111010111001;
	211 :	0000000110000110;
	210 :	1111111111000111;
	209 :	1111101011100001;
	208 :	1111100101101101;
	207 :	1111101110110110;
	206 :	1111111001100101;
	205 :	1111111111011001;
	204 :	1111111100001101;
	203 :	0000000110010001;
	202 :	0000000001000010;
	201 :	0000000111000111;
	200 :	0000000010100011;
	199 :	0000000000001001;
	198 :	1111111111011011;
	197 :	0000000000100011;
	196 :	0000000000000110;
	195 :	1111111111010111;
	194 :	1111111111111111;
	193 :	1111111100100011;
	192 :	1111111110100000;
	191 :	1111111110101100;
	190 :	0000000010111000;
	189 :	1111111110111111;
	188 :	0000000001011101;
	187 :	1111111001100001;
	186 :	1111111111010011;
	185 :	0000000100110111;
	184 :	0000000000000001;
	183 :	1111111100011111;
	182 :	1111101110011101;
	181 :	1111100010011101;
	180 :	1111101001001111;
	179 :	1111101011010011;
	178 :	1111111011000110;
	177 :	0000000001111010;
	176 :	0000000010000111;
	175 :	0000000001010001;
	174 :	1111111101111011;
	173 :	0000000010001111;
	172 :	0000000010010111;
	171 :	0000000001010011;
	170 :	1111111111101110;
	169 :	0000000000011011;
	168 :	0000000000001011;
	167 :	1111111111111011;
	166 :	1111111111100110;
	165 :	1111111100100111;
	164 :	0000000010001101;
	163 :	0000001000101111;
	162 :	0000001100111011;
	161 :	0000000111100010;
	160 :	0000000011001110;
	159 :	0000000001111011;
	158 :	0000000011111100;
	157 :	0000000100111101;
	156 :	1111111110100100;
	155 :	1111110011010111;
	154 :	1111101111100010;
	153 :	1111110100011001;
	152 :	1111111000001110;
	151 :	1111111000101110;
	150 :	0000000000101100;
	149 :	1111111110101101;
	148 :	1111111111001101;
	147 :	0000000001010111;
	146 :	0000000000000111;
	145 :	0000000100000011;
	144 :	0000000001101011;
	143 :	1111111111101100;
	142 :	0000000000011000;
	141 :	1111111111100101;
	140 :	1111111111111101;
	139 :	1111111111110100;
	138 :	1111111110010010;
	137 :	1111111110100111;
	136 :	0000000000000000;
	135 :	0000001011000111;
	134 :	0000001111110110;
	133 :	0000001011101101;
	132 :	0000001110011011;
	131 :	0000000101000111;
	130 :	1111111110001110;
	129 :	1111111100000000;
	128 :	1111111001001011;
	127 :	1111110000011011;
	126 :	1111110000011001;
	125 :	1111111000011001;
	124 :	1111111110011001;
	123 :	1111111111111010;
	122 :	0000000000100010;
	121 :	1111111110000011;
	120 :	1111111111100111;
	119 :	0000000000101000;
	118 :	0000000001001110;
	117 :	0000000010111111;
	116 :	0000000001010000;
	115 :	0000000000101001;
	114 :	1111111111101001;
	113 :	0000000000000100;
	112 :	0000000000011110;
	111 :	1111111111010011;
	110 :	1111111111111101;
	109 :	1111111110001111;
	108 :	0000000100001000;
	107 :	0000001001000011;
	106 :	0000000101110000;
	105 :	0000000000000111;
	104 :	0000000010001001;
	103 :	0000000100011100;
	102 :	1111111111010100;
	101 :	1111111010100011;
	100 :	1111110101111101;
	99 :	1111110000110101;
	98 :	1111110001001001;
	97 :	1111110111110110;
	96 :	0000000001010110;
	95 :	0000000110101001;
	94 :	0000000011011000;
	93 :	0000000000100111;
	92 :	0000000000111101;
	91 :	0000000010001111;
	90 :	0000000001101001;
	89 :	0000000000010110;
	88 :	0000000000001101;
	87 :	1111111111110111;
	86 :	1111111111011101;
	85 :	0000000000010100;
	84 :	0000000000001101;
	83 :	0000000000110010;
	82 :	0000000000101111;
	81 :	0000000000111100;
	80 :	0000000000010101;
	79 :	0000000001100111;
	78 :	0000000000100000;
	77 :	1111111111110101;
	76 :	1111111111011011;
	75 :	0000000000000000;
	74 :	1111111110011100;
	73 :	1111111100101110;
	72 :	1111111011111010;
	71 :	1111111011110110;
	70 :	1111111101100011;
	69 :	0000000011101000;
	68 :	0000000010001001;
	67 :	0000000010110101;
	66 :	0000000001010000;
	65 :	0000000000110110;
	64 :	0000000001001001;
	63 :	0000000000110101;
	62 :	1111111111100000;
	61 :	0000000000001010;
	60 :	1111111111100100;
	59 :	1111111110011111;
	58 :	0000000000010000;
	57 :	1111111111111101;
	56 :	0000000000001001;
	55 :	0000000000010001;
	54 :	0000000000100101;
	53 :	0000000000001110;
	52 :	1111111111010111;
	51 :	0000000000001101;
	50 :	0000000000010010;
	49 :	1111111111111101;
	48 :	1111111111101000;
	47 :	1111111111010000;
	46 :	0000000000101100;
	45 :	0000000000010101;
	44 :	0000000000011011;
	43 :	0000000000001011;
	42 :	1111111111101001;
	41 :	1111111111010001;
	40 :	0000000000001001;
	39 :	1111111111111010;
	38 :	1111111110100001;
	37 :	0000000000000001;
	36 :	0000000000001001;
	35 :	0000000000100010;
	34 :	0000000000000110;
	33 :	0000000000000010;
	32 :	0000000000100101;
	31 :	1111111111110101;
	30 :	1111111111011110;
	29 :	0000000000101110;
	28 :	0000000000110111;
	27 :	1111111110111101;
	26 :	0000000000011111;
	25 :	0000000000001111;
	24 :	0000000000011110;
	23 :	0000000000010100;
	22 :	0000000000011000;
	21 :	0000000000001101;
	20 :	1111111111100011;
	19 :	1111111111101111;
	18 :	0000000000000001;
	17 :	0000000000001001;
	16 :	0000000000001010;
	15 :	1111111111110101;
	14 :	1111111111110101;
	13 :	1111111111111000;
	12 :	1111111111100010;
	11 :	0000000000101011;
	10 :	0000000000010101;
	9 :	0000000000011000;
	8 :	0000000000000000;
	7 :	1111111111101100;
	6 :	1111111111110111;
	5 :	1111111110101101;
	4 :	0000000000010011;
	3 :	1111111111000100;
	2 :	0000000000010101;
	1 :	1111111111110101;
	0 :	1111111110101010;
END;
