-- begin_signature
-- neuron(layerNo
-- 3
-- neuronNo
-- 9
-- numWeight
-- 30
-- dataWidth
-- 16
-- sigmoidSize
-- 5
-- weightIntWidth
-- 4
-- actType
-- "relu"
-- biasFile
-- "b_3_9.hex"
-- weightFile
-- "w_3_9.hex")
-- end_signature
WIDTH=32;
DEPTH=1;

ADDRESS_RADIX=UNS;
DATA_RADIX=BIN;

CONTENT BEGIN
	0 :	00000000000000001111001111011111;
END;
