-- begin_signature
-- Weight_Memory(numWeight
-- 10
-- neuronNo
-- 1
-- layerNo
-- 4
-- addressWidth
-- 4
-- dataWidth
-- 16
-- weightFile
-- "w_4_1.hex")
-- end_signature
WIDTH=16;
DEPTH=10;

ADDRESS_RADIX=UNS;
DATA_RADIX=BIN;

CONTENT BEGIN
	9 :	0000000001001000;
	8 :	1111111011010000;
	7 :	0000000100110000;
	6 :	1111100000000110;
	5 :	0000000110110010;
	4 :	0000011011110011;
	3 :	1111111100001101;
	2 :	0000011110011000;
	1 :	0000000111011101;
	0 :	1111011001001011;
END;
