-- begin_signature
-- Weight_Memory(numWeight
-- 30
-- neuronNo
-- 6
-- layerNo
-- 2
-- addressWidth
-- 5
-- dataWidth
-- 16
-- weightFile
-- "w_2_6.mif")
-- end_signature
WIDTH=16;
DEPTH=30;

ADDRESS_RADIX=UNS;
DATA_RADIX=BIN;

CONTENT BEGIN
	29 :	0000000001101101;
	28 :	1111111001011101;
	27 :	0000000000010111;
	26 :	1111111110101100;
	25 :	1111100100110010;
	24 :	0000000110001001;
	23 :	0000010100100111;
	22 :	0000010111111001;
	21 :	0000000100100111;
	20 :	0000000110011111;
	19 :	1111101110000100;
	18 :	1111110101101000;
	17 :	1111101111010010;
	16 :	1111110100000111;
	15 :	1111110100110010;
	14 :	1111111010110110;
	13 :	0000000010010010;
	12 :	0000000001000001;
	11 :	1111101110111100;
	10 :	0000000001000011;
	9 :	1111111100010110;
	8 :	0000000101011001;
	7 :	1111111111100011;
	6 :	0000011101001110;
	5 :	0000000001100101;
	4 :	0000000011100101;
	3 :	0000000010000111;
	2 :	0000010001000000;
	1 :	1111110001010000;
	0 :	1111111111111001;
END;
