-- begin_signature
-- Weight_Memory(numWeight
-- 784
-- neuronNo
-- 7
-- layerNo
-- 1
-- addressWidth
-- 10
-- dataWidth
-- 16
-- weightFile
-- "w_1_7.hex")
-- end_signature
WIDTH=16;
DEPTH=784;

ADDRESS_RADIX=UNS;
DATA_RADIX=BIN;

CONTENT BEGIN
	783 :	0000000000110011;
	782 :	1111111111000011;
	781 :	1111111111000111;
	780 :	1111111111101101;
	779 :	0000000000001000;
	778 :	1111111111111000;
	777 :	0000000000100011;
	776 :	0000000000011000;
	775 :	1111111111010111;
	774 :	1111111111000110;
	773 :	1111111110111111;
	772 :	0000000000000000;
	771 :	0000000000011110;
	770 :	0000000000001101;
	769 :	1111111111100101;
	768 :	1111111111101011;
	767 :	0000000000001001;
	766 :	1111111111011110;
	765 :	1111111111001111;
	764 :	0000000000001111;
	763 :	0000000000000000;
	762 :	1111111111011101;
	761 :	1111111111001111;
	760 :	0000000000001111;
	759 :	1111111111101010;
	758 :	0000000000010011;
	757 :	1111111111011110;
	756 :	1111111111010111;
	755 :	1111111111110110;
	754 :	0000000000010011;
	753 :	0000000000110010;
	752 :	0000000000001000;
	751 :	1111111111100101;
	750 :	1111111111110011;
	749 :	1111111111100011;
	748 :	1111111111011100;
	747 :	1111111110100000;
	746 :	1111111111011100;
	745 :	1111111111111100;
	744 :	1111111111101001;
	743 :	1111111110010011;
	742 :	1111111110000010;
	741 :	1111111110101110;
	740 :	1111111111011011;
	739 :	0000000000010000;
	738 :	1111111111011000;
	737 :	1111111101110101;
	736 :	1111111110001001;
	735 :	1111111110101010;
	734 :	1111111110101101;
	733 :	1111111101110101;
	732 :	1111111110111101;
	731 :	0000000000011101;
	730 :	0000000000110010;
	729 :	0000000000001001;
	728 :	1111111110110001;
	727 :	1111111111111000;
	726 :	1111111111101110;
	725 :	1111111111011000;
	724 :	0000000000000010;
	723 :	0000000000110000;
	722 :	1111111111010100;
	721 :	1111111101110010;
	720 :	1111111110110111;
	719 :	1111111001111111;
	718 :	1111111000110011;
	717 :	1111110110001110;
	716 :	1111110100101010;
	715 :	1111110101000100;
	714 :	1111111110110000;
	713 :	0000000011001010;
	712 :	1111111110101010;
	711 :	0000000001010011;
	710 :	1111111001101010;
	709 :	0000000001110010;
	708 :	0000000100000111;
	707 :	1111111001010100;
	706 :	1111111101111111;
	705 :	0000000100100001;
	704 :	0000000101001101;
	703 :	0000000000111111;
	702 :	1111111111000100;
	701 :	1111111111110011;
	700 :	1111111111011110;
	699 :	1111111111101000;
	698 :	1111111111100110;
	697 :	0000000000000010;
	696 :	0000000000001011;
	695 :	1111111110110000;
	694 :	1111111110010001;
	693 :	1111111001001101;
	692 :	1111111001101000;
	691 :	1111110011100010;
	690 :	1111110010110011;
	689 :	1111101101011001;
	688 :	1111101110011011;
	687 :	1111111000101110;
	686 :	0000001000010001;
	685 :	1111111111111110;
	684 :	1111111000000011;
	683 :	1111111100110000;
	682 :	1111111100101000;
	681 :	0000000000111011;
	680 :	0000000100101000;
	679 :	0000000010000110;
	678 :	0000000100001000;
	677 :	0000001010000000;
	676 :	0000000010000110;
	675 :	0000000000100001;
	674 :	0000000000100100;
	673 :	0000000000111100;
	672 :	0000000000101010;
	671 :	0000000000000101;
	670 :	0000000000110100;
	669 :	0000000000011101;
	668 :	0000000000001010;
	667 :	1111111110000001;
	666 :	1111111101100000;
	665 :	1111111101100010;
	664 :	1111111101010110;
	663 :	1111111010111010;
	662 :	1111110111001111;
	661 :	1111110001001111;
	660 :	1111101111100110;
	659 :	1111110100111101;
	658 :	0000000010110101;
	657 :	0000000010010010;
	656 :	0000001001000100;
	655 :	0000000011011010;
	654 :	1111111111101011;
	653 :	0000000000000010;
	652 :	1111111101111111;
	651 :	0000000011010100;
	650 :	0000001000001010;
	649 :	0000001010000000;
	648 :	0000000101100010;
	647 :	1111111111110001;
	646 :	0000000000000000;
	645 :	1111111111101011;
	644 :	1111111111110001;
	643 :	0000000000001010;
	642 :	1111111111100011;
	641 :	0000000000110001;
	640 :	0000000000011110;
	639 :	1111111110001111;
	638 :	0000000000111010;
	637 :	0000000010000111;
	636 :	0000000000100000;
	635 :	1111111101000100;
	634 :	1111110110101111;
	633 :	1111111001111100;
	632 :	1111110110000001;
	631 :	1111101101001000;
	630 :	0000000011101101;
	629 :	1111111101011011;
	628 :	1111111100011011;
	627 :	1111111001111010;
	626 :	1111111100001101;
	625 :	1111110110100010;
	624 :	1111111100001110;
	623 :	0000000010110100;
	622 :	0000000101101011;
	621 :	0000001101001000;
	620 :	0000000011101101;
	619 :	0000000000110100;
	618 :	1111111111010001;
	617 :	1111111111111010;
	616 :	1111111111010001;
	615 :	0000000000011001;
	614 :	0000000000100000;
	613 :	1111111111000011;
	612 :	0000000000011111;
	611 :	1111111111100100;
	610 :	0000000001011000;
	609 :	0000000011011001;
	608 :	1111111111011111;
	607 :	1111111100001110;
	606 :	1111111000110110;
	605 :	1111110100111110;
	604 :	1111110011011001;
	603 :	1111101101010111;
	602 :	1111110111101110;
	601 :	1111110011110101;
	600 :	1111111110101001;
	599 :	1111110101101100;
	598 :	0000000101100001;
	597 :	1111110011111011;
	596 :	1111110111010000;
	595 :	1111111110100111;
	594 :	1111111100110000;
	593 :	0000000011101111;
	592 :	1111111111111111;
	591 :	1111111111001101;
	590 :	1111111111110000;
	589 :	1111111111100011;
	588 :	0000000000001100;
	587 :	1111111111111110;
	586 :	0000000000001100;
	585 :	1111111111111000;
	584 :	0000000000111101;
	583 :	1111111110111010;
	582 :	0000000001000101;
	581 :	0000000010011101;
	580 :	1111111111100111;
	579 :	1111111011011011;
	578 :	1111110011100100;
	577 :	1111110011101000;
	576 :	1111110111011100;
	575 :	1111110001101100;
	574 :	1111110100110101;
	573 :	1111110100000111;
	572 :	1111111000000111;
	571 :	0000000011001111;
	570 :	1111111111010000;
	569 :	1111110110000011;
	568 :	1111111100111101;
	567 :	1111111011010110;
	566 :	1111111101100111;
	565 :	1111111011001010;
	564 :	0000000000100001;
	563 :	1111111110001001;
	562 :	1111111110100100;
	561 :	0000000001001000;
	560 :	1111111111111000;
	559 :	0000000000010010;
	558 :	0000000000100000;
	557 :	0000000000101101;
	556 :	1111111101110001;
	555 :	1111111101001111;
	554 :	1111111100111001;
	553 :	1111111100101100;
	552 :	1111111101100000;
	551 :	1111111100111011;
	550 :	1111110100111101;
	549 :	1111110010011110;
	548 :	1111110000011000;
	547 :	1111110000000111;
	546 :	1111101111000001;
	545 :	1111111111110010;
	544 :	0000000011001110;
	543 :	0000001000011110;
	542 :	0000000010011011;
	541 :	0000000001101010;
	540 :	1111111100111001;
	539 :	1111111101010011;
	538 :	1111111001110101;
	537 :	1111111010111001;
	536 :	1111111101010011;
	535 :	1111111110100000;
	534 :	1111111111000011;
	533 :	1111111111000111;
	532 :	0000000000101000;
	531 :	0000000000000001;
	530 :	0000000010100001;
	529 :	1111111111000010;
	528 :	1111111110001100;
	527 :	1111111110101001;
	526 :	1111111100111110;
	525 :	1111111010101110;
	524 :	1111111001110101;
	523 :	1111111100110001;
	522 :	1111111011001111;
	521 :	1111110111000100;
	520 :	1111110000101110;
	519 :	1111111111010111;
	518 :	1111111111011001;
	517 :	0000001000100000;
	516 :	0000010011001110;
	515 :	0000000101010111;
	514 :	0000000100001011;
	513 :	1111111111001010;
	512 :	1111111000011110;
	511 :	1111110101000101;
	510 :	1111111000101101;
	509 :	1111111010010111;
	508 :	1111111100111001;
	507 :	1111111110010101;
	506 :	1111111111110011;
	505 :	0000000000111111;
	504 :	0000000000011001;
	503 :	1111111111111110;
	502 :	0000000001111010;
	501 :	1111111111111010;
	500 :	0000000000100100;
	499 :	0000000001000000;
	498 :	0000000000010101;
	497 :	1111111110110100;
	496 :	1111111011101101;
	495 :	1111111100001000;
	494 :	1111111001000100;
	493 :	1111110001001001;
	492 :	1111111110000101;
	491 :	0000000000100110;
	490 :	0000000000000111;
	489 :	0000001011100001;
	488 :	0000001100011000;
	487 :	0000000000110001;
	486 :	0000000001101100;
	485 :	1111111010010110;
	484 :	1111110010110100;
	483 :	1111111001001100;
	482 :	0000000001001101;
	481 :	0000000000001000;
	480 :	1111111111110101;
	479 :	1111111111000000;
	478 :	0000000000000011;
	477 :	1111111111111110;
	476 :	1111111111101001;
	475 :	1111111111111110;
	474 :	0000000001000100;
	473 :	1111111110000110;
	472 :	1111111101101111;
	471 :	1111111100000001;
	470 :	1111111010001110;
	469 :	1111111011010111;
	468 :	1111111101010000;
	467 :	1111111100111010;
	466 :	1111111010011101;
	465 :	1111111110110001;
	464 :	0000000101100011;
	463 :	0000000111011011;
	462 :	1111111111000110;
	461 :	0000001110010000;
	460 :	1111111110110111;
	459 :	0000000111110100;
	458 :	0000000010000000;
	457 :	1111111001111010;
	456 :	1111111010010110;
	455 :	1111111100110110;
	454 :	1111111101100101;
	453 :	0000000000001001;
	452 :	1111111110110011;
	451 :	1111111111011110;
	450 :	1111111111111001;
	449 :	0000000000001001;
	448 :	0000000000011110;
	447 :	0000000000001010;
	446 :	1111111111000010;
	445 :	1111111101110000;
	444 :	1111111100111100;
	443 :	1111111100110110;
	442 :	1111111111000001;
	441 :	0000000100010001;
	440 :	1111111111001011;
	439 :	1111111001100010;
	438 :	0000000000110000;
	437 :	0000000100100011;
	436 :	0000000011001111;
	435 :	1111111101110011;
	434 :	1111111010101101;
	433 :	1111111101111010;
	432 :	0000000000010110;
	431 :	0000000000100100;
	430 :	1111111101101000;
	429 :	1111111111110101;
	428 :	1111111011110010;
	427 :	1111111100010011;
	426 :	1111111010000011;
	425 :	1111111100111011;
	424 :	1111111111010101;
	423 :	0000000000001011;
	422 :	0000000000101000;
	421 :	0000000000010100;
	420 :	1111111111111011;
	419 :	1111111111100010;
	418 :	1111111111010110;
	417 :	1111111111001000;
	416 :	1111111110110110;
	415 :	1111111101101110;
	414 :	1111111111100100;
	413 :	0000000010000010;
	412 :	1111111101000000;
	411 :	0000000010100101;
	410 :	1111111111111110;
	409 :	0000000001101110;
	408 :	0000000001011001;
	407 :	1111111110101010;
	406 :	0000000100010000;
	405 :	1111110101010010;
	404 :	1111111101001110;
	403 :	0000000000000000;
	402 :	0000000000000100;
	401 :	1111111010000111;
	400 :	1111111001001011;
	399 :	1111111011111110;
	398 :	1111111011101011;
	397 :	1111111110001110;
	396 :	0000000000010111;
	395 :	0000000000010101;
	394 :	1111111111011100;
	393 :	0000000000010010;
	392 :	0000000000011001;
	391 :	0000000000011110;
	390 :	1111111110010100;
	389 :	1111111100001100;
	388 :	1111111010111101;
	387 :	1111111011101100;
	386 :	1111111011111000;
	385 :	1111111001011111;
	384 :	1111111010111010;
	383 :	1111111001011010;
	382 :	1111111000010010;
	381 :	0000000101110111;
	380 :	0000000011110111;
	379 :	0000000100011011;
	378 :	0000001010010001;
	377 :	0000001100011011;
	376 :	1111111100110011;
	375 :	1111111010010101;
	374 :	1111111010001101;
	373 :	1111110101111101;
	372 :	1111111000101110;
	371 :	1111111011101100;
	370 :	1111111010100100;
	369 :	1111111100110000;
	368 :	1111111110111001;
	367 :	1111111111111110;
	366 :	0000000000101010;
	365 :	1111111111010000;
	364 :	0000000000010001;
	363 :	0000000000000000;
	362 :	1111111110110000;
	361 :	1111111110001010;
	360 :	1111111100000100;
	359 :	1111111011111010;
	358 :	1111111101000010;
	357 :	1111111110101001;
	356 :	1111111100101000;
	355 :	1111111010000101;
	354 :	0000000100001100;
	353 :	0000000010101010;
	352 :	0000001111101001;
	351 :	0000001001111110;
	350 :	0000000101000111;
	349 :	1111111001010000;
	348 :	1111111101001011;
	347 :	1111101100000101;
	346 :	1111110010110010;
	345 :	1111111101101010;
	344 :	1111111001100001;
	343 :	1111111010101001;
	342 :	1111111001001100;
	341 :	1111111101110110;
	340 :	0000000000101000;
	339 :	0000000000000010;
	338 :	0000000000000000;
	337 :	1111111111111001;
	336 :	0000000000000011;
	335 :	0000000000000000;
	334 :	1111111111111010;
	333 :	0000000010000011;
	332 :	0000000001011000;
	331 :	1111111101101011;
	330 :	1111111001100001;
	329 :	1111111110001100;
	328 :	1111111111010101;
	327 :	1111111101101110;
	326 :	0000000010101000;
	325 :	1111111111110110;
	324 :	0000000111001110;
	323 :	0000001100010001;
	322 :	1111111000010010;
	321 :	1111110010111101;
	320 :	1111110010100100;
	319 :	1111110011011110;
	318 :	1111111101100110;
	317 :	0000000011000100;
	316 :	1111111111001100;
	315 :	1111111010000101;
	314 :	1111111010001110;
	313 :	1111111110001011;
	312 :	1111111111100011;
	311 :	0000000000010110;
	310 :	1111111111111010;
	309 :	0000000001010000;
	308 :	1111111111001100;
	307 :	0000000000001000;
	306 :	0000000000000001;
	305 :	0000000011000000;
	304 :	1111111111111111;
	303 :	1111111000101000;
	302 :	1111111010101011;
	301 :	1111111110100100;
	300 :	1111111000100001;
	299 :	1111111011001111;
	298 :	0000000011100011;
	297 :	0000000011111001;
	296 :	0000001111011011;
	295 :	0000001010100010;
	294 :	1111110100111001;
	293 :	1111110000111100;
	292 :	1111110000100110;
	291 :	1111110110100101;
	290 :	0000000110000111;
	289 :	0000000000100011;
	288 :	1111111111001110;
	287 :	1111111100000101;
	286 :	1111111100010100;
	285 :	1111111110111000;
	284 :	0000000001010001;
	283 :	1111111111100101;
	282 :	1111111111101100;
	281 :	1111111111010011;
	280 :	0000000000010000;
	279 :	0000000000011111;
	278 :	1111111111001101;
	277 :	1111111010011001;
	276 :	1111111000100001;
	275 :	1111110100111001;
	274 :	0000000011010110;
	273 :	1111111110001000;
	272 :	1111111000001000;
	271 :	0000000010000001;
	270 :	0000001000110100;
	269 :	0000001000000111;
	268 :	0000010001001111;
	267 :	0000000100010011;
	266 :	1111111001010101;
	265 :	1111111010010001;
	264 :	1111111000010110;
	263 :	1111111011111111;
	262 :	1111111101111010;
	261 :	1111111110010110;
	260 :	1111111111111011;
	259 :	1111111100001100;
	258 :	1111111100000110;
	257 :	1111111110111001;
	256 :	0000000000010100;
	255 :	0000000000110010;
	254 :	0000000000111110;
	253 :	1111111111111001;
	252 :	0000000000001010;
	251 :	1111111111111000;
	250 :	1111111110100011;
	249 :	1111111000111000;
	248 :	1111110000100011;
	247 :	1111111100011000;
	246 :	0000000010111110;
	245 :	1111111110111101;
	244 :	0000000010100010;
	243 :	0000000000010111;
	242 :	0000000001000111;
	241 :	0000000101100011;
	240 :	1111111110110000;
	239 :	0000000001111001;
	238 :	1111111111110100;
	237 :	1111111010100011;
	236 :	1111111100110100;
	235 :	1111111010111111;
	234 :	1111111100000001;
	233 :	1111111100000101;
	232 :	1111111010000100;
	231 :	1111111010000001;
	230 :	1111111000000001;
	229 :	1111111100110010;
	228 :	1111111111001001;
	227 :	0000000000001111;
	226 :	0000000000000110;
	225 :	0000000001001110;
	224 :	0000000000011011;
	223 :	1111111100100100;
	222 :	1111111011010000;
	221 :	1111110100100000;
	220 :	1111110010011111;
	219 :	0000000110101101;
	218 :	0000000010001101;
	217 :	0000000100010100;
	216 :	0000000110101000;
	215 :	0000000111100101;
	214 :	1111111100100100;
	213 :	0000000011001011;
	212 :	0000000111000100;
	211 :	1111111001111101;
	210 :	1111111111101101;
	209 :	1111111100000001;
	208 :	1111111100010010;
	207 :	1111111110111001;
	206 :	0000000101001000;
	205 :	0000000101101111;
	204 :	1111111101111101;
	203 :	1111110110111011;
	202 :	1111111000000100;
	201 :	1111111010111001;
	200 :	1111111111001110;
	199 :	1111111111010110;
	198 :	1111111110110111;
	197 :	0000000000111010;
	196 :	1111111110010101;
	195 :	1111111100101110;
	194 :	1111111010001000;
	193 :	1111111000101010;
	192 :	1111111011011110;
	191 :	1111111111100110;
	190 :	0000000100100111;
	189 :	1111111011010101;
	188 :	0000000000110001;
	187 :	0000000000000111;
	186 :	0000001001101001;
	185 :	0000000000010010;
	184 :	1111111000010010;
	183 :	1111111100010001;
	182 :	0000000001110011;
	181 :	1111111010011101;
	180 :	0000000101101001;
	179 :	0000000011101100;
	178 :	0000000000010100;
	177 :	0000001001100111;
	176 :	0000000100100011;
	175 :	1111111100011101;
	174 :	1111111010110000;
	173 :	1111111101111001;
	172 :	1111111111111101;
	171 :	0000000000100100;
	170 :	1111111111000001;
	169 :	0000000000001000;
	168 :	0000000001001111;
	167 :	1111111101100011;
	166 :	1111111001101001;
	165 :	1111110101110111;
	164 :	1111111101101001;
	163 :	1111111101111010;
	162 :	0000000100010101;
	161 :	1111111010101111;
	160 :	1111101110011100;
	159 :	1111110010110011;
	158 :	1111111011010100;
	157 :	1111110101111000;
	156 :	1111111010001001;
	155 :	0000000101011110;
	154 :	1111111101111101;
	153 :	1111110011101111;
	152 :	1111111000101100;
	151 :	1111110111001001;
	150 :	1111111110001001;
	149 :	0000000010101001;
	148 :	0000000000000011;
	147 :	1111111111011101;
	146 :	1111111100110100;
	145 :	1111111111000110;
	144 :	0000000000000110;
	143 :	1111111111110010;
	142 :	0000000000000000;
	141 :	1111111111110001;
	140 :	1111111110100111;
	139 :	1111111101111000;
	138 :	1111111110110010;
	137 :	1111111100001011;
	136 :	1111111001100101;
	135 :	1111111111000100;
	134 :	0000000000010110;
	133 :	1111111001111110;
	132 :	0000000101101101;
	131 :	0000000010111001;
	130 :	1111111100010011;
	129 :	0000000001011110;
	128 :	0000000011111001;
	127 :	1111111011011010;
	126 :	1111110100110011;
	125 :	1111101110101100;
	124 :	1111110100010000;
	123 :	1111110111111010;
	122 :	1111111010101001;
	121 :	1111111101011000;
	120 :	1111111111000111;
	119 :	1111111111101110;
	118 :	0000000000100111;
	117 :	0000000000100111;
	116 :	1111111111111111;
	115 :	1111111111110100;
	114 :	0000000000000011;
	113 :	0000000000001010;
	112 :	0000000000010000;
	111 :	1111111111010000;
	110 :	1111111110010111;
	109 :	0000000000011010;
	108 :	1111111111111010;
	107 :	1111111110011011;
	106 :	1111111011111101;
	105 :	1111110110001010;
	104 :	1111111110100101;
	103 :	1111111101001101;
	102 :	1111110111100110;
	101 :	1111111000111001;
	100 :	1111111010000100;
	99 :	1111111100010100;
	98 :	1111111011010001;
	97 :	1111111011101101;
	96 :	1111111101010111;
	95 :	1111111111101110;
	94 :	0000000000011010;
	93 :	0000000000000010;
	92 :	0000000000000001;
	91 :	1111111111101110;
	90 :	1111111111110010;
	89 :	0000000000000010;
	88 :	0000000000010001;
	87 :	1111111111111011;
	86 :	0000000000000010;
	85 :	0000000000000011;
	84 :	1111111111101011;
	83 :	0000000000010001;
	82 :	1111111110011010;
	81 :	0000000000000000;
	80 :	0000000000010001;
	79 :	1111111110111011;
	78 :	1111111111001111;
	77 :	1111111111011101;
	76 :	1111111111100110;
	75 :	1111111110101101;
	74 :	1111111111000111;
	73 :	1111111110010001;
	72 :	1111111111110110;
	71 :	0000000001011101;
	70 :	0000000000001111;
	69 :	1111111110111001;
	68 :	0000000000010110;
	67 :	0000000000010010;
	66 :	0000000000011011;
	65 :	1111111111111111;
	64 :	1111111111110001;
	63 :	0000000000100110;
	62 :	0000000000010000;
	61 :	1111111111000011;
	60 :	0000000000100011;
	59 :	1111111111110010;
	58 :	1111111111111010;
	57 :	0000000000000111;
	56 :	0000000000010101;
	55 :	0000000001001001;
	54 :	1111111111111110;
	53 :	1111111111011110;
	52 :	1111111111101101;
	51 :	1111111111111100;
	50 :	0000000000100001;
	49 :	1111111111001100;
	48 :	0000000000001000;
	47 :	1111111111110001;
	46 :	0000000000010101;
	45 :	1111111111100100;
	44 :	1111111111100000;
	43 :	0000000010011100;
	42 :	0000000000111001;
	41 :	0000000000011011;
	40 :	0000000000010011;
	39 :	1111111111101011;
	38 :	0000000000000111;
	37 :	1111111111110010;
	36 :	1111111111101010;
	35 :	0000000000000000;
	34 :	0000000000011111;
	33 :	1111111111111001;
	32 :	1111111111010100;
	31 :	1111111111111011;
	30 :	0000000000101110;
	29 :	1111111111000000;
	28 :	0000000000001101;
	27 :	1111111111100000;
	26 :	1111111111110101;
	25 :	0000000000010001;
	24 :	1111111111001111;
	23 :	1111111111111010;
	22 :	0000000000011101;
	21 :	1111111111110100;
	20 :	0000000000010000;
	19 :	1111111111110101;
	18 :	0000000000110000;
	17 :	1111111111100010;
	16 :	0000000001010110;
	15 :	1111111111110100;
	14 :	1111111111010010;
	13 :	0000000000000110;
	12 :	0000000000010100;
	11 :	0000000000010110;
	10 :	0000000000000110;
	9 :	1111111111110100;
	8 :	0000000000011101;
	7 :	1111111111110011;
	6 :	1111111111111000;
	5 :	0000000000100000;
	4 :	0000000000000000;
	3 :	1111111111111111;
	2 :	0000000000001010;
	1 :	0000000000000010;
	0 :	1111111111111010;
END;
